ి </w>
ు </w>
్ </w>
ా ర
్ ర
ా </w>
ో </w>
ం ద
న ్
ం </w>
‌ </w>
స ్
న్ న
ా ల
్ య
్ ల
న ి</w>
ి క
ే </w>
న </w>
ం చ
ల ో</w>
ర ్
, </w>
ు ల
ార ు</w>
ంద ి</w>
ప ్ర
ీ </w>
గ ా</w>
న ి
క ్
ు క
ం ట
ి ంచ
చ ే
స్ త
వ ి
ా న
ం డ
్ ట
ా య
ు న్న
ం త
ు త
ర ా
క ు</w>
న ు</w>
స ి
్ ప
ర ి
డ ు</w>
ర ్</w>
న ్</w>
ె ల
స ్</w>
ి త
ల ు</w>
ప ్ప
మ ా
ం లో</w>
క </w>
ిక ి</w>
ుల ు</w>
ం గ
వ ా
ట ్ట
ఈ </w>
్ చ
ప ో
న ు
ి న</w>
ూ </w>
్ వ
్య ా
క ా
స్ ట
ం గా</w>
త </w>
ర ో
చ ్చ
డ ి
ల </w>
త ్
క ొ
ి ల
వ ే
ా మ
ద ్
క ి</w>
ప ా
ప ై
క ు
ి ంది</w>
ట ్ల
ల ో
ాయ ి</w>
చ ె
ాల ు</w>
న్న ి</w>
క ో
క్ ష
ల ే
బ ా
ర ు
త ి
ాన ికి</w>
ద ే
ప ె
త ెల
గ ్ర
మ ు
ట ్</w>
ుక ు
ద ి</w>
ఉ న్న
ద ు</w>
న ే</w>
క ే
ూ డ
త ీ
స్ థ
ర ె
స్త ున్న
ార ్
న ే
పై </w>
గ ు
స ం
మ ె
ు డు</w>
్ల ో</w>
మ ీ
త ి</w>
న ా</w>
త ో</w>
ాల </w>
ష ్ట
ల ్</w>
స ా
వ ర
0 </w>
క్ క
మ </w>
క ూడ
్య </w>
ట ీ
ంద ్ర
క ార
ట ి
వ ై
అ య
ల ా
డ ్
ళ ్ల
త ్ర
కూడ ా</w>
ు ంది</w>
ండ ి</w>
మ ్
వ ార
దే శ
ూ ర
ా డు</w>
చే స
సి ని
ు వ
క ర
మ ై
ల ి
ం ప
ుక ు</w>
డ ి</w>
క ్ర
ద్ ద
ణ </w>
వ ె
ుల </w>
ిక </w>
న ా
స ీ
ంచ ి</w>
వ ్య
అ ంద
ుత ున్న
ంత ో</w>
ద ీ
రా జ
డ ్</w>
ప్ర భ
గ్ర ామ
వ </w>
మ ీ</w>
వ చ్చ
మ ి
మ ో
ట ు</w>
ుక ో
ంట ే</w>
ించ ారు</w>
య ం</w>
ే ష
అ వ
ర ు</w>
అ ధ
ఆ </w>
ిల ్ల
ప రి
సిని మ
ని ర్
ప ే
త్ త
శ ా
ట ి</w>
క ్</w>
డ ం</w>
ఉ ంది</w>
మ ార
స ు
ో ంది</w>
చె ప్ప
ించ ి</w>
న్న ారు</w>
చే సి
చే య
య ా
ర </w>
ంద ని</w>
ిత ే</w>
ను ండి</w>
ద ా
ంగ ్</w>
బ ్
ు గా</w>
మ్ మ
మ ూ
రో జ
ప్ప ుడు</w>
ి న
చే శ
ట్ల ు</w>
య </w>
ప్రభ ుత
ి స్త
మ ొ
ను ంచి</w>
ం బ
పో య
్ల ు</w>
స మ
వ ్యా
ంట ి</w>
5 </w>
ర ిక
ద ్య
్ర ీ
తెల ి
ప్రభుత ్వ
జ ా
వ ీ
ూ ప
ంత </w>
వి ష
త న</w>
ార ి</w>
ాల ని</w>
య ో
గ ్
ుక ున్న
ద ు
ప </w>
రా ష్ట
రి య
వ ర్
స ె
రాష్ట ్ర
ంద ుకు</w>
ల ్ల
భ ా
క ె
త ం</w>
స మా
ఉ ండ
భ ార
ం ధ
ప ీ</w>
తీ స
చ ాల
ప ు</w>
ప ార
ాల ో</w>
డ ు
మై న</w>
న్న </w>
ధ ్య
త ా
: </w>
ద ూర
ిక ార
ఒ క</w>
ద ్</w>
బ్ బ
క ాన
స ు</w>
ర్ శ
డ ానికి</w>
వి ధ
ర ై
- </w>
ద ి
కే ంద్ర
ల ీ
అయ ితే</w>
ఆ ర్</w>
చాల ా</w>
స ి</w>
న ీ
) </w>
న్ స్</w>
ప్ర ా
ా న్ని</w>
ాల ్లో</w>
్ర ి</w>
త ్య
మ ే
చేశ ారు</w>
అ భ
జ ిల్ల
ప ు
ం లో
ఆ య
ధ ా
చే స్తున్న
ాన ు</w>
స ర
ించ ిన</w>
ుకో వ
ప ీ
ార ని</w>
( </w>
ుకు ంట
సినిమ ా</w>
2 </w>
అ ని</w>
ం క
రె ండ
ప ాల
ల ా</w>
తెల ు
చ ి
ట ిక
అధ ికార
స ం</w>
చ ంద్ర
ష ్
చ ార
ఉన్న ాయి</w>
మ ్</w>
పా టు</w>
రో నా</w>
డ </w>
ుల కు</w>
ూ ర్
ద </w>
ఫ ో
చే స్త
రి గ
న ం</w>
డ్ డి</w>
చ ిత
బా బ
హ ి
‘ </w>
్ స్</w>
ల క్ష
ఉన్న </w>
రు గ
ర ూ</w>
మ ంత
ాల ి</w>
స ే
ట </w>
ఓ </w>
1 0</w>
4 </w>
ించ ింది</w>
క రోనా</w>
ా డ
ద ని</w>
ాల ను</w>
ార ్</w>
ర ీ
కాన ీ</w>
ద ర్శ
వ ్వ
ట ు
లే దు</w>
ఎ న్న
ఉ ంట
’ </w>
ద్ ధ
దూర ంలో</w>
ి ని</w>
ము ంద
మ రియ
మరియ ు</w>
మ ే</w>
ప డ
ఇ క</w>
ండ ్</w>
వా త</w>
స </w>
ట ీ</w>
అ న
ాన ్</w>
వ హ
గ్రామ ం</w>
ిల ్</w>
ల కు</w>
ప ్
స్ట ్</w>
త ే
బ ో
చిత ్ర
ిక ్</w>
వ ి</w>
పె ట్ట
ెల ్ల
బ డ
ప ొ
త ర
రె డ్డి</w>
జ ే
1 </w>
ంట ్</w>
వ స్త
అ ంత
క్ క</w>
ఆ ర్
ట ్ర
శ ్రీ
ుత ుంది</w>
న ె
ి య
బ ంధ
మ ర
బా ద్</w>
గ ా
బ ీ
ి లో</w>
మంత ్రి</w>
వే శ
త ్</w>
కో సం</w>
ం జ
ఆయ న</w>
్య ం</w>
స ంద
ార ా</w>
ట్ల </w>
క్ కు
డ ా
న ెల
ల ై
గ్ గ
వ ు
ుల ను</w>
గ ో
అ ను
ప ట్ట
ల ను</w>
ున్న ారు</w>
పో త
మా త్ర
ని య
జిల్ల ా</w>
స ౌ
వ ు</w>
ర్ చ
గ ొ
క ాల
ఇ ప్పుడు</w>
ర ే
ఎ స్</w>
డ ంతో</w>
ామ ని</w>
డి య
చేసి న</w>
అభ ి
ేష న్</w>
ర ్యా
పార ్ట
స ో
డ ీ
జ గ
హ ై
క లి
ుక ొ
ద ే</w>
వ్య క్
త ్వ
ట ం</w>
ప ి
న ాయ
ండ ా</w>
త ె
య ్య
అ లా
వ ారు</w>
త ప్ప
కార ్య
2 0
3 </w>
ద ్వ
" </w>
ప ూర్
జ న
ల ్లో</w>
ప ్</w>
స్థ ిత
… </w>
స ై
ంగ ా
సా గ
క ల
అ న్నారు</w>
ఖ ్య
ల ్
సౌ కర
్ల ా
చంద్ర బాబ
బ ె
అ ంట
ఆ మె
చ ూ
8 </w>
ఫ ్</w>
ఇ చ్చ
ప్రభుత్వ ం</w>
ఇ ప్ప
ఏ ర్
వ ృ
మ ంది</w>
ు ందని</w>
యో గ
వి జ
ర ూప
ఫ ీ
వ ల
రా బాద్</w>
య ి
త న
న్ య
ాల ్
తెల ంగా
ర ్య
ద ్ర
వార ి</w>
వచ్చ ు</w>
శ ్
జ ్</w>
వార ం</w>
క ి
క్ ట
ుల ్లో</w>
పో లీ
6 </w>
9 </w>
జ ీ
ని ప
రెండ ు</w>
ొ క్క</w>
బ ి
్య ూ
విష య
ుతున్న </w>
ప్ర జ
స హ
చె ంద
వి ద్య
ద ా</w>
్ర ె
ఇ ది</w>
ప్ త
హై ద
ర ్లు</w>
స మీ
స్థ ాన
వ్య వ
ని ంచ
కు ండా</w>
ర ్ల
వ ్</w>
ధ ార
గ ే</w>
త ొ
ే ందుకు</w>
స ంగ
డ్ డ
ద్వ ారా</w>
జగ న్</w>
ు గ
డ ై
ట్ట ు</w>
హ ా
మ ార్
స్తున్న </w>
క ీ
త ర్
తెలి ప
గ ి
ట ె
మ ు</w>
ట్ట ి</w>
సం స్థ
కేంద్ర ం</w>
య ొక్క</w>
ద్ద </w>
త ులు</w>
వై ర
ుత ోంది</w>
ర్ కొ
ప్ర క
కా దు</w>
ర్ భ
స ీ</w>
చేసి ంది</w>
బ ్</w>
ుకు ని</w>
మ ాన
హ ీ
ేష ్</w>
మీ రు</w>
హైద రాబాద్</w>
త ు
క ళ
ర హ
ద ారి</w>
ర ించి</w>
స ాయ
ఎన్న ిక
న ూ</w>
ప్ర ధా
ున్న </w>
మ ి</w>
మొ ద
ఒ క
జ రిగ
స ులు</w>
రాష్ట్ర </w>
ర ి</w>
' </w>
అ త
ఆమె </w>
ో కి</w>
రా వ
ళ్ల ు</w>
సమా చార
తర్ వాత</w>
చేస ి</w>
ు లో</w>
ుకున్న </w>
మ ధ
ల ి</w>
సి న</w>
చ ై
7 </w>
శ ాల</w>
కార ణ
ప థ
శ ్ర
చెంద ిన</w>
ాల కు</w>
అ నే</w>
ం శ
త మ</w>
మా ట్ల
మాట్ల ాడ
క్కు వ</w>
బ ాల
ప్ర తి
ష న్</w>
జ ి
అ న్న
బ ్ర
ప్రా ంత
మ ండ
ణ ్</w>
క్ర మ
లే దని</w>
అ మ్మ
ప ంచ
స్ ప
అధికార ులు</w>
బడ ిన</w>
అ ది</w>
ర ం</w>
లా ంటి</w>
గు ర్
సంద ర్భ
సి ంద
ళ </w>
మాత్ర ం</w>
ష ్</w>
ర ంగ
ట ా
ట ో
భా గ
న ీ</w>
సమ య
మ హ
ఖ </w>
బీ జే
హ ం</w>
సం ఖ
ప్ర </w>
పరి స్థిత
సం బంధ
స్ వా
వైర స్</w>
ప్రక ట
డ బ్బ
కొ న్ని</w>
వ ర్</w>
ౖ న</w>
వర కు</w>
రోజ ు</w>
ుత ూ</w>
ు ను</w>
గ్రామ ంలో</w>
ర్ థ
న ో
వు డ్</w>
క థ
ఫ ి
చేస్తున్న ారు</w>
ఇ ంట
ి గా</w>
క ే</w>
త్ త</w>
ంలో ని</w>
మ ా</w>
సంఖ ్య</w>
మధ ్య</w>
స్త ుత
అ క్క
ాన ం</w>
పే ర్కొ
ప్ర త్య
ర కు</w>
ె ట్</w>
స ూ
అలా గే</w>
కా ంగ
కాంగ ్రె
వ ్ర
ఇ వ్వ
ళ్ల </w>
క ృ
మ ిక</w>
ళ ్
ి నా</w>
వ ీ</w>
ు ండ
న మో
కా గా</w>
శ ి
దీ ంతో</w>
తెలిప ారు</w>
బ ల
ుతున్న ాయి</w>
రహ దారి</w>
కా శ
స్తున్న ారు</w>
ప్ర య
ప్రయ త్
లక్ష ల</w>
ణ ా
నిర్ వహ
గ త
విధ ంగా</w>
స్తుత ం</w>
ష ల్</w>
ం పై</w>
హ ార
a </w>
ఎ న్
అధ ్య
ర గ
అ ల
ఏర్ పాటు</w>
లే క
ఎ వర
ప్ర శ్
ై న</w>
కా వ
ూర ు</w>
ుతున్న ారు</w>
సౌకర ్యం</w>
హ ె
ుల ్</w>
సింద ే</w>
ప్రభుత్వ </w>
ర్ వ
జ ార
ఆ దేశ
ఏ </w>
ష్ ణ
గ </w>
ంద </w>
స్ట ార్</w>
ప్రధా న</w>
చె బ
ృ ష్ట
జ ీ</w>
న లు</w>
సిని మా
లో ని</w>
నిర్ మా
చ ్</w>
0 0</w>
ముంద ు</w>
ఇప్ప టిక
డా ది</w>
కు డు</w>
త ు</w>
మొ త్త
క్ సి
ప్రత్య ే
చెప్ప ారు</w>
ప ద
తెలంగా ణ</w>
త లు</w>
ించ ే</w>
తెలి సిందే</w>
కు టు
గ ాన
మూ డు</w>
తీ య</w>
ర ీ</w>
వి డు
ిత ో</w>
క ట్ట
న ట
వ ెల్ల
గ ు</w>
ిక ్
మ రో
స ారి</w>
ఉ ద్య
వి శ
స్త ోంది</w>
టీ ఆర్</w>
ం భ
కొ త్త</w>
గు రించి</w>
ి ప
జ ూ
సమాచార ం</w>
వ ంత
వ ార్
క్ష </w>
మ ంచి</w>
హ ిత
20 1
పై బడిన</w>
వ న్</w>
రా మ్</w>
ఫ ె
మీ డియ
మ రి
ాల తో</w>
అవ సర
పార్ట ీ</w>
ంట ూ</w>
డ ీ</w>
క ర్
ఎ ం</w>
టీ డీ
ప ర
ఉంట ుంది</w>
బ య
పోయ ింది</w>
టి ని</w>
అ మ
ీ వుడ్</w>
ఇ ండ
కు మార
ుకున్న ారు</w>
జ </w>
కో ర
క ులు</w>
స్త ే</w>
5 0</w>
ల ె
ో నే</w>
ఎ ంప
ఫో న్</w>
స్ట ్ర
ఇ దే</w>
బ ంగ
నిర్ ణ
భ ుత
ట ్
న్న ి
ప్ర ే
మ ిక
ంత ా</w>
పో స్ట
ఎ లా</w>
శా స్త
ించ డానికి</w>
త య
జ రుగ
సమీ ప</w>
ే ట
ప ల
డ ుక
క ం</w>
ల ం</w>
ము ఖ్య
కాంగ్రె స్</w>
తీ వ్ర
సా మా
ో ని</w>
ాల ి
ఉ త్త
పోలీ సులు</w>
కుటు ంబ
ఆ రో
స్ సు</w>
జా తీయ</w>
చంద్రబాబ ు</w>
న గ
భా వి
ళ్ ళ
ద ార
త గ్గ
ఫి ర్యా
నమో దు</w>
జ ై
న ంద
ీ లో</w>
పూర్ తి</w>
పా ఠ
వ ెల
స్త ూ</w>
ీ గా</w>
రాజ కీ
సమయ ంలో</w>
వచ్చ ిన</w>
డి ని</w>
ష ా
కళ ా
ే శ
మ హి
ఆ ట
దేశ ్</w>
లో కి</w>
ణ ా</w>
మ ని</w>
అయ ్య
వృ ద్ధ
అ ద్
ఢ ిల్ల
ఇప్పటిక ే</w>
హీ రో
మె ంట్</w>
గ ం</w>
ప్ర స్తుతం</w>
యా న్ని</w>
ఎ దు
e </w>
మార్ కె
గ్రామ ానికి</w>
అ ర్
ఎన్ టీఆర్</w>
ౌ ర
కొ న
రా మ
్ర ా
భార త్</w>
చె య్య
అవసర ం</w>
మె ౖన</w>
నియ ర్</w>
క్ట ర్</w>
చ ూప
చేస ే</w>
స ెల
స భ
ఉ ప
ంద ో
ందో ళ
స్థ ాయ
కార ం</w>
గ ారు</w>
గ ంట
ని జ
ి ంద
తెలు స
భ ూ
వ ిక
బో త
కే సు</w>
ై ల్</w>
మ ్యా
వే ద
వ ం</w>
క నిప
జ ె
ఇ టీ
ప ంప
అ నే
ఉ ంటే</w>
పో వ
సీ ఆర్</w>
్ట ్</w>
చే ర
గ త</w>
ప్ర మా
చ ా
స్త ుంది</w>
మహి ళ
విడు ద
ద ొ
ట ువ
ప్రభ ా
వ్యక్ తం</w>
కార్య క్రమ
ు డ
క ్ల
పె ద్ద
అద్ భుత
తా జా
తాజా గా</w>
త ా</w>
ిన ట్లు</w>
వా ద
రిక ార్
డ ె
ద గ్గ
అ త్య
తొ లి</w>
s </w>
నించ ారు</w>
ఆ ఫీ
అ న్ని</w>
జ రగ
ణ ం</w>
విష యం</w>
ార్ థ
కల ్ప
సీ ఎం</w>
ుత ుందని</w>
స ర్
ఆ ందోళ
త రు
ఉండ ే
న ాల
ించ ాడు</w>
ని ల
అ ంటే</w>
నెల </w>
ియ ా</w>
ఫ ్యా
పా త్ర
ర ో</w>
ప ్ల
య ువ
కుమార ్</w>
న్ లు</w>
ుకు ంది</w>
ప ండ
సె ంబ
ఆర్ ఎస్</w>
కే సీఆర్</w>
ంలో నే</w>
వ య
ఖ ా
శా ఖ</w>
బీజే పీ</w>
ద ూ
ఇ త
అవ కాశ
ర వా
ప ి</w>
పరి శ
త్ తి
అభ ్య
అంట ూ</w>
ఫో టో
హ ు
– </w>
మీ ద</w>
మొద లై
ుక ్</w>
్ర ం</w>
ండ </w>
ుల ుగా</w>
గు రు
ప్ర పంచ
సో షల్</w>
క ం
దీ ని</w>
క్సి న్</w>
ధ ి</w>
వ్యవ స్థ
క ూ
పాఠ శాల</w>
ర చ
శా తం</w>
r </w>
అ మె
అమె రిక
చ ర్య
వే డుక
కొన సాగ
నే పథ
పేర్కొ న్నారు</w>
ప్రత్యే క</w>
సమా వేశ
శ్ర ీ</w>
చ ెల్ల
మరి ంత</w>
యో జ
వ్యా ఖ్య
స్ పె
ఆ ధ
సందర్భ ంగా</w>
పీ కి</w>
ఆ శ
సౌకర ్య
ాయ ి
విజ య
కాల ం</w>
వి విధ
వివిధ </w>
ు న</w>
చ ్
చ ీ
ప ూ
లే దా</w>
త మ
మ ధ్య
సు ర
దు ప
స్ట ్రీ
సి ద్ధ
ప త్ర
ంత రం</w>
పా ద
సే వ
ిస్త ుంది</w>
చ ూడ
ున్న ాయి</w>
ప్ర వేశ
టీ ఆర్ఎస్</w>
ఎ మ్మ
ఎమ్మ ెల
సా ధ
ఆ ద
ప్రమా ద
మ ృ
ఎ స్
ప న
స క్
ఉన్న ారు</w>
పా ట
ుత ో</w>
ుకు నే</w>
స ార
ఇత ర</w>
టువ ంటి</w>
దేశ ంలో</w>
బ ్యా
చ ర
డ ే</w>
రవా ణా</w>
ంట </w>
చిత్ర ం</w>
నిర్ణ య
ఫ ల
ుల పై</w>
వర్ ష
మ ిత
చెప్ప ుకొ
చెప్పుకొ చ్చ
క ార్
ెల ి
ించ ాలని</w>
ించ డం</w>
ప లు</w>
ార ె
తె చ్చ
వె ళ్ల
వ ల్ల
ద ె
ాయ ని</w>
/ </w>
అ డు
కో ర్
గ ార
మ ంద
క ంటే</w>
రచ య
రచయ ిత
వ ద్ద</w>
నా థ
వ ంద
క్ ట్</w>
్య ంలో</w>
మే రకు</w>
తి రిగ
ాల ుగా</w>
మ న
ప ని</w>
అ ంశ
దీ ని
ఇ లాంటి</w>
వర్ గ
ష ే
చ ర్చ
ప్త ంగా</w>
సీ పీ</w>
త్ మ
ద ్య</w>
ఎ ంతో</w>
సౌకర్య ాలు</w>
రాజ ు</w>
చ ో
్ల </w>
ఎ క్కువ</w>
ఉ ంచ
వా స
క ంట
ఫ ్ల
ి ందని</w>
ంద ం</w>
వా టిని</w>
వచ్చ ింది</w>
పె ంచ
మూ వీ</w>
ట ై
ాన ని</w>
లో నే</w>
క న్న
త ండ
తండ ్రి</w>
ట ్స్</w>
ప్ర ి
ఎ ంట
హ ో
రై తులు</w>
ుత ు
జరిగ ింది</w>
నెల కొ
డి ంది</w>
ంద ర్</w>
క ాల</w>
ది గ
త్ తి</w>
వై పు</w>
దా ని</w>
మీ ట
ాల యం</w>
పాల ్
పాల్ గొ
ఫ ై
తర ల
ర ూ
టె స్ట
ఆ డ
శ ు
చ ు
కేంద్ర </w>
రాజ ్</w>
వ ంటి</w>
ఉ ష్ణ
ా ం</w>
ఆ ధార
ల ువ
అభి వృద్ధ
ఢిల్ల ీ</w>
ర క్ష
న్ యం</w>
బ్ర ి
స్ వీ
సి ంది</w>
ఏ డాది</w>
దర్శ కుడు</w>
యి న్</w>
పె ద్ద</w>
ో ందని</w>
పో టీ</w>
మ్ మ</w>
ిత ంగా</w>
న ాలు</w>
టా క్</w>
బయ ట
వ్య వహ
ము లో</w>
జన గ
స ుల</w>
మ తి</w>
ప రీ
వ్యా క్సిన్</w>
కా బ
లో పు</w>
బ ్ల
ఎన్నిక ల</w>
ప్ప టిక
వ్యవ సాయ
ప్ర దేశ్</w>
కలి సి</w>
ను వ్వ
త క్కువ</w>
l </w>
అధ్య క్ష
ద ర
తెలంగా ణ
కారణ ంగా</w>
దే వ
చర్య లు</w>
వె ంట
ద్ దు</w>
వె న
ఎ ందుకు</w>
శ క్
మాత్ర మే</w>
ించ ేందుకు</w>
సామా జ
సామాజ ిక</w>
ఇ న్</w>
ామ ు</w>
పరి ధ
ు న
ంబ ర్</w>
జార ీ</w>
గ డ
ుకోవ డానికి</w>
పె డ
స్థాయ ిలో</w>
త ిక
స్వా మి</w>
నాల ుగ
గ్ర హ
పొ ంద
చిత్ర </w>
అ దే</w>
ఒక టి</w>
వెల్ల డ
గ ాయ
సుర ేష్</w>
ుల ోకి</w>
వా హ
టి ంగ్</w>
త్వ ర
ద ృష్ట
అ సెంబ
అసెంబ ్ల
ని ఖ
ూర ి</w>
ఇ క్క
మరో సారి</w>
నే త
ంలో కి</w>
కె క్క
న ూ
భార ీ</w>
ఘ ట
మర ో</w>
క న్
2 0</w>
గ ల</w>
వే గ
ర ికి</w>
అంద ు
ఒ క్క
అ ండ్</w>
విడుద ల</w>
పోయ ారు</w>
చేస్త ూ</w>
ాయ </w>
తెలు స్తోంది</w>
స రి
సి ంగ్</w>
భార త</w>
సంస్థ </w>
ాల ంటే</w>
ంప ు</w>
వి వర
అద్భుత మైన</w>
బ్బ ంద
వి లువ
ో గ
ాడ ని</w>
ధ్య ం</w>
రై త
పె ళ్ల
ఇ లా</w>
” </w>
ఇచ్చ ిన</w>
తి ని</w>
ఆ లో
ఆలో చ
ప వన్</w>
్యా ణ్</w>
డబ్బ ులు</w>
టీడీ పీ</w>
మై </w>
కో ట్ల</w>
ల్ డ్</w>
తి రే
సమ స్
కర ించ
సినిమా కు</w>
1 5</w>
ాల్ సి</w>
ం కా
ట్ల ో</w>
రోజ ులుగా</w>
కలి గ
పు ట్ట
ద్య ం</w>
ఎ ం
తయ ారు</w>
లో నూ</w>
ర్ మ
ిస్త ూ</w>
న ష్ట
స్ క్ర
ల ్ప
n </w>
కర </w>
రో డ
ఖ ్యా
కొ ట్ట
మ ిల
ర్ల </w>
జ ్
స్ప ంద
లో ను</w>
ప్రా థ
కళా శాల</w>
ల లో</w>
డియ ో</w>
అక్క డ</w>
త ుల
i </w>
శాస్త ్రం</w>
న ున్న</w>
రాష్ట్ర ంలో</w>
నేపథ ్యంలో</w>
జ య
ంట ున్నారు</w>
క ంగా</w>
సా ధార
కార ్</w>
ే జ్</w>
ముఖ్య మంత్రి</w>
ప ని
జరిగ ిన</w>
మాట్లాడ ుతూ</w>
సంగ తి</w>
సభ ్య
ఉప యోగ
ప క్క
వ్యా ప్తంగా</w>
న ని</w>
యా త్ర
అ రె
మీడియ ాలో</w>
ఆ గ
ల ు
తరు వాత</w>
ని మి
ప క్ష
ట ర్</w>
ళ్ల ీ</w>
ార ి
బ ృ
హి ట్</w>
ొ ంద
సంద ే
ుండ గా</w>
ఫిర్యా దు</w>
ట ో</w>
త ను</w>
మ వ
అన ంతరం</w>
ప ిల
ుకు ంటే</w>
చి న్న
భార ీగా</w>
ీ లు</w>
్ల లో</w>
ఎమ్మెల ్య
బ్ ద
పార్ట ీ
క ష్ట
తె ర
న ొ
క త్వ
బాబ ు</w>
త్ స
ర్ స్</w>
శ ్చ
వర ి</w>
1 8</w>
గ ౌ
ది శ
1 2</w>
ప్ర ార
ప్రార ంభ
జ ాన
3 0</w>
ఇటీ వ
ఇటీవ ల</w>
ుకు నే
కొ ండ
దేశ </w>
ట్ట ుగా</w>
ఎంట ్ర
ట ా</w>
య ూ
లేక పోయ
ని యోజ
సై తం</w>
త ారు</w>
బంగ ్ల
ఎ క్కు
ఉ ందని</w>
త ్య</w>
ఉ ద
ప ల్ల
వార ిని</w>
ప ం</w>
ిత ం</w>
గా ంధ
త ో
ర ా</w>
పాల ్ప
వి చార
ఇంట ర్
ష్ ణ</w>
ర ాయ
ర ాలు</w>
స న్ని
ాల ీవుడ్</w>
“ </w>
ఏ ం</w>
వి భ
జ న</w>
ల తో</w>
తన కు</w>
తెలి య
ల ుక్</w>
వ్య తిరే
వి ని
విని యోగ
అ తి
వే య
స ంచ
ల ే</w>
వె ంక
విద్య ా</w>
య ా</w>
విషయ ంలో</w>
కొ ను
కొను గో
నా కు</w>
ప్ర ీ
ఎ క్క
ప రుగ
మ నం</w>
హ ామ
మొత్త ం</w>
వల్ల </w>
మా ట
వి మ
విమ ర్శ
C </w>
న ను</w>
వ సూ
విక ్ర
తీస ుకోవ
లే కుండా</w>
ఆ ంధ
ఆంధ ్ర
ర ించ
ి ంగ్</w>
ప్రశ్ నించారు</w>
ాల ్ల
మర ొ
మొ బ
మొబ ైల్</w>
రోడ ్లు</w>
గ ్య
అభ్య ర్థ
ఆరో ప
వ్యవసాయ </w>
ో న్న</w>
య స్</w>
స ృష్ట
అభి మాన
ిక ంగా</w>
t </w>
o </w>
మిక ్స్</w>
అమెరిక ా</w>
ల భ
నాథ ్</w>
న వ
ర్ ట్</w>
్ వా
తిరిగ ి</w>
ప్రజ లు</w>
భ య
విద్య ుత
ణ లు</w>
పోత ే</w>
న ర
తొ ల
ప వర్</w>
స్ట ేషన్</w>
ువ ులు</w>
మై న
దీని పై</w>
అధ్య య
గు ంట
ల్ ని</w>
వ్యాఖ్య లు</w>
గ ార్
క ్లా
రిక ీ</w>
లా భ
బ స్సు</w>
వై సీపీ</w>
అరె స్ట్</w>
చేయ డం</w>
ుక </w>
కృ ష్ణ
య ు
ుకో వచ్చు</w>
వెంట నే</w>
ే ద
రోజ ుల</w>
బృ ందం</w>
న్న ీ</w>
బాల ీవుడ్</w>
అలా ంటి</w>
స ూప
హీ రో</w>
ఫ ్రా
రూప ొంద
హ ాలు</w>
ఫ ొ
వేద ిక
క ్యా
చె ప్త
తెలు గు</w>
లి ంగ
వ స్తున్న</w>
ష ూ
అంత ే
ంద్ర </w>
ాల లో</w>
అనే క</w>
ప ్లా
డి లో</w>
నే డు</w>
ధా ని</w>
పై గా</w>
రాజకీ య
జీ వి
ఉద్య మ
వ్యా పార
బా గా</w>
ఖ ర్చ
క న
తెర కెక్క
ప్ర సా
కథ </w>
నిర్ మ
రావ డం</w>
సు మ
మై ంది</w>
అ ంచ
డ్ డ</w>
డి గ
కొ ద్ద
వే స
పన ులు</w>
ఆ సక్
యి ర్</w>
ెల ్</w>
బా టు
ాయ ం</w>
వా ళ్లు</w>
ఉ ల్ల
దేశ ం</w>
నియోజ క
అవకాశ ం</w>
కీ ల
ట్ల ను</w>
త్త ు</w>
వ గా</w>
డ ్ర
ప ౌర
భ వ
డ ా</w>
తి రుగ
సంగ ీ
న్ ల</w>
పెద్ద గా</w>
చ ిక
ో ధ
ఇ ంక
బ ు
విలువ </w>
ఇ ంద
ఆ ఫ్</w>
జ ు
డి యో
ల ర్</w>
క ూ</w>
దీ ర్
దీర్ ఘ
ప్ర చార
ఒ ప్ప
ఫ ిక
ము ద్ర
రా వు</w>
ర ే</w>
గాన ే</w>
సినిమ ాను</w>
చేశ ాడు</w>
పెళ్ల ి</w>
హీరో యిన్</w>
పరిస్థిత ి</w>
ాయ ిత
వ్యక్ తి</w>
మ ంచ
కళ ్యాణ్</w>
తన ను</w>
చ ి</w>
త ాను</w>
వే ల</w>
ఎన్నిక ల్లో</w>
ిత </w>
తమ కు</w>
లే ని</w>
సం ఘ
ఫ స్ట్</w>
ాల ్</w>
అయ ిన</w>
అను ష్
అనుష్ క</w>
ను ంది</w>
విషయ ాలు</w>
చేస ేందుకు</w>
ప్ప ుడ
తి రు
చేయ డానికి</w>
చ ట్ట
మ ద్ద
ఏ ళ్ల</w>
త ే</w>
బ్బ ంది</w>
1 1</w>
కం పె
ట ార్</w>
క్ష లు</w>
స్ట ా
మ ద్యం</w>
జి ఎస్</w>
ప న్న
డ ్యూ
4 5</w>
టి వ్</w>
స ుల
వ ుల</w>
తే డాది</w>
ద ిల
గుర్ త
గ ెల
ు చ
వచ్చ ి</w>
ుకున్న ాడు</w>
d </w>
దా ని
ఐ </w>
నె ట్</w>
ప్ర ై
వే టు</w>
కర ణ</w>
ియ న్</w>
ఇ ంత
మ ళ్లీ</w>
ఇచ్చ ారు</w>
వై యస్</w>
ుకుంట ూ</w>
జూ నియర్</w>
1 9
డి ప
మీట ర్ల</w>
నువ్వ ే</w>
య ిల్</w>
బో య
చ క్ర
సు ష
సుష ు
సుషు మ్
సుషుమ్ న</w>
క్ర ియా</w>
రి జ
లే క</w>
ువ ుల</w>
ఉ ప</w>
సమా ధి</w>
కూ తు
పో రా
న కు</w>
ద ీ</w>
ాల య
చే పట్ట
భ ద్ర
డ ికి</w>
ాన ే</w>
మీడియ ా</w>
స్ప ష్ట
ప్రకట ించారు</w>
న మ్మ
తొల గ
ాన ిక
పద ార్థ
సీ నియర్</w>
ఏ పీ</w>
ద ళ
డి గా</w>
నే తలు</w>
పరిధ ిల
బ ుల్</w>
2 1</w>
1 3</w>
గ్ర ా
ుల తో</w>
్యా న్ని</w>
పా డ
ంక ే</w>
ధ ాన
అ డ్డ
మ య
నీ టి
రెండ ే
ప్ర కారం</w>
ప్ప </w>
స్త ారు</w>
నిమి ష
ై నా</w>
్వ </w>
ఉండ ే</w>
ె </w>
ముంద ే</w>
బ </w>
అ నీ
మూ వీ
టై ట
స్ ఫ
తీవ్ర </w>
అ దుప
ద ర్యా
దర్యా ప్త
శ ి</w>
ప ట్ల</w>
న ట్లు</w>
ాన ు
ప్రి య</w>
రో గ
చ ద
ఎ ంత</w>
లేక పోవ
మ ో</w>
అ నిప
అసెంబ్ల ీ</w>
మో హ
తీ ర్
రాజ ధాని</w>
వా తా
వాతా వర
త నిఖ
నంద మ
నందమ ూరి</w>
ా వు</w>
ఇక్క డ</w>
మా జీ</w>
డ మే</w>
పార్ట ీలో</w>
డ ులు</w>
కాల ంలో</w>
ప్రసా ద్</w>
గ ్</w>
స్తున్న ాయి</w>
రా త్ర
రాత్ర ి</w>
ఎస్ పీ</w>
ది రి
వేగ ంగా</w>
ప్ర దర్శ
స ంత
వా డ
పో ర్ట్</w>
దూ స
ుక ె
జ ట్ట
ం స
బా ధ
1 00</w>
అ తి</w>
ే య
ధ ర
ని లి
శు భ
వి భాగ
భ ర్
మో డ
ఏ క
మ గ
1 4</w>
తెలు గు
నియోజక వర్గ
ట ానికి</w>
భావి స్తున్నారు</w>
చ ొ
విధ ానం</w>
ష </w>
పే ర
డ ే
ించ డంతో</w>
నొ ప్ప
స ద
పరిశ ోధ
అభివృద్ధ ి</w>
ే లా</w>
ొ చ్చ
న్య ూ
వ సే
చేయ వచ్చు</w>
ట న్</w>
మా ధ్య
ఇ ద్ద
ఉద్య ోగ
చ ని
అ ంబ
అ సా
న ల్</w>
ంత ్</w>
క్ర ిక
ఎంప ిక</w>
చే రి
ఇ స్త
ప ాల</w>
ఇ ంత</w>
కి ంద</w>
వార్ త</w>
ఆట గ
స్ నే
ఉండ గా</w>
ట ాలీవుడ్</w>
ప్రే క్ష
ప్రేక్ష క
క ౌ
ి పోయ
తి లో</w>
సంబంధ ించిన</w>
ఫోటో లు</w>
ుల ్ల
గుర్ తు</w>
మీ కు</w>
ి ది</w>
శా ఖ
డ్డ ారు</w>
చెప్పుకొచ్చ ారు</w>
ిస్త ే</w>
వ ని</w>
ప్రాంత ంలో</w>
బ ి</w>
లై న్</w>
గత ంలో</w>
స న్</w>
టి ఆర్</w>
సమస్ య
అత్య ధ
సంస్థ లు</w>
స్పె షల్</w>
నిర్వహ ించ
ఇంక ా</w>
ట్ వి
ట్ట ర్</w>
వర్ మ</w>
చర ణ్</w>
సినిమ ాలో</w>
ిస్త ోంది</w>
వ్య ూ
బె ట్ట
స్తున్న ాడు</w>
శ ే
శే ఖ
సాయ ం</w>
బో ర్
బోర్ డు</w>
డై రె
ఎన్న ో</w>
గురు వారం</w>
వ్యవహ ార
కొనుగో లు</w>
అత్య ంత</w>
ఉ గ్ర
ట ్వ
ట్వ ీ
ఉన్న ప్పుడు</w>
వ ద్ద
వి డ్</w>
బా ధ్య
అవ ుతుంది</w>
సంబంధ ించి</w>
సు దీర్ఘ
ఇ బ్బంద
నా భా
చేస్తున్న </w>
రక్ష ణ</w>
ప్ర తి</w>
ప్రతి పాద
వచ్చ ే</w>
వసూ లు</w>
ై </w>
ుత ాయి</w>
ధ ికార
జనగ ణ
జనగణ న</w>
గ ణా
గణా ంక
ష ె
షె డ్యూ
షెడ్యూ ల్డ్</w>
క ఠ
దె బ్బ
వే ళ</w>
నీ రు</w>
ఎ లాంటి</w>
అంట ున్నారు</w>
ంత ి</w>
4 2</w>
ంత ్ర
u </w>
ో ర
కోర్ టు</w>
న మ
ువ ు</w>
వస్త ే</w>
మా ండ్</w>
న ామ
మంద ికి</w>
పోస్ట ా
పోస్టా ఫీ
పోస్టాఫీ సు</w>
ట ెలి
ఆఫీ సు</w>
ప బ్ల
పబ్ల ిక్</w>
ప్రై వేటు</w>
ట్ర ా
వ్యా ఖ్యా
వార ికి</w>
అయ ినా</w>
చేస ుకోవ
శ ారు</w>
ఆంధ్ర ప్రదేశ్</w>
డ ౌ
డౌ న్</w>
డి ఎం
డిఎం ఆర్</w>
ంత ం</w>
ఇండ స్ట్రీ
్యూ టీ</w>
ఆ కట్ట
[ </w>
] </w>
ప్రాథ మిక</w>
స ొ
ణ ి
ధా న్యం</w>
నే ను</w>
టె స్ట్</w>
పో టీ
కే వల
కేవల ం</w>
డి వై
దా దా
వంత ్</w>
వీ డియో</w>
ఉంట ాయి</w>
చెబ ుతున్నారు</w>
ట ేశ
ప్రకట ించింది</w>
మార ్ప
P </w>
ఫల ిత
టి ఫిక
ణ ాలు</w>
స్థాన ములో</w>
ఎ ఫ్</w>
ఎ ంద
నా ని</w>
కాబ ట్టి</w>
నాయ ిని</w>
సమ తుల
ార ీ</w>
థ ర్
థర్ మో
థర్మో డై
నా న్న</w>
మూ త్ర
అధ్యక్ష ుడు</w>
ద ంప
సై న
ిక ులు</w>
తెలంగాణ లో</w>
గ ిల
ఆ ల
విద్యుత ్</w>
దు పు</w>
శక్ తి</w>
మొద టి</w>
బడ ుతుంది</w>
నే త</w>
ఇ ంటి</w>
య ్య</w>
త ాము</w>
బ స్
ించ న
హె డ్</w>
స్ట ే
సెల వు</w>
పోలీ స్</w>
స్ట ాలి
స్టాలి న్</w>
కా పాడ
పడ ుతుంది</w>
పేర్కొ ంది</w>
ఎ ంకే</w>
టీడీ పీకి</w>
ఆందోళ న</w>
చంద్రబాబ ుకు</w>
చంద్రబాబ ును</w>
ి స్తున్న
స ూర
శ ేష
జ న్
జన్ మ
ించ ారని</w>
ా ప
అత ను</w>
ఎ క్
అన ుకుంట
ంచ ె
వాస న</w>
ై ంది</w>
ే ను</w>
ద ానికి</w>
ర వ
` </w>
స్ట ర్</w>
దే వి</w>
టైట ిల్</w>
సూప ర్</w>
వెల్లడ ించారు</w>
శ ాడు</w>
దర్యాప్త ు</w>
జై న్</w>
ఆ నంద
థ ా
న ై
మె ంట
ఇటీ వల
చేస ుకుంది</w>
ఆ సు
ఆసు పత్ర
ి ణ
ని బంధ
న లకు</w>
బ డి</w>
చేయ ాల
ప్రజ ల
ణ ంగా</w>
మొ క్క
సభ్య ులు</w>
త్ సర
ఎమ్మెల్య ే</w>
ప ాయి
ఈ ట
ఈట ల</w>
రాజకీ య</w>
ద శా
రోజ ులు</w>
పోయ ాయి</w>
దర్శ కు
ద ిత
దర్శ కత్వ
స్ వయ
న ికి</w>
ఐ దు</w>
పు రం</w>
అ ద
ప్రాంత ాల్లో</w>
దిశ గా</w>
సుమ ారు</w>
క ిల
కిల ో
ువ ు
నగ ర్</w>
కార్య ాలయం</w>
సమీ ప
నిర్మా ణ</w>
కళా కార
ప్ర ో
ఎ యిర్</w>
అందు బాటు
అందుబాటు లో</w>
మరో వైపు</w>
హ ్యా
ట్ల కు</w>
క నె
క ారు</w>
పై కి</w>
లక్ష ్
వా ళ్ల
తర వాత</w>
రూ ట్</w>
టెస్ట ు</w>
సు లో</w>
క మ
ఉ త్స
స్ క
మ న</w>
జూ న్</w>
5 7
క ింది</w>
ఉ త
ఉత ్ప
నాయ కులు</w>
చ ిక్
చిక్ క
అభి ప్ర
కీల క</w>
స ల
చేస్త ామని</w>
త ాలో</w>
కార్యక్రమ ంలో</w>
ఏర్ పా
ఇ చ్
ని స్త
పార ి
నిర్మా త</w>
అ ఖ
చిక ిత
చికిత ్
స న్న
క ుల
జార ి
పరిశ ీ
పరిశీ ల
సం క్ష
సంక్ష ే
సంక్షే మ</w>
ుకు పోత
గ్ర హం</w>
క పోతే</w>
పు ర
ర ళ
ప్రయత్ నించ
గాంధ ీ</w>
ిక ల్</w>
సె స్</w>
చ ల్ల
ఆ త్
న్య ాయ
ి పై</w>
వే సింది</w>
ఇ ళ్ల
సమావేశ ంలో</w>
కన్న ీ
కృ ష్ణ</w>
ర ాల
చూ స
ించ ాలి</w>
ఇ వి</w>
రైత ులకు</w>
మండ లం</w>
స ార్</w>
మిత ్ర
ఆటగ ాడు</w>
స్నే హిత
స్థిత ి</w>
పో స్ట్</w>
అంత ే</w>
201 4</w>
చేస ే
ుతున్న ారని</w>
చ్చ ితంగా</w>
ట ంతో</w>
అ టు</w>
విష ్
అ ంగ
ప డి
బ ే
క్ర ితం</w>
రి లీ
రిలీ జ్</w>
జా గ్ర
జాగ్ర త్త
ట్వి ట్టర్</w>
ఆసక్ తిక
స్ట ో
ున్న ాడు</w>
వ రి
గ ారి</w>
ండ గా</w>
పి న్న
విశ ్వ
ప్రపంచ </w>
రి ని</w>
కలిగ ి</w>
ఉ ంద
హా ంకా
హాంకా ంగ్</w>
చై నా</w>
మద్ద తు</w>
వయ స్సు</w>
ప్రీ మి
ప్రీమి యం</w>
చేస్త ుంది</w>
త్మ క</w>
లి ంగ్</w>
మ్యా చ్</w>
పుట్ట ిన
మా ధ
ఒ త్తి
నా టి</w>
ప ్యా
ఖ ర
ఎదు ర్కొ
న ర్
1 9</w>
చేసి నా</w>
ని ద్ర
కంపె నీ</w>
ా కు</w>
ఏ మి
ంలో నూ</w>
ప రిక
రు గా</w>
ధ ర</w>
డ ర్</w>
పరిధిల ోకి</w>
క్ష ి
వె ళ
వెళ ితే</w>
గ ులు</w>
చేస్త ోంది</w>
ల పై</w>
ఆదేశ ించింది</w>
5 0
వి స్త
కో డ్</w>
ి స్తున్న</w>
కే సుల</w>
ఆ ం
చేయ ాలని</w>
రై ల
రైల ్వ
రైల్వ ే</w>
ె ౖ
ఒక వేళ</w>
న ది</w>
అను మతి</w>
గ తేడాది</w>
ట లు</w>
అ డిగ
డా క్టర్</w>
క్ర ా
పా త</w>
అడు గు</w>
బె ంగ
కో ల్ప
కోల్ప ో
వె ౖ
క్ త</w>
ఉ ండి</w>
స ా</w>
త ాలి
తాలి బ
ఫ ్
ఫ్ ఘ
హె చ్చ
జ ు</w>
తప్ప ించ
ఇంటర్ నెట్</w>
మొదలై న
వ ాల
ము ఖ
సమ ర్థ
నె </w>
తీస ుకో
న ర్</w>
బ్యా ం
వ్యాఖ్యా నించారు</w>
ప్పటిక ీ</w>
* </w>
వి న
అత డిని</w>
కారణ ం</w>
ప ం
పం జా
పంజా బ్</w>
వస్త ోంది</w>
రూప ంలో</w>
పరుగ ులు</w>
ఫ ీ</w>
సి ం
కోర ారు</w>
లా క్</w>
డ ంపై</w>
ల య
డి మాండ్</w>
వి వాద
ించ ిన
ఆర్ బి
పే రు</w>
1 6</w>
మే నే
సహ ాయ
ఫ్ల ూ</w>
ామ </w>
ఆ ర
సె కన్
థ ియ
డివై జ్</w>
స్ మార
స్మార ్ట్</w>
దాదా పు</w>
అ ప్ప
పా టి</w>
న డు
న్న ా</w>
లే ని
ఇంద ులో</w>
అనే ది</w>
ంక ర్</w>
జ ిక్</w>
ల ్యా
కొ డ
అంద ులో</w>
అమ్మ గారు</w>
చి న్న</w>
ఆ హార
ఓ ట
ిన ీ</w>
సందర్భ ంలో</w>
నో టిఫిక
నోటిఫిక ేషన్</w>
201 9</w>
ి గ
ం క</w>
ఎంద ుక
కె మి
ఆర్ థ
స్ట ేట
స్టేట స్</w>
తర చ
ట్వీ ట్</w>
ఉష్ణ గత
థర్మోడై న
థర్మోడైన మిక్స్</w>
ప్ర తా
ప్రతా ప
ప్రతాప రెడ్డి</w>
రాజ ుగ
రాజుగ ారి</w>
ప తి</w>
లభ ించింది</w>
దంప తులు</w>
ప్రధా ని</w>
ఇ టు</w>
ఏ ప్ర
ఏప్ర ిల్</w>
జరగ నున్న</w>
రా మ</w>
ర ద్దు</w>
ిస్త ార
ా వ
సూ చ
రిక ొ
సాధార ణ</w>
వ ాయ
సే కర
ప ర్యా
అధ్యయ నం</w>
సో మ
సోమ వారం</w>
గుంట ూరు</w>
జిల్ల ాలో</w>
అ ంజ
దళ ిత
మో డీ</w>
తీవ్ర ంగా</w>
తప్ప ు</w>
ఆ కర్
ఆకర్ ష
గుర్ తి
డు ను</w>
న ున్నారు</w>
కా ని
కాని స్టే
కానిస్టే బుల్</w>
వార ానికి</w>
20 21</w>
ప ్ట
ప్ట ె
త మి
న ాడు</w>
శా స
ర్వ ులు</w>
ఆరో గ
ఎ ంత
ఆదేశ ాలు</w>
ు ంద
పెడ ితే</w>
మార ింది</w>
చెప్ప ాలి</w>
క ూర్
వై ద్య</w>
ద ో</w>
నే య</w>
క్ త
ప ుడు</w>
ుల ోని</w>
గొ ప్ప</w>
చే త</w>
నాలుగ ు</w>
వి గ్రహ
నిజ ం</w>
కొ ంచె
మ ుత
్లా ష్</w>
రూప ం</w>
్చ ిన</w>
ుకొ ని</w>
ిల ా
ప చ్చ
స్ వ
క్లా స
భ ి
అనీ ల్</w>
పూ ర్</w>
శ్రీ దేవి</w>
ప్రతి భ
ఫ్యా న్స్</w>
ప ిక్</w>
పాత్ర లో</w>
ం ఛ
స్ఫ ూర్
తి గా</w>
తీస ుకుని</w>
య్య ాయి</w>
సో ద
అదుప ులోకి</w>
స్ట ైల్</w>
క వర్</w>
వేదిక గా</w>
ఊ ర్వ
ఫొ టో
చూ సి</w>
ద క్క
ఇ రా
చ రి
మార ిన</w>
క ంగ
చి వర
భ ాను
హి ంద
ప్రా జె
షూ టింగ్</w>
అంతే కాదు</w>
కో లీ
కోలీ వుడ్</w>
పంప ిణ
పంపిణ ీ</w>
అమ రావ
అమరావ తి</w>
పాద యాత్ర
విద్య ార్థ
ఇంట ్లో</w>
ంట ారు</w>
మర ి</w>
మోహ న్</w>
బ ిల్ల
ఆ మో
ద ించ
సం వ
సంవ త్సర
రా ణ
ఊ హ
ించ ని</w>
రాజ ీ
మా తో</w>
సె ంట
పాయి ంట్</w>
ృ త్వ
దశా బ్ద
జీవి త
ఆందోళ నలు</w>
త ోనే</w>
ండ ్ల
నూ తన</w>
ప ుల
అయ ింది</w>
త దిత
అ డ్
విశ ేష
కా ంబ
ి నే
వల న</w>
హ ్
క్ర ేజ్</w>
శ్చ ి
ల ్లు</w>
మధ్య లో</w>
ప్రమాద ంలో</w>
కావ డం</w>
న పై</w>
ప్ప ు</w>
డి చ
గంట ల్లో</w>
ల ంక
త ూర్
గు ండ
2 4</w>
ప డి</w>
వాతావర ణ
క ాయ
ప ద</w>
మ ూడ
జ ం</w>
వర్ తి
తీస ుకు
ఒక్క సార
ఒక్కసార ిగా</w>
అ స
ుకె ళ్ల
కో చ్</w>
జట్ట ులో</w>
త ృ
ప్ తి</w>
ఇ ష్ట
ఉత్స వ
సం ప్ర
లో క
తెలు స్తుంది</w>
ట ికి</w>
ఎంట్ర ీ</w>
బ్యా క్</w>
స్ వి
దూ రా
దూరా న్ని</w>
పెట్ట ింది</w>
యూ ని
ార ాయ
ప్రభా వం</w>
ప్ర ొ
ు ట
ద ుక
ఉంట ుందని</w>
చే ర్చ
ాల పై</w>
ాయ ాన్ని</w>
చేస్తున్న ారని</w>
ుకుంట ారు</w>
త్వర లో</w>
కో ల్</w>
ఈ రోజు</w>
పాల్గొ న్నారు</w>
ఎక్కు వగా</w>
గ ాను</w>
టు ను</w>
స్త ుందని</w>
త్వ ం</w>
మ ౌ
జ ంట</w>
దా డి</w>
కే సులో</w>
క మైన</w>
ధ ం</w>
ఉద యం</w>
గంట లకు</w>
ని వా
వి నిప
ఆ పర
దూర ం</w>
మె జారి
ప క్క</w>
క ాలు</w>
ా న</w>
ప్రభుత్వ ానికి</w>
ష ా</w>
ప్రజ ా</w>
పే ందుకు</w>
బ ూ
స్ట ి
న్యూ ఢిల్లీ</w>
నీటి లో</w>
చు ట్ట
ఆత్ మహ
సర ి</w>
వర్ష ం</w>
సా క్ష
మాధ్య మ
కె మె
చని పోయ
కా కుండా</w>
ె న్
వే సి</w>
విధ ్వ
చెబ ుతున్నాయి</w>
ణ లో</w>
భాగ ంగా</w>
ంప ులు</w>
నట ుడు</w>
నియ ా</w>
అధ్యక్ష ు
వర కూ</w>
ర చ్చ
నియ మ
ఏ మీ</w>
ఎవర ు</w>
ఉండే ది</w>
వి తే
త్ర ి
హీరో గా</w>
హ </w>
పే ర్ల
ఎ ల్</w>
శ ్</w>
ఆ ది
ర్ మ</w>
ము ఖ</w>
సన్ని వేశ
పంచ ాయిత
అ స</w>
వా ట్
అధ ిక
చ్చ ిన</w>
బ ీ</w>
నే ది</w>
ప్రభా స్</w>
యు ద్ధ
అవ ుత
నిర్వహ ించిన</w>
బ ొ
ర ్ర
త ప్పుడు</w>
చేస ుకుంట
తి ట్ట
దగ్గ ర</w>
కో ట్లు</w>
సి నీ</w>
శ్ర మ
వీ ర
ి పోత
ుకునే ందుకు</w>
ద ండ
ఇప్ప టి</w>
ర మ
ఒ కర
సు ందర్</w>
ఫ ిల
పోస్ట ర్</w>
అంత ా</w>
అధికార ంలోకి</w>
ంప ే
మ ్య
వ్యతిరే కంగా</w>
ధ ర్
పరి ష్
ర్ ష
శ బ్ద
ర ేషన్</w>
నిర్ మి
జ ర్</w>
ళ్ళ ు</w>
వె న్య
వెన్య ూ</w>
ర ాన
కూడ దు</w>
విష యాన్ని</w>
చెప్ప ారని</w>
వెంక ట
వెంకట ేష్</w>
స్ట ార
క ్య
ే దని</w>
ఇ ంకా
చంద్ర </w>
అ ండగా</w>
ాల్ సిన</w>
అంద ించ
ప్ర శా
క్రమ ంలోనే</w>
ప్పుడ ూ</w>
పా క
విశ్వ విద్య
బ ిన
బిన ెట్</w>
తెలిప ింది</w>
్రీ య</w>
గొ ండ</w>
దూర ంగా</w>
ాల న
లి యా</w>
ఖ రీ
ద ైన</w>
చెప్పుకొచ్చ ింది</w>
ట్ల ుగా</w>
ఉగ్ర వాద
న ల</w>
బ ౌ
విషయ ంపై</w>
న్న ే
వైర ల్</w>
రి జి
ా చ
భార త
స్థ ాన్</w>
సా హిత
హో దా</w>
చూ స్తున్న</w>
సమ యం</w>
నాయ ుడు</w>
ఖర ారు</w>
రు వు</w>
ఎన్న ిక</w>
అ మ</w>
ో నూ</w>
విష </w>
ఆయ ా</w>
శ </w>
జ నాభా
ధ్య ానం</w>
మ ళ్ళ
అ ప్పుడు</w>
ంద ర
కొ ంద
c </w>
మో టార్</w>
మార్కె ట్లో</w>
స్త ులు</w>
సేవ ా</w>
పన్న ు</w>
వ ాలని</w>
కా ని</w>
2 3</w>
మండ లి</w>
స గం</w>
ట్ర ో
లే వు</w>
ల ొ
విజ ృ
విజృ ంభ
పా జి
పాజి టివ్</w>
నమో ద
అంద రికీ</w>
అక్క డి</w>
భ ూ</w>
ఖ మ్మ
చై ర్మ
సర ఫ
అను మ
పరి హార
పరీ క్ష</w>
కో రి
మా స్
తీస ుకున్న</w>
తనిఖ ీ</w>
గెల ుచ
ల ్చ
బీజే పీకి</w>
స్థాన ాల్లో</w>
తిరు గు
బ హి
బహి రంగ
సుదీర్ఘ </w>
కోల్పో య
S </w>
g </w>
ఖ ాయ
ఖాయ మని</w>
జ ో
దాని ని</w>
అ ఫ్ఘ
అఫ్ఘ న్</w>
లేకపోవ డం</w>
ఇ వ
మా ట</w>
జరుగ ుతున్న</w>
అ దే
అదే విధంగా</w>
న టి
కో ట
మరొ క
స బ్</w>
మొదలై న</w>
న్ య</w>
కొ రియ
మొదలైన వి</w>
గు ండా</w>
కం కర</w>
ష ార
ని ధ
ల ిక
ప్రయత్ నాలు</w>
పే రు
రాజ ా
రాజా సింగ్</w>
డియో ను</w>
ిక్ ష
పోలీ స
విమర్శ లు</w>
రే ట్</w>
కల ె
అలా ంట
పార ్ల
పార్ల మెంట్</w>
సంబంధ ం</w>
ార్ ధ
కో సమ
బీజే పీ
య ూప
చీ ఫ్</w>
రి లయ
రిలయ న్స్</w>
గ ెలి
ూ నే</w>
చ్చ ింది</w>
ఆ ప
విజ యం</w>
బ ్యూటీ</w>
సినిమా తో</w>
హ థ
హథ ్
హథ్ న
హథ్న ూర
ో న్న
ంగ ుల</w>
0 00</w>
మ రు
మార్కె ట్</w>
నే రుగా</w>
భ రో
భరో సా</w>
7 5</w>
అన్న ాడు</w>
స ర్</w>
థియ ేట
రోజ ుల్లో</w>
ప డింది</w>
క్ష ్య
ఫో టో</w>
డె ంట్</w>
శ్రీ ను
ద్ర ో
బ ుక్</w>
బోయ పాటి</w>
మో షన్</w>
ఆ డియ
స్క్ర ీ
భ గ
తీసుకోవ ాలని</w>
వేశ ారు</w>
ండ ర్</w>
T </w>
I </w>
శ ంకర్</w>
అంత రిక
అంతరిక ్
స్థ ాయి</w>
ని హార
నిహార ిక</w>
వీ రి</w>
ఎ ప్పటిక
ఎప్పటిక ప్పుడు</w>
ాల ో
ుకుంట ోంది</w>
అ ంత</w>
విశ ్ల
విశ్ల ేష
బల మైన</w>
్య ాల</w>
అమ్మ గార
భా వ
ఎవర ో</w>
గత ా</w>
చేస్త ారు</w>
శ్రీ చక్ర
శ ూ
స్ట ీ</w>
w </w>
రు లో</w>
భార ్య</w>
బోత ున్న
ూ ర్</w>
స్ట్ర ీ</w>
ధ ోర
ధోర ణ
వ ంచ
వంచ న</w>
గ ర్
గర్ జన</w>
R </w>
y </w>
రై న</w>
గ ర్</w>
మ ్యూ
మ్యూ జిక్</w>
ే దు</w>
వస్త ువుల</w>
కాన ుంది</w>
ాయ ో</w>
ప్రమాద ం</w>
పు రు
కఠ ిన</w>
టి స్త
ణ ాల</w>
ప్రభుత ్వా
పెట్ట ాలని</w>
వె ళ్ళ
వ దిల
తీస ి</w>
అవ ి</w>
పొ త్తు</w>
మహ ా</w>
టీ టీ
అయ ో
అయో ధ్య
శి వసే
చి రు
ద ిల్</w>
వె ంక</w>
టేశ ్</w>
సంగ </w>
శ రీ
శరీ ర
దేశ ాల్లో</w>
మా న్ని</w>
సం రక్షణ</w>
సి బ్బంది</w>
చూ స్త
ు ంటే</w>
మరొ క</w>
గాన ిక్</w>
క్ష న్</w>
నామ ా</w>
బ్రి టి
బ్రిటి ష్</w>
చికిత్ స</w>
స్ పీ
అర్ జు
ఖ ాన్</w>
బె యిల్</w>
ల ారీ</w>
ఎ టువంటి</w>
విక్ర మ్</w>
ఇప్ప టి
సరి గ్
సరిగ్ గా</w>
మ్ ము
పరీ క్షలు</w>
చూ సిన</w>
మార </w>
థ ాన్</w>
ఉష్ణగత ిక
తరచ ుగా</w>
వ్యవస్థ </w>
ధ ార్
ధార్ మిక</w>
సమతుల ్య
ఎంట్ర ో
ఎంట్రో ఫీ</w>
ని రు
నిరు ద్య
ిక్ కి
కూతు రు</w>
బ ాలు</w>
గొ ండ
వి వా
మోడ ల్</w>
అంబ టి</w>
వి ప్</w>
ఘ న
వి ంద
మో దీ</w>
గ ౌర
నా న్ని</w>
అంద ించారు</w>
చేపట్ట ారు</w>
నవ మి</w>
కొనసాగ ుతున్న</w>
అ జయ
అజయ ్</w>
సమావేశ ం</w>
ె ట్లు</w>
డబ్బ ు</w>
అ ప్ర
అప్ర మ
అప్రమ త్త
సహ ా</w>
దేశ ాలను</w>
వృ ద్
మ రికొ
ఆ ఫ
చేయ ాలి</w>
వి న్న
సం స్
నమ్మ కం</w>
సే వ్</w>
ౌ క</w>
రె ౖ
ఎవర ూ</w>
పె ౖ
పై </w>
ప్ర యోజ
ప్రయోజ నం</w>
అంశ ం</w>
పడ ుతున్నారు</w>
్ ని</w>
చేస్తున్న ార
కార్య దర్శ
పని చేసే</w>
బస్ స
ప్ర యా
ప్రయా ణ
అంద జే
సె క
సెక ండ్</w>
క్లా స్</w>
సభ లో</w>
ంద రికీ</w>
ఇ వా
ఇవా ళ</w>
ఉత్త ర్వులు</w>
గడ ప
గాన ో</w>
సర్ కార్</w>
ఇవ్వ ాలని</w>
పక్క న</w>
నీ యా
నీయా ంశ
ుకోవ డం</w>
కావ డంతో</w>
నె ట్ట
ఆ ంజ
గు రు</w>
వ్యా సర
వ్యాసర ాయ
వా డు</w>
మంత ్ర
గంట ల</w>
అంద ుకు</w>
స్థ ాప
శ ుక
రోజ ున</w>
చాల ామ
చాలామ ంది</w>
చ ాలు</w>
పొ డి</w>
పా డై
కొంచె ం</w>
పోయ ింద
అ ర్థ
వర ్లు</w>
పోయ ిందని</w>
తెలుస ుకోవచ్చు</w>
ఫ ్లాష్</w>
రై నో
విడు ద</w>
ద ాల
ఈ నెల</w>
చీ ర</w>
పట్ట ు</w>
క్లాస ిక్</w>
డ మ్</w>
సినిమ ాల్లో</w>
టిక ీ</w>
టా పిక్</w>
క త్ర
ాన ంటూ</w>
ఫ ర్</w>
మ ాన్</w>
ప్ల ాన్</w>
పాత్ర ను</w>
అ న్న</w>
సందే హాలు</w>
సోద రు
సోదరు డు</w>
తర లి
స్త ుండగా</w>
మార్ గ
మా మ</w>
తీస ుకున్నారు</w>
మ్యా గ
మ్యాగ జైన్</w>
ఫొ టో</w>
షే ర్</w>
ఊర్వ శి</w>
య ంగ్</w>
పడ ుతోంది</w>
నిర్ వాహ
క్ స్</w>
ఇరా క్</w>
ఫ్యా షన్</w>
చరి త్ర
భాగ స్వా
చెప్త ున్నారు</w>
ల వ
కా మెంట
బ ై
బ ్లా
బ్లా క్</w>
ఇటీవల ే</w>
సిద్ధ మవ
శి వ</w>
B </w>
స్వా మీ</w>
మాట్లాడ ారు</w>
పాదయాత్ర </w>
ష్ట </w>
చద ువ
ఆశ ీ
ి చ
ట్ట ే</w>
వర్ క్</w>
చూ స్తే</w>
ఆశ ్చ
ఆశ్చ ర్య
చిన్న ార
సమావేశ ాలు</w>
మాన ం</w>
బిల్ల ు</w>
నెలకొ ంది</w>
నే ప
నేప ధ్య
త ార
జా బ
జాబ ిత
బ డింది</w>
వెల ుగ
వ ికి</w>
రాజీ నా
రాజీనా మాతో</w>
రాజ ే
రాజే ందర్</w>
ఎ ంచ
ప ౌ
ల ్ట
ఖర్చ ు</w>
దా స్</w>
చిత్ర ంలో</w>
నా గ
తదిత ర</w>
సీ రియ
స్వయ ంగా</w>
దీ నికి</w>
అవ ార్
విశేష ం</w>
కాంబ ినే
సినిమా కి</w>
ర్ బ్</w>
ె స్</w>
గో దా
గోదా వరి</w>
పట్ట ణ
మృ తి
నెలకొ న్న</w>
వృ త్తి</w>
చేస ుకున్న
అద న
ఏ పీ
ఆ గ్
ఆగ్ నేయ</w>
శ్చి మ</w>
శ్రీ లంక
మీట ర్లు</w>
ీ పై</w>
ముంద ుగా</w>
కొద్ద ిగా</w>
క్క లు</w>
ుకోవ ాలి</w>
గి ంజ
షా ద్</w>
మండ ల</w>
పరి ష
ఆ డి
ఆడి టో
ఆడిటో రి
ఆడిటోరి యం</w>
శ ర
జాన పద</w>
ప్రో త్
మార ు
కేంద్ర ంలో</w>
చా ట
ో ష
ట ెల్</w>
క స్ట
6 0</w>
20 0</w>
కనె క్
కనెక్ టి
కనెక్టి వి
కనెక్టివి టీ</w>
నె ంబర్</w>
సమీప ంలోని</w>
దూస ుకెళ్ల
స్థాన ికులు</w>
ఆసుపత్ర ికి</w>
తరల ించారు</w>
లక్ష్ మ
లక్ష్మ ణ్</w>
ప్ర స్త
జ ట్టు</w>
గా ళ్లు</w>
క ళ్ల
జ ో</w>
రెండ ో</w>
ఇ టువంటి</w>
ాల ే</w>
స ిక
సందే హం</w>
అ టువంటి</w>
క ో</w>
గ రు
దా డిలో</w>
స్ వల
స్వల ్ప
స్వల్ప </w>
వ ల్</w>
త ీ</w>
మార ుత
రియ ో</w>
గ్ ని
గ ో</w>
ల ్స్</w>
అంద ుకో
బ ర్
వస్త ువులు</w>
ఉత్ప త్తి</w>
అవ ుతున్నాయి</w>
క డ
తెలుగు దేశం</w>
ారాయ ణ</w>
దొ రిక
గ ట్టి</w>
ుతు ంద
వార ిలో</w>
కన్న ా</w>
ప్రాంత ాల</w>
బంగ్ల ా</w>
హ ద్ద
బంగ ్లా
బంగ్లా దేశ్</w>
ని వార
ఇచ్ చే
ప్రయత్ నిస్త
ష ్ప
ఉష్ణ ో
ఉష్ణో గ్ర
ఉష్ణోగ్ర త</w>
ంప ుల్</w>
చిత్ర ాన్ని</w>
పేర ుతో</w>
తీస ుకొ
కొండ ే
వా ద</w>
పాత్ర </w>
గ ల
క్ల ో
పె న్</w>
ుల ే
ఆయ ు
చ్ ఛ
తా న్ని</w>
కలి గే</w>
నొప్ప ి</w>
ఆపర ేషన్</w>
దూస ుకుపోత
లో ప
అంశ ాలను</w>
ఎ త్తి
కా న్
సం కల్ప
ము గి
ఏర్పా ట్లు</w>
ప్ర తీ
పరి చ
ము రళ
పొ గా
పొగా కు</w>
ట్ర ే
డి ంగ్</w>
మ ంట
వ్యా ప
ించ ాయి</w>
సి బ్బంద
రూప ాయ
రూపాయ ల</w>
న ట్టు</w>
చేస ుకున్న</w>
ి రా
్యూ ట్</w>
తో పాటు</w>
దు ంప
దుంప లు</w>
త్వర గా</w>
వా టి</w>
నీ టిని</w>
బా ంబ
కు రి
ఇద్ద రు</w>
విచార ణ</w>
బ్రి టన్</w>
స్ట ు</w>
వార ె
బె దిరి
కా ంత్</w>
» </w>
క్రిక ె
క్రికె టర్</w>
పల్ల ిలో</w>
పద వి</w>
పూర్ త
సో నియా</w>
ప్ర యో
ప్రయో జన
స్థాయ ికి</w>
కుటుంబ ం</w>
ఉన్న ా</w>
పారి శు
పారిశు ధ్యం</w>
ండ ్ల</w>
ఏ టా</w>
పల్ల ె
మండ ల
ఫ ్రె
వితే జ</w>
్యా క</w>
బోత ున్న</w>
ట ే</w>
వే రే</w>
్యా డు</w>
ని శ్చ
నిశ్చ ిత
సన్ని హిత
నిర్వహ ించారు</w>
ద ృ
హా జ
ప్రేక్షక ులను</w>
మె ప్ప
ది వ్యా
ఉన్న ట్లు</w>
ంబ </w>
నిర్ణ యం</w>
చేస్త ే</w>
డ ితో</w>
గ్ర ూప
వ ్య</w>
వ్యక్ తిని</w>
కో పం</w>
అధిక ారి</w>
రా వ</w>
మంచ ిది</w>
వ్యక్ తి
వ్యక్తి గత</w>
బా హు
బాహు బ
బాహుబ లి</w>
సె న్
సెన్ సార్</w>
రికార్ డ్</w>
వి శాఖ
మార ్చ
నేత లకు</w>
ధ ై
ప్రచార ం</w>
ఆ గ్రహం</w>
కొ ర
ఆ గి
ుత </w>
సినిమ ాలు</w>
ించ ుకోవ
ించుకోవ టం</w>
ార ా
లే వని</w>
పరి శ్రమ
పరిశ్రమ లో</w>
ప్ర కాశ
ప్రకాశ ్</w>
కా పు</w>
తీ ర్చ
త ామ
మొదలై ంది</w>
ని షే
అత ని</w>
పూర్ తిగా</w>
త ంగా</w>
రమ ేష్</w>
నగ ర
ఆ న్</w>
ఫ ు
ఫు డ్</w>
డ్ జ
డ్జ ెట్</w>
ిన ప్పుడు</w>
కె టిఆర్</w>
ట ల్</w>
గ ర్వ
ేశ ్వ
ఆధ ్వ
ఆధ్వ ర్య
ఆధ్వర్య ంలో</w>
త లకు</w>
చేశ ారని</w>
గుర్ తు
అత్యధ ిక</w>
వినియోగ ం</w>
ని శ్
నిశ్ శబ్ద
నిశ్శబ్ద ం</w>
రె స్
రెస్ పా
రెస్పా న్స్</w>
శ ె
శె ట్టి</w>
వేడుక </w>
అతి థ
ము ందుకు</w>
తి ంటే</w>
సంచ ల
సే న</w>
చె వి
వ ంశ
గ ణ
ుక ే</w>
తెలి సింది</w>
సమా జ
డైరె క్టర్</w>
నే ని</w>
చి ర
శాస్త ్ర
ముద్ర </w>
ద ం</w>
శాస్త ్రీయ</w>
బో ధ
న ల్
వ్యవహార ం</w>
ఆ లియా</w>
ఇ ల్లు</w>
ప ర్వ
ుకుంట ున్న
చై నా
షా క్</w>
కౌ ంట
జ మా
కొద్ద ి
చో టు</w>
ుతు ంటే</w>
చేరి తే</w>
5 5</w>
1 10</w>
ర న
రన ప్</w>
వద్ద ని</w>
ఇ బ్బంది</w>
అంద రూ</w>
ఎవర ి</w>
ఊ ర
ఊర ంతా</w>
జ ుల
చేస ుకొ
కుటుంబ సభ్యులు</w>
ఒత్తి డి</w>
త ల్ల
ద్వ ీ
భారత దేశ</w>
ప్రజల ంతా</w>
2 5</w>
చంద్రబాబ ు
అధికార ిక</w>
ుకోవ ాలని</w>
వేద ిక</w>
ఎదుర్కొ ంట
ఎదుర్కొంట ున్న</w>
హామ ీ
తెలంగాణ ాలో</w>
ఇ స్తూ</w>
చ్చ ారు</w>
భ </w>
మే ర</w>
నేత ృత్వ
రంగ ం</w>
శేష ాచ
శేషాచ లం</w>
చెప్ప ిన</w>
ని ంద
నింద ిత
పడ ుతున్నాయి</w>
తు ని</w>
కొంద రు</w>
పల ువు
జ ా</w>
ొచ్చ ు</w>
పరిక రాలు</w>
W </w>
బ హు
ట ార్
సె ౖ
డ ్రె
ఖరీ దె
ఖరీదె ౖన</w>
బ్ర ా
భద్ర తా</w>
నవ ంబర్</w>
రిజి స్ట్ర
ద క్షి
జరగ నుంది</w>
విషయ మై</w>
ించన ున్న
రాష్ట్ర ప్రభుత్వం</w>
ఖ జాన
ఖజాన ాకు</w>
పడ ుతుందని</w>
రె వెన్యూ</w>
పరిధ ిలో</w>
ఆద ాయం</w>
ఉన్న తా
ఉన్నతా ధికార
201 1</w>
గణాంక ాల</w>
ఇళ్ల తో</w>
జనాభా తో</w>
హె క్ట
హెక్ట ార
హెక్టార ్లలో</w>
విస్త రించి</w>
మగ వారి</w>
ఆడ వారి</w>
కుల ాల</w>
తె గల</w>
లొ కే
లొకే షన్</w>
త్య ం</w>
రోజ ుకు</w>
కే సులు</w>
అమ లు</w>
ప్రపంచ ాన్ని</w>
ఇబ్బంద ులు</w>
బ ిక
సి ద్ద
ఖర్చ ుతో</w>
ఖమ్మ ం</w>
డి స్త
శ ో
చైర్మ న్</w>
చేసి నట్లు</w>
మెజారి టీ</w>
సాధ ించ
వై న</w>
ఎమ్మెల ్
ద ానం</w>
కా ద
విక్ర య
కా త</w>
కు ంటే</w>
దుక ా
కొ ంత
కోరి ంది</w>
వి స్
హ త్య</w>
వి ంట
ధ ిక</w>
విజ </w>
నాయ కుడు</w>
బహిరంగ ంగా</w>
నియ ంత్ర
అ పో
అపో లో</w>
సర్ వే
స్ యం</w>
ుండ టంతో</w>
ఏ ంట
వి పక్ష
తప్ప </w>
సమా ధ
సమాధ ానం</w>
తాలిబ న్లు</w>
చేస ుకోవడానికి</w>
డె న్</w>
గడ ువు</w>
గ మన
ంద ాన్ని</w>
న్ ల
ార ావు</w>
వి ని</w>
క్రిక ెట్</w>
సి ఐ</w>
క్ష ణ
ఎ </w>
అంత ర్
ప్రయత్ న
నమ స్తే</w>
ః </w>
సాగ ర్</w>
దర్శకత్వ ంలో</w>
వి ప
ుల లో</w>
కో ట</w>
మరొక టి</w>
ప ాన్</w>
ప్రచార ంలో</w>
టెలి గ్రా
టెలిగ్రా ఫ్</w>
లా ండ్</w>
టెలి ఫోన్</w>
కె ఫె
కెఫె </w>
సామా న్య</w>
కొరియ ర్</w>
ఆట ో</w>
ట్రా క్ట
పత్ర ం</w>
రాజ ా</w>
నూ నె</w>
బ ెల్ల
పె రుగ
తా గ
సీ స్</w>
క మి
హెచ్చ ర
బ ంత
మ్ మార
ార్ క్</w>
బ్యాం క్</w>
దీ వ
మిల ియన్</w>
డ ాల
ంగ </w>
పాక ిస్త
పాకిస్త ాన్</w>
భా జ
పేరు ను</w>
ించ గా</w>
అ క్ర
అక్ర మ</w>
ఆరోప ించారు</w>
పోస్ట ు</w>
దొ ర
ొ ద్ద
ొద్ద ని</w>
త గ
క చ్చితంగా</w>
ఘట నలు</w>
భావి స్తే</w>
స్పంద ించారు</w>
చె క్</w>
చ </w>
టి ంగ
గ లి
రీ క్ష
భర్ త</w>
ఆనంద ం</w>
ంట ుంది</w>
గ ూడ
ప ిల్ల
ల గ్
ుత ోన్న</w>
రై తు</w>
పడ ిన</w>
అసా ధ్యం</w>
గు ప
జై ల
ప్రజ లను</w>
కోర్ ట
ఓ ట్లు</w>
కోసమ ే</w>
కార ానికి</w>
సిం హ
త ులను</w>
యూప ీ</w>
ఉల్ల ం
ఉల్లం ఘ
రి ంగ్</w>
అమ ల
హ ార్</w>
ని తీ
పోత ున్నాయి</w>
ర్యా న్ని</w>
నిజ ాయిత
పరిస్థిత ుల్లో</w>
మె ట్ర
మెట్ర ో</w>
అ ని
్ర ా</w>
ళ్ల ుగా</w>
చెల్ల ించాలని</w>
వివాద ం</w>
20 0
2 6</w>
ు పై</w>
మహిళ ా</w>
గెలి చి</w>
దిగ ిన</w>
బెంగ ళ
అయ ి
నెలకొ ల్ప
అభిమాన ులు</w>
ము చ్చ
ప ర్
సంగ ారె
4 3</w>
2 8</w>
ప్రాథ మిక
ోన్న త</w>
ఎ ల్ల
సై న్స్</w>
శ ిక్ష
ర ాల</w>
సంఘ ం</w>
ఏ టీ
1 8
ిక ీ</w>
మ ను
మను ష
మంద ిని</w>
జనగ ామ</w>
త లను</w>
ధా న్
ధాన్ యాన్ని</w>
ంప ిన</w>
త డి
ము ద్ద
క ానికి</w>
మ ిల్ల
పా తం</w>
జాగ్రత్త గా</w>
చర ్య</w>
న్న ో</w>
లే టెస్ట్</w>
ఇంకా స్త
ఇంకాస్త </w>
లక్ష లు</w>
విడుద లై
కలె క్ష
థియేట ర్స్</w>
బయట కు</w>
మాట్లాడ ుకుంట
ండ ీ
కట్ట డి</w>
సెల </w>
బ్రి టీ
బాబ ుకు</w>
మె యిల్</w>
ఎక్క డ</w>
ఉండ ాలి</w>
ే స్</w>
యా ప
యాప ిల్</w>
డ్ స్</w>
నొప్ప ులు</w>
ని జా
సె క్ర
ద న్</w>
ట్ర ె
అయ్య ింది</w>
ఫిర్యా ద
హ ా</w>
ఇండస్ట్రీ లో</w>
ని రూప
శ్రీను వై
శ్రీనువై ట్ల</w>
రచయిత గా</w>
ఖా తాలో</w>
గొ డ
సక్ సెస్</w>
స్పంద ిస్తూ</w>
హామ ీ</w>
ం కొ
శ్రీ నివా
రెండ ి
ించ ినా</w>
మా స్</w>
ఆడియ న్స్</w>
భగ వంత్</w>
శ ్య
స్ట ె
వి డ
దీ య
ము ంబ
ాల ోని</w>
వా టి
ాల్ల ోకి</w>
క దా</w>
అర్ ధ
స్ క్</w>
ర ంగా</w>
ఆ డియో</w>
పల ిక
ే నే</w>
అంతరిక్ ష</w>
స్ పే
స్పే స్</w>
లా బ్</w>
చ క్క
భూ మి
ద శ
డి సెంబ
ాయ ్</w>
నిలి చ
తీ ర
చ ుల్లో</w>
ఫ ాలో
రే వంత్</w>
విభ ేద
విభేద ాలు</w>
నాయ కత్వ
ధ్య ాన
ధ్యాన ంలో</w>
ఏ మి</w>
చెయ్య ాలి</w>
ించ ుకో
గురు వు</w>
టిక ్</w>
అన్న ది</w>
ిస్త ారు</w>
కావ ాలి</w>
% </w>
ం కర
ఆ క్సి
అమ్మ గారి</w>
మీ ద
న ంత</w>
మి గతా</w>
ట ితో</w>
బంగ ార
ము గా</w>
రూప ు</w>
జ ల
కో విడ్</w>
రిజ ర్
ఎ స్టీ</w>
​ </w>
k </w>
అభిమాన ులకు</w>
పుట్ట ిన</w>
కొడ ుకు</w>
జన తా</w>
గ్య ార
గ్యార ేజ్</w>
ాల్ ని</w>
ాల్ సింద
గ ే
పరిస్థిత ిని</w>
ప ర్య
న ంలో</w>
మాట్లాడ ుతున్న</w>
పిన్న ెల్ల
పిన్నెల్ల ి</w>
కృష్ణ ా</w>
కార్యక్రమ ానికి</w>
య్య ారు</w>
హ త్య
విమర్శ ించారు</w>
ఫలిత ాల</w>
్య త</w>
శ ని
శని వారం</w>
పె రిగ
సా హ
తెలు సు</w>
య ిన</w>
మళ్ళ ీ</w>
మే మీ</w>
లక్ష ణాలు</w>
ఉన్న ట్టు</w>
డ ేట
వ రు
ఆరోప ణలు</w>
ఆధార ంగా</w>
ర క్త</w>
సహాయ పడుతుంది</w>
ుక ూ
య ంగా</w>
ఉద య
య ి</w>
ంత గా</w>
పో ష
వార్ తా
కార్య కర్
పథ కం</w>
గ్ర ం
గ్రం థ
వెన క
జ న్</w>
రా సిన</w>
కే శ
ప్రభుత్వా న్ని</w>
గ ీ
ఎంప ిక
ప ్య
ప్య ాన
ంజ ్</w>
ఇ న్
ప్రే మ
ప్రే మ</w>
ఉత్త ర
ఉత్తర ప్రదేశ్</w>
దు ను</w>
లా న్ని</w>
యి ంగ్</w>
అడు గు
అయోధ్య లో</w>
దీ పాల
వెల ిగ
గి న్ని
గిన్ని స్</w>
అతి పెద్ద</w>
పర్యా ట
థా కర
ప డ్డ
విధ మైన</w>
ఆసక్తిక ర
శ్రీ ప్రసాద్</w>
రచయిత </w>
ఆ య</w>
చేయ </w>
ూడ ి</w>
సీ క్
సీక్ వెల
సీక్వెల ్</w>
త్వ </w>
ఆదేశ ించారు</w>
న్ షన్</w>
ఎందుక ంటే</w>
సి ట్</w>
ారి టీ
న్న ే</w>
షా పి
షాపి ంగ్</w>
న్యాయ స్థాన
అయ ిన
అ వి
అవి నీ
అ డ
ఉ న
ఉన ద్
ఉనద్ క
ఉనద్క త్</w>
సొ ంతం</w>
మే ము</w>
రాష్ట్ర ంలోని</w>
రాజ శేఖ
మో డ్</w>
విభాగ ం</w>
కెమి స్ట్రీ
కెమిస్ట్రీ లో</w>
పా టి
బంగ్ల ాలో</w>
వా స్త
టీ పీ
ఉత్త మ్</w>
ె డ్డి</w>
పోరా ట
కు క్క
రెండ వ</w>
వే డి</w>
స్టో ర్</w>
ఉండ టం</w>
మాధ వ్</w>
దగ్గ రకు</w>
జ ున</w>
ఆ ర్య
ఆర్య న్</w>
అల ్లు</w>
అర్జు న్</w>
చిత్ర ానికి</w>
చిరు నామా</w>
వర ంగ
వరంగ ల్</w>
పోలీస ులకు</w>
డై న</w>
యా క్టర్</w>
బోయ ే</w>
V </w>
ఎ న్</w>
ట్ర ై
ట్రై లర్</w>
వార్ తలు</w>
ఇప్పటిక ీ</w>
త ల</w>
అర్ హ
ుల ైన</w>
ఆర్థ ిక</w>
ామ న్నారు</w>
త లో</w>
కార్ డు</w>
గ ాల</w>
పీ ఎఫ్</w>
స్క్ర ిప
ఉష్ణగతిక శాస్త్రం</w>
ణ మ
పిల వ
వ్యవస్థ లు</w>
వ ున్న
చ ో</w>
వు ండ
పురు ష
నిరుద్య ో
నిరుద్యో గం</w>
ర వీ
రవీ ందర్</w>
భాను మతి</w>
ఆ ధ్య
పు న
సూర ్యా
సూర్యా పే
సూర్యాపే ట</w>
ం కు</w>
9 8</w>
ప్లా ట్లు</w>
ఆర్బి టార్</w>
చంద్ర ు
విష్ ణ
మండ ిప
స ాయి</w>
దర ఖా
కల్ప ిస్తూ</w>
లింగ రాజు</w>
ఉ పే
ఉపే ంద్ర</w>
అఖ ి
అఖి ల</w>
వివా హం</w>
త మ్ము
అన్న ం</w>
దగ్గ రే</w>
విన టం</w>
ఓ దార
ఏ డు
ఎ న్ని</w>
కు ట్ర
కుట్ర లు</w>
ఆఫీ సుల</w>
మ ంత</w>
హ ాయ
సద ాన
మృ త
కొ ట్టి</w>
తొలగ ించడానికి</w>
కె </w>
వా హి
వాహి ని</w>
స్ట ూ
అ మీ</w>
ంప ్</w>
రాష్ట్ర పతి</w>
భ వన్</w>
కో వింద
కోవింద ్</w>
దేవ ాలయ
ముంద స్త
ముందస్త ు</w>
భద్ర ా
ద ్రి</w>
రా ము
ఫె క్ట్</w>
కు ండ
శ్రీ రామ
శ్రీరామ నవమి</w>
జ రు
జరు ప
ుత ామని</w>
ప ువ
పువ ్వా
పువ్వా డ</w>
కల ్యా
చేస్తున్న ామని</w>
చెల్ల ిస్తార
ఉండ ాలని</w>
సూచ ించారు</w>
అభి వృద్
అభివృద్ ది</w>
దేశ ాలుగా</w>
ౖ న
మరికొ న్ని</w>
దేశ ాలకు</w>
పొ దుపు</w>
విన్న ాను</w>
కర ణలు</w>
లేక పోతే</w>
దీ న్ని</w>
ఎ వ
ప్రశ్ న</w>
గ లను</w>
వ నర
తొలగ ించ
హ ానిక
సేకర ించిన</w>
పదార్థ ాలు</w>
ప్రజ లకు</w>
స ున్న
కాంగ్రె సు</w>
ఉ మ్మ
ఉమ్మ డి</w>
అంజ య్య
అంజ య్య</w>
మన మ
కార్యదర్శ ి</w>
అభి షే
పట్ట ారు</w>
గుర్తి ంప
గుర్తింప ుక
గుర్తింపుక ార్
గుర్తింపుకార్ డును</w>
గార్ డ
సె ప్టె
సెప్టె ంబర్</w>
తమి ళ
శాస న
చర్చ </w>
కుటుంబ </w>
కాపాడ ుకోవడానికి</w>
ఎంత గానో</w>
రాజ ధాన
కల సి</w>
చర్చ నీయాంశ
కూర్ చ
వై ఖ
మయ ింది</w>
ఆ త్మ
హ ౌ
హౌ స్</w>
ఏ దో</w>
ఇవ్వ ాలి</w>
కాన ుక</w>
నీటి పార
నీటిపార ు
నీటిపారు ద
నీటిపారుద ల</w>
రెండే ళ్ల</w>
ాల్ సి
వై </w>
భ క్త
దా త</w>
పు రా
నగ ర</w>
స ామ
ఆధ ్యా
ఆధ్యా త్
ఆధ్యాత్ మిక</w>
వ్యాసరాయ ుల</w>
ఆంజ నే
ఈ య
ాల య</w>
భావి స్తారు</w>
పీ డ
ించ బడ
రాజ ్యాన్ని</w>
గంట </w>
3 6</w>
చో ట్ల</w>
విగ్రహ ాలను</w>
స్థాప ించాడు</w>
1 5
పక్ష ంలో</w>
పొంద ాడు</w>
ఎక్ స్
ఉండ దు</w>
మూ త</w>
ఎన్న ా
నిల ్వ</w>
ఉంచ ితే</w>
పోత ుంది</w>
వస్త ుంది</w>
అర్థ ం</w>
సహ జ
తే డా
వచ్చ ినా</w>
ఫ్ల ే
ప ిన</w>
బయ ట</w>
బె టర్</w>
రైనో డు</w>
లీ క
ప్ప ింది</w>
ంట ికి</w>
2 2</w>
బోత ోంది</w>
నిమిష ాల</w>
వె బ్</w>
ము న</w>
పట్ట ు
కట్ట ుకుని</w>
రంగ ు</w>
మి స్టర్</w>
క పూర్</w>
మూవీ లో</w>
సమా న</w>
నే టికీ</w>
హా ట్</w>
కత్ర ిన</w>
అ బ్
ాన ాయ
కు డిగా</w>
సినిమ ాల</w>
ై జీ
ఇండ ియ
ఇండియ ాలో</w>
ిస్త ాడ
గాయ ాల
అనీ ష్</w>
అత డి</w>
ఆ స్ప
ఆస్ప త్ర
మే న
బా ఘ
బాఘ ్</w>
దా ద్</w>
స్ట్రీ ట్</w>
ర ౌ
రౌ తే
రౌతే లా</w>
క్యా ప్
చెప్త ూ</w>
ుతున్న ానని</w>
చరిత్ర లో</w>
నె టి
నెటి జ
నెటిజ న్లు</w>
లవ ుతున్న
ప్రాజె క్ట్</w>
రోజ ్</w>
త్వర లోనే</w>
ఎంట ్రీ
K </w>
గుంట ూర
వర ూప
జన్మ ద
జన్మద ిన
జన్మదిన ం</w>
రోగ ులకు</w>
హో ం
హోం మంత్రి</w>
పండ ్లు</w>
వి శి
దేశ వ్యాప్తంగా</w>
ుతున్న ాయ
సాధార ణంగా</w>
ప్లా ంట్</w>
పెట్ట ుకుంటే</w>
అ దృష్ట
ల క్క
లక్క ీ</w>
డై సీ</w>
ఫీ ట్లు</w>
కా ళ్లు</w>
అనిప ిస్తుంది</w>
ండ ీ</w>
డు గు</w>
రే పు</w>
అసెంబ్ల ీలో</w>
శాస న</w>
గ్రామ ాల్లో</w>
ఉ ద్ర
ఉద్ర ిక్
వాతావర ణం</w>
నేపధ్య ంలో</w>
తనిఖ ీలు</w>
అ రా
అరా చ
ప్రవేశ ించ
రంగ ంలో</w>
కు ని
నట ించిన</w>
రెండే ండ
రెండేండ ్లలో</w>
ఊహ ించని</w>
రాజకీయ ాల్లో</w>
సెంట ర్</w>
రు బా
ఫ ్ట్</w>
చేర ారు</w>
దశాబ్ద ాలుగా</w>
అను బంధ
అనుబంధ ాన్ని</w>
ే స
జీవిత ంలో</w>
గ డి
బా ట
వ్యాపార ం</w>
సమయ ంలోనే</w>
పార్టీ కి</w>
కష్ట కాలంలో</w>
బ ంట
దేవ దాస్</w>
కన కాల</w>
దర్శకు డిగా</w>
చ లి
చలి చీ
చలిచీ మ
చలిచీమ లు</w>
మ ల్ల
దర్శకత్వ ం</w>
కథ నం</w>
నిర్మ ించారు</w>
అవార్ డులు</w>
మహ ేష్</w>
అవ ్వ
కాంబినే షన్</w>
వస్త ుండ
బ్ర హ్
సూప ర్బ్</w>
బి జ
బిజ ిన
బిజిన ెస్</w>
నర సా
నరసా పురం</w>
్ర ు</w>
మృతి పై</w>
ణ ాల్లో</w>
ము ప్పు</w>
ము ంచ
బ ంగా
బంగా ళ
బల పడుతోంది</w>
శ్రీలంక లో</w>
ట్ర ి
తూర్ పు</w>
కిలో మీటర్లు</w>
1 20</w>
అంచ నా</w>
కో డి
కోడి గు
కోడిగు డ
కార ్య</w>
ర్ త</w>
పై న</w>
ే సి</w>
పొ డ
ము క్కలు</w>
గింజ లు</w>
చ్చ ుకుంట
పరిష త్</w>
సమీప ంలో</w>
కో ట్ల
కోట్ల తో</w>
పన ులను</w>
ప్రోత్ సహ
ిస్త ుండ
ిస్తుండ డంతో</w>
మారు మూ
మారుమూ ల</w>
ప్రదర్శ న
ఆసక్ తి</w>
చూప ుతున్నారు</w>
్ర ో
కళాకార ులు</w>
ప్రతిభ ను</w>
ిల క
సంత ోష
సంతోష ం</w>
వ్యక్ త
ేశ ారు</w>
ఏర్ పాట
కస్ట మర
కస్టమర ్ల
లో న్</w>
వర్తి స్తుంది</w>
తీస ుకునే</w>
వీ రికి</w>
ండ ిల్</w>
వ ో</w>
వై ఫ్</w>
స పోర్ట్</w>
వ ాయి
ఫై </w>
స దుప
ప్రాంత ానికి</w>
దూసుకెళ్ల ింది</w>
ఆమె ను</w>
2 8
పే రి
పేరి ట</w>
టీ మి
టీమి ండ
టీమిండ ియా</w>
గ్ర ె
య న్</w>
వి డి
ఆట గాళ్లు</w>
దొ క్క
వా ళ్ల</w>
ఇ ంగ
ఇంగ ్లా
ఇంగ్లా ండ్</w>
కె ప్టె
కెప్టె న్</w>
వంద ో</w>
ప్ల ేయ
ప్లేయ ర్</w>
ె క్క
ధర లు</w>
ఉత్సవ ము</w>
అల ానే</w>
సంప్ర ద
ాయ ాలను</w>
కలి సిక
కలిసిక ట్టుగా</w>
న డ
జా గ
గరు డ</w>
మా వ
గాయ ాలు</w>
కార ్ల</w>
విభాగ ంలో</w>
మారుత ి</w>
సు జ
సుజ ుక
సుజుక ి</w>
సెల ె
సెలె రియో</w>
ఇ గ్ని
ఇగ్ని స్</w>
ప్రవేశ పెట్టింది</w>
త్ర ా
టి యా
ట ాను</w>
బర్ త్</w>
్రీ ట్</w>
కా ష
తీ ర్థ
జ మ్మ
గా పై</w>
కుటు ం
కుటుం బా
కుటుంబా న్ని</w>
ంత పురం</w>
ుతుంద నే</w>
లక్ష్ మీ
న ారాయణ</w>
వి నో
వినో ద
చు ర
సల హా
సరి హద్ద
సరిహద్ద ుల్లో</w>
ఫె న్
ఫెన్ సింగ్</w>
క తాలో</w>
చొ ర
బడ ుతున్న</w>
నివార ించేందుకు</w>
ఏర్పా టును</w>
బా ట్లు</w>
డ్ర గ్
డ్రగ్ స్</w>
బా గు
ని దర్శ
వల స</w>
పౌర స
పారి శ్ర
పారిశ్ర ామ
ార ీ
హా ని</w>
సంద ీ
సందీ ప్</w>
ట ించిన</w>
హ ేష్</w>
తెలుగు లో</w>
కొండే టి</w>
మవ ుతుంది</w>
ము ను
ట ిల
్ల ీ</w>
వహ ించ
డ ని</w>
నిర్ ధార
చేయ బడిన</w>
మి స్ట
ఆయు ధం</w>
తీ పి</w>
పల్ల ి</w>
ేష న్ల</w>
ించ లేకపోయ
ింద ట</w>
స్త ్ర
సంగీ తం</w>
ప్ర శ
ప్రశ ంస
సద రు</w>
రి న</w>
సమ న్
సమన్ వ
కనిప ిస్త
ో ంద
ముఖ్య ంగా</w>
వేగ వంత
నిర్ణయ ాలతో</w>
మైన స్</w>
ిత ్</w>
ం సం</w>
ఇ కపోతే</w>
వై ఎస్
పుర ంలో</w>
ై ట్</w>
మురళ ి</w>
మంట లు</w>
వ్యవ ధ
ిల ోనే</w>
అ దుపు</w>
ప ది</w>
నిర్వాహ కులు</w>
స్టి ట
ఫి జ
ఫిజ ికల్</w>
ఎ డ
సై న్
సైన్ సెస్</w>
పోత ాయి</w>
ఎక్కు వసే
ఎక్కువసే పు</w>
ఉంచ డానికి</w>
ఉండ ండి</w>
ద ో
స్ట ిక్</w>
త డి</w>
వస్త ్ర
ఆత్మహ త్య
మా న</w>
పౌర ులు</w>
స రా
ించ ింద
సమాచార ాన్ని</w>
కెమె రా</w>
ఉద్యోగ ులు</w>
వై ంది</w>
ెన్ సు
విధ్వ ంస
డి ందని</w>
అసా ంజ
అసాంజ ిపై</w>
కోర ిక</w>
కొ ంత</w>
తీస ుకుంది</w>
స్వీ డ
స్వీడ న్</w>
ష నల్</w>
శ న
బెదిరి ంప
విజయ ్</w>
ఇళ్ల కు</w>
వచ్చ ాయి</w>
ి న్న</w>
కన్నీ ళ్లు</w>
పెట్ట ుకున్న</w>
న్యూ జ
న్యూజ ిలా
న్యూజిలా ండ్</w>
ఉత్త మ</w>
బాల కృష్ణ</w>
పూర్త వ
రాల ిగా</w>
అనుకుంట ున్నారు</w>
రచ్చ </w>
య ింది</w>
ాల నే</w>
అభ్య ంతరం</w>
పే ర్లు</w>
వ స్తున్నాయి</w>
రైత ులను</w>
వె దు
వెదు రు</w>
పె ంప
కా న్ని</w>
నాలుగ ై
ఆద ాయాన్ని</w>
ఇస్త ాయి</w>
స ముద్ర
అమ్మ ాయి</w>
కష్ట ం</w>
ాడ ో</w>
మిత్ర ుడు</w>
పి ండ
త్రి నాథ
త్రినాథ </w>
ను ంచ
చి వ</w>
తీ శాడు</w>
హీరో ల</w>
ౌ న్స్</w>
అత డు</w>
రె వర
ఐ పీ
ఐపీ ఎల్</w>
క తా</w>
ప్రా తి
వహ ించిన</w>
ని తి
నితి శ్</w>
రా ణా</w>
ఆది వారం</w>
ఢిల్ల ీలో</w>
ణా కు</w>
ు రాలు</w>
మార్ వా
ఇ రు</w>
శ ర్మ</w>
ప్ర ముఖ</w>
మెప్ప ించిన</w>
ఇ లా
ఇలా గే</w>
నో ట్లు</w>
ఉ త్త</w>
పంచాయిత ీ</w>
అధికార ిగా</w>
ల ంగా</w>
రి స్థితి</w>
కాన ు</w>
నిర్ ణ</w>
ఘ ా
చ్చ ిపోయ
రే ంద్ర</w>
భ ్య</w>
రీ తిలో</w>
ఫోటో ల</w>
వాట్ సా
వాట్సా ప్</w>
ఫో స్ట్</w>
ఫో స్ట
స్త ా</w>
అయ్య ాయి</w>
తెలి య</w>
క్ తి</w>
సంత ృ
ధాన ాలు</w>
రా క</w>
పో వ</w>
అ త</w>
ని ని</w>
మొత్త ానికి</w>
ంప </w>
ఇష్ట ం</w>
పెట్ట ార
చ్చ ు</w>
ఫ ుల్</w>
సార ్లు</w>
స్ వే
స్తున్న ార
ఇంట ర్వ
ఇంటర్వ ెల్</w>
సన్నివేశ ాలు</w>
విశాఖ లో</w>
ప డ్డారు</w>
విభ జన</w>
అధికార ం</w>
కా దని</w>
ద త్త
్ర ుడు</w>
కొర త</w>
డె వల
డెవల ప్</w>
కార్ మిక
కార్మిక ుల</w>
ఆ వేద
ఆవేద న</w>
పాల న</w>
వా డి
లా గా</w>
ఎమ్మెల్య ే
వంద ల</w>
క మ్మ</w>
వర్ గం</w>
ఏక మై</w>
ించ ినట్లు</w>
మె గా
యువ </w>
ు ప
కా ప
అ ణ
ఖ చ్చితంగా</w>
అయ్య ేలా</w>
వ త్</w>
నిషే ధ
అ ట
ఎ వ్వ
ఎవ్వ రూ</w>
చెయ్య లేదని</w>
నగర ంలో</w>
తమి ళ</w>
మిత్ర </w>
4 00</w>
బ డ్జెట్</w>
ఆ విష్
ఆవిష్ కర
ణ ను</w>
సాగ ుతుందని</w>
ుకోవ డంతో</w>
ప్రాజె క్
చేస్త ారని</w>
అను మాన
అనుమాన ాలు</w>
ంపే ట</w>
గు జ
గుజ రా
కార్యక్రమ ం</w>
హ యా
హయా ంలో</w>
క రె
కరె ంట్</w>
వే త్త
వేత్త లు</w>
గుర్తు చేశారు</w>
నెల ల్లో</w>
సమస్య లు</w>
పరిష్ కరించ
త ల
తెరకెక్క ుతున్న</w>
పక్క ా</w>
కో న</w>
ఫిల ్
ఫిల్ మ్</w>
కార ్ప
కార్ప ొ
కార్పొ రేషన్</w>
నిర్మి స్తున్న</w>
ప్రేక్షక ుల</w>
రంగ ానికి</w>
యూని ట్</w>
సాయ ంత
సాయంత ్రం</w>
ఈ వె
ఈవె ంట్</w>
ాల ూ
తెలియ ాల్సి</w>
తీర్ పు</w>
జాగ్రత్త లు</w>
మంచ ి
తి న
ప ది
మ ించి</w>
వ ద్దు</w>
సంచల న</w>
పాల ్</w>
జన సేన</w>
ఉ ద్
ఉద్ దేశ
ఉద్దేశ ించి</w>
ఆసక్తిక ర</w>
చెవి లో</w>
్య ా</w>
వంశ ీ</w>
మ ల్ట
మల్ట ీ
మల్టీ స్టార
మల్టీస్టార ర్</w>
ఇంటర్ వ్యూ
చెప్ప ాడు</w>
క్య ారె
టి స్</w>
కాల ేదని</w>
అంద ుకే</w>
ఏ మో</w>
బ ండ</w>
బెట్ట ారు</w>
సే ప
మి దని</w>
ఎవర ికి</w>
చేయ ూ
తరు ణ
నా ట్స్</w>
ప్రశా ంత్</w>
వంత ు</w>
సిద్ధ ంగా</w>
చిర ంజ
చిరంజ ీ
చిరంజీ వి</w>
విశ్వవిద్య ాలయ
కే బినెట్</w>
ఆమో ద</w>
వర్ సి
టీ ని</w>
లభ ిస్తుంది</w>
ఢిల్ల ీ
ంట ాయి</w>
నల్ గొండ</w>
పెళ్ల ిక
డ ్రీ
చెప్ప ి</w>
వి లా
విలా స
ఉండ ాలన
రిక ను</w>
ప్రశా ంత
చైనా కి</w>
ఇచ్చ ింది</w>
ఉగ్రవాద ులుగా</w>
యా జమా
యాజమా న్యం</w>
చై నాకు</w>
కొద్ది రోజులుగా</w>
ఆందోళ న
4 0</w>
చెల్ల ించాలి</w>
ప ద్
మా స
నిబంధ న
డ యా
డయా గ్
డయాగ్ నల్</w>
కా కపోతే</w>
పి చ్</w>
డే ంజ
డేంజ ర్</w>
అ శ్
అశ్ వి
అశ్వి న్</w>
స్ట్ర ై
క ర్</w>
త్త ింది</w>
తన దైన</w>
రా హ
టీ వీ</w>
కెమె ర
కనిప ించింది</w>
సమాజ ంలో</w>
బాధ్య తలు</w>
బాధ్య త</w>
ఇ న్నే
జ ర్
చే తి
ఇంట ికి</w>
రావ ాలని</w>
మ నో
పడ లేదు</w>
లక్ష ద్వీ
లక్షద్వీ ప
మ ులకు</w>
అధ ీ
ధ ్ర
ధ్ర ువ
పా కి
పాకి స్థాన్</w>
ట్ట </w>
పే రుగ
ఎదు రు
ఎదురు చూస్తున్న</w>
న ారా</w>
చంద్రబాబు నాయుడు</w>
వాస ానికి</w>
రాష్ట్ర ం</w>
పెట్ట నున్నారు</w>
మౌ త
మౌత ోంది</w>
ఉ ద్య</w>
జిల్ల ాల</w>
హామ ీలు</w>
ల్ల ోనూ</w>
భుత ్వ</w>
ి విధ
జిల్ల ాలను</w>
నాభా కు</w>
జిల్ల ాను</w>
దిశ </w>
నిద్ర </w>
ఒక ే</w>
దృష్ట ి</w>
డుక ి</w>
అంద ువ
అందువ ల్ల
తొ ందర
నిద్ర లోకి</w>
రాయ ల
రాయల సీ
రి న
భి న్న
భిన్న ంగా</w>
ుల ంతా</w>
జిల్ల ాకు</w>
వార ే</w>
చేయ టం</w>
తా జా</w>
వ్యవహ రించి</w>
సమాచార </w>
సమయ ానికి</w>
ుక ులు</w>
h </w>
దు స్తులు</w>
విలువ ను</w>
నిర్ వ
నిర్వ హి
త ుక
సర స
బ్రా ండ్</w>
ప్రమాద కర
ప్రమాదకర మైన</w>
ఆరోగ ్య</w>
రాష్ట్ర ప్రభుత్వ
రిజిస్ట్ర ేషన్</w>
రియ ల్</w>
తే వాలని</w>
ప్రతిపాద ించింది</w>
ప్రతిపాద నను</w>
రాష్ట్ర ాలు</w>
తే దీ
అ స్
తెచ్చ ే</w>
ని వేదిక
ఆద ాయ
ఆదాయ ంలో</w>
ప్రభా వ
డ ుతుందని</w>
4 6</w>
క ాలను</w>
పే ద</w>
వర్గ ాలకు</w>
తయ ార
తయార ీలో</w>
ఇ థ
పె ట్రో
పెట్రో లు</w>
ఉత్ప త్త
వ్యా ట్</w>
చేస్తున్న ాయి</w>
వీ టిని</w>
తగ్గ ించ
ంద ుకుంది</w>
తగ్గ ుతాయి</w>
6 4</w>
ఏపీ లో</w>
రికార్ డులు</w>
ే క్</w>
నమోద వ
నమోదవ ుతున్నాయి</w>
ప ంజ
ఆం క్షలు</w>
కఠ ిన
కఠిన ంగా</w>
హ ాన్</w>
క ల్ల
దేశ ాలు</w>
చిక్క ుకున్న</w>
జా క్
జాక్ సన్</w>
చ్చ ాయ
పల్లె లో</w>
ుతున్న ాయని</w>
వ్యతిరే క
అ శో
అశో క్</w>
మండ లి
మండలి లో</w>
సుల ు
పీ లోకి</w>
ిన ీ
సరఫ రా</w>
పొ డు
పొడు గు
పొడుగు నా</w>
అంద ుతుంది</w>
న ారు</w>
మొక్క లు</w>
తప్ప ని
తప్పని సరి</w>
ార ులు</w>
మో సం</w>
నా ట
పూ త</w>
వే సిన</w>
మార ్లు</w>
దార ులు</w>
చే తులు</w>
ద ుల
ఆంధ్ర </w>
ఎ వరి
అ డి
అడ్ మి
ఇ దిల
ఇదిల ా</w>
ఎదు రు</w>
వ్యా ధి</w>
ని పు
నిపు ణ
సమ ర్
చేస్తున్న ాయని</w>
సం క్రా
రి లో</w>
ఖ ై
1 50</w>
భర్ తను</w>
నాయ క్</w>
భాగ ంలో</w>
క్ వింట
క్వింట ా
క్వింటా ళ్ల</w>
బెంగ ాల్</w>
ఇచ్చ ి
ఇచ్చి ంద</w>
వెల్ల </w>
స్థాన ాల</w>
సీ ట్ల</w>
ు ంద</w>
అధికార ంలో</w>
తృ ణ</w>
మూ ల్</w>
లో క్</w>
స ంత</w>
తిరుగు బాటు
అదన ంగా</w>
శా ంతి</w>
వై పు</w>
ని రో
నిరో ధ
స్ పి
గెల ు
బెట్ట ింగ్</w>
ఏంట ంటే</w>
ఫె వర
ఫెవర ే
ఫెవరే ట్</w>
స్ లి
రామ కృష్ణ
సం ఖ్య
ున్న ారని</w>
ే మి</w>
విస్ మర
ధ ా</w>
చెబ ుత
చెబుత ారని</w>
పౌర ులను</w>
తరల ించడానికి</w>
గమన ార్
గమనార్ హం</w>
గడ ువ
గడువ ును</w>
ప్ర ణా
ప్రణా ళ
ప్రణాళ ిక
ప్రణాళిక లను</w>
ఎదు రవ
నా టికి</w>
అంద రి
అందరి నీ</w>
అవకాశ ాలు</w>
ఇవ న్నీ</w>
ఖా ళ
ఏమి టి</w>
బి సి
బిసి సిఐ</w>
చు క్క
రై ంది</w>
త క్షణ
తక్షణ మే</w>
అంతర్ జాతీయ</w>
తగ్గ ించేందుకు</w>
ష్ ఠ
ా త్మ
విద్యుత ్
విద్యుత్ తు</w>
క్ష ుడు</w>
భ ీ
జై ష
జైష ే</w>
సంస్థ కు</w>
3 00</w>
ఉగ్రవాద ులు</w>
శ త్ర
ఎదు ర్
ఎదుర్ కో
పరిస్థిత ులు</w>
రహ స్
ుకుంట ుందని</w>
బస్ సులు</w>
తిరుగ ుతున్నాయి</w>
న మూ
వి లీ
విలీ నం</w>
పెరుగ ు</w>
ఉ ప్ప
అ సి
ప ాలు</w>
పా ండ
ఆడ టం</w>
వ డ
శి ఖ
శిఖ ర్</w>
ధా వన్</w>
ఆ సీస్</w>
కమి న్స్</w>
ధ వన్</w>
న న్న
ఆరో గ్య
ప్రయోజన ాలు</w>
మహ మ్మార
వా న్ని</w>
డాల ర్లు</w>
సహ ాయ</w>
వి దేశ
విదేశ ా
విదేశా ంగ</w>
8 0</w>
వర ద</w>
తిరు వ
మ ్ర
కే రళ
కేరళ లో</w>
భాజ పా
భ వం</w>
అభ్యర్థ ి</w>
యువ కుడు</w>
గో వుల</w>
న ాలను</w>
అనుమ తి
స్తున్న ారని</w>
వీ డియోను</w>
మాధ్యమ ాల్లో</w>
వాళ్ల కి</w>
దొర క
ఇస్త ామని</w>
పా పం</w>
స జ్
సజ్ జన
సజ్జన ార్</w>
అయ ిపోయ
తీస ుకున్న
బయట పెట్ట
ష న
లో భ
ంట ీ
చట్ట ాన్ని</w>
తెచ్చ ింది</w>
జై </w>
అ బ్బ
దే మీ</w>
అంత కు
ని రీక్ష
నిరీక్ష ణ</w>
గొ ంత
ఉ ద్వ
ఉద్వ ే
ఉద్వే గ
ని ధి</w>
మ న్న
ా వ్</w>
ట్ నం</w>
అ తన
పిల ిప
నిశ్చిత ార్ధ
చేసుకోవ డం</w>
స్థాన ిక</w>
సంస్థ ల</w>
ఉద్యమ ానికి</w>
ఇ న్ని
ఓ ట్ల</w>
దా న్ని</w>
లి ంప
జే శారు</w>
గ మ
ు జ
ాల పై</w>
హ ాలీవుడ్</w>
జైల ుకు</w>
దీ క్ష
పాల్గొ న్న</w>
రాష్ట్ర ానికి</w>
క పోయ
చేస్త ోన్న</w>
వేయ ాలని</w>
చ ీ</w>
రాజకీయ ాలు</w>
గ వర్
గవర్ నర్</w>
బస్స ులను</w>
రాజ స్థాన్</w>
కోట ాలో</w>
మె డ
ఇ ంజ
విద్య ార్ధ
నిర్ణయ ించిన</w>
అమల ులో</w>
విపక్ష ాలు</w>
బీ హార్</w>
ఫై ర్</w>
అయ్య ారు</w>
నితీ ష్</w>
క పోవ
అ న్య
కోర్ టు
సమస్ య</w>
వ్యవసాయ ం</w>
కొ రకు</w>
వాడ ేందుకు</w>
ట్రాక్ట ర్ల
ట్రాక్టర్ల ున్నాయి</w>
వే ధ
వేధ ి
వేధి ంపులు</w>
భయ ాన
భయాన క</w>
నిజాయిత ీగా</w>
ంగ ి
కర్ త
త ద్వారా</w>
ఎన్నిక లు</w>
జ ర
ఎ ల
ప్రశ్ నించ
సు ను</w>
నేతృత్వ ంలోని</w>
ఫ్రా స్ట్ర
ఫ్రాస్ట్ర క్
ఫ్రాస్ట్రక్ చ
ఫ్రాస్ట్రక్చ ర్</w>
5 00</w>
కో ట్లను</w>
ఫ ్రా</w>
నాలుగ ే
మొత్త ాన్ని</w>
కలి పి</w>
బ ిల్</w>
ఒప్ప ందాన్ని</w>
ార ంటూ</w>
బ ్య
201 7</w>
అ క్ట
అక్ట ో
అక్టో బ
అక్టోబ ర్</w>
సాధ ించింది</w>
పా క్</w>
3 4</w>
వర ్లలో</w>
నష్ట పో
ఇండస్ట్రీ కి</w>
బెంగళ ూరు</w>
ఆకట్ట ుకునే</w>
అభ ిన
అ రు
నెలకొల్ప ింది</w>
సినిమ ాలతో</w>
ముచ్చ ట</w>
నిఖ ిల్</w>
ఫ ార్
కే ర
కేర ళ</w>
శ ్వ
కేంద్ర మైన</w>
హథ్నూర </w>
పట్టణ మైన</w>
దూర ంలోనూ</w>
3 8
పి న్</w>
బాల బడి</w>
ప్రాథమిక ోన్నత</w>
ఎల్ల మ్మ
ఎల్లమ్మ గూడ
మాధ్య మిక</w>
హథ్నూర లోను</w>
ఆర్ ట్స్</w>
డి గ్ర
డిగ్ర ీ</w>
మేనే జి
మేనేజి మెంట
మేనేజిమెంట ు</w>
పాల ీ
పాలీ టె
పాలీటె క్
పాలీటెక్ న
పాలీటెక్న ిక్</w>
సంగారె డ్
శిక్ష ణ</w>
అ నియ
అనియ త</w>
దివ్యా ంగుల</w>
హైద రా
హైదరా బా
హైదరాబా దు</w>
పర పతి</w>
వా ణి
వాణి జ
వాణిజ ్య</w>
బ్యాం కు</w>
సహ కార
18 9
చనిపోయ ిన</w>
వారె వర
వెల్ల డై
వెల్లడై ంది</w>
కి ంద
ి పోయింది</w>
సృష్ట ించిన</w>
ర కం</w>
మై పోయింది</w>
5 7</w>
తెల ్ల
కురి సిన</w>
రా శ
బ స్త
వంద లా
ల ంలో</w>
అమ్మ కానికి</w>
య ార్
యార్ డు</w>
ార ం</w>
ున కు</w>
ధ రకు</w>
విజ య</w>
ంగ ం</w>
వర్ష పాతం</w>
అత్యధ ికంగా</w>
మిల్ల ీ</w>
1 7</w>
నమోద ైంది</w>
ాల్ల ోని</w>
నష్ట ం</w>
తప్ప ింది</w>
బడ ుతూ</w>
పాల ి
పెట్ట ి</w>
మె రుగ
పోటీ ల్లో</w>
సెకన్ లలో</w>
చేసి నట్టు</w>
రికార్ డును</w>
తి రగ
తిరగ రా
ఆఫీ సర్</w>
వసూ ళ్లు</w>
విడుదలై న</w>
గు రి</w>
పో లి
పోలి స్తే</w>
కలెక్ష న్స్</w>
త క్కు
తక్కు వగా</w>
క ని
కని పి
పోటీ గా</w>
దార ు
మాట్లాడుకుంట ున్నారు</w>
క్ష్య ంగా</w>
మో స
మోస ాల</w>
సామా న్య
తే డా</w>
య ుడు</w>
మొత్త ంలో</w>
బ్రిటీ ల</w>
గ ూ
గూ గ
గూగ ుల్</w>
ఫై ండ్</w>
ట ్యా
ట్రా క్</w>
చేయ ొచ్చు</w>
లా గి
లాగి న్</w>
డీ తో</w>
సర్ వీ
లేకపోయ ినా</w>
ఆ ఖ
రి గా</w>
చూప ిస్తుంది</w>
ఫో న్లు</w>
నిజా మా
నిజామా బాద్</w>
అద్భుత ంగా</w>
మేనే జర్</w>
వర్ష ాలు</w>
క్ర ె
క్రె డి
క్రెడి ట్</w>
ఇవ్వ కుండా</w>
కొట్ట ే
ఘ ో
ట ర్ల
పరి మిత
పరిమిత ం</w>
డైరె క్ట
రచయిత ల</w>
తర ం</w>
ాల ె
ాలె న్నో</w>
తర హా</w>
కథ లు</w>
సందర్భ ాల్లో</w>
దర్శ కులు</w>
స్నేహిత ుడు</w>
ిల ్స్</w>
వే సే
అప్ప ట్లో</w>
వల్ల నే</w>
ఇద్ద రూ</w>
వెళ్ల ి
పో యా
వై ఎస్</w>
ఫ ేస్</w>
నిల దీ
సంగ తే
టార్ గ
టార్గ ెట్</w>
ళ్ల ూరు</w>
నడు స్తుంది</w>
బెల్ల ంకొ
బెల్లంకొ ండ</w>
శ్రీనివా స్</w>
అంద ుకున్నాడు</w>
న లి
పోయ ే</w>
న డిచ
అ దర
ఫై ట్స్</w>
పర్వ ాల
సీ న్స్</w>
డ నే</w>
నడు స్తోంది</w>
కనె క్ట్</w>
మ హా
ఆలోచ ించి</w>
జరుగ ుతున్నాయి</w>
ఆ ప్</w>
ఎంప ి</w>
ని న్న</w>
చిత ్రీ
బి జె
బిజె పి</w>
డిప ్యూటీ</w>
గ ందర
గందర గో
గందరగో ళ
గందరగోళ ం</w>
బి డ్డ</w>
ఎ ర్ర
తి న్నా</w>
గ్ర ై
7 50</w>
డి జైన్</w>
స్ట ీ
ి ప్</w>
పట్ట ుకో
భ ం</w>
G </w>
E </w>
H </w>
కాల మ్</w>
సం భవ
సంభవ ించిన</w>
ని ర
ది గు
న్ సీ</w>
ముంబ ై
న ాల</w>
ప్ర ామ
ప్రామ ు
తీర్ ప
ఫల ితంగా</w>
చేస ుకుంటూ</w>
వి ప్ల
విప్ల వా
విప్లవా త్మక</w>
నిర్ణయ ాలు</w>
పెట్ట ుకుని</w>
క్ష ంగా</w>
రాజకీ యం</w>
ఆలోచ నను</w>
స ుకుని</w>
రా డ
ంబ రంగా</w>
ప్రతి ష్ట
వేడుక లో</w>
లేని విధంగా</w>
ప్ర మోషన్</w>
2 ౦
పంప ించారు</w>
ప్ర యోగ
చేస ుకునేందుకు</w>
ఐ దే
భూమి ని</w>
1 7
కిలో మీటర్ల</w>
వెల ువ
ని ంగ్</w>
కొ ణి
కొణి ద
కొణిద ెల
కొణిదెల </w>
ఏ ది</w>
ట్రె ండ
ట్రెండ ింగ్</w>
లేకపోయ ిన</w>
చై త
డిసెంబ ర్</w>
ఎ ంజ
ఎంజ ాయ్</w>
ర ొ
ుకున్న ది</w>
గ డిప
మధ ు
బంధ ించి</w>
సీ సీ</w>
రె డ్డ
రెడ్డ ికి</w>
యుద్ధ ం</w>
డ ుగా</w>
మధ్య ే</w>
పో రు</w>
పార్టీ ల</w>
అధికార </w>
సర ే</w>
్ట </w>
కే డర్</w>
క్ టివ్</w>
నాయకత్వ ం</w>
పార్టీ ని</w>
ుల ే</w>
లేని దే</w>
మన ము</w>
చెప్ప ే</w>
దార ిలో</w>
ముత ్యాల</w>
అను భవ
చూప ించారు</w>
అమ్మగార ిని</w>
ించుకో ండి</w>
అన ుకున్న</w>
అమ్మగార ితో</w>
అ రగ
అరగ ంట</w>
ఆశీ స్సు</w>
సా టి</w>
ర న్న</w>
భావ న</w>
బ ట్టి</w>
యోగ ులకు</w>
స రెండ
సరెండ ర్</w>
భయ ంకర
ఆక్సి డెంట్</w>
గాయ ం</w>
ద నే</w>
ుల ా
భూ మి</w>
మీద కు</w>
చేసే సి</w>
బోధ </w>
ఉన్న ది</w>
నీ టితో</w>
మార ి</w>
దాల ్చ
సం పూర్
సంపూర్ ణ</w>
భ ర
పై నుంచి</w>
అంద రి</w>
పూ జ</w>
లా ంట
టేశ ్వ
రిజర్ వే
రిజర్వే ష
రిజర్వేష న్లు</w>
పాల సీ</w>
గణాంక ాలు</w>
b </w>
సార ీ</w>
పండ ుగ
పుట్టిన రోజు</w>
అ ప్పుడ
ఈ సారి</w>
ాల ిని</w>
పుట్టిన రోజ
చే శా
ఫ్యా మిల
వె ళ్
అక్క డే</w>
ఎ త్త
ఎత్త ున</w>
ఆ రోజు</w>
క్ కి</w>
ాల్సింద ే
అయ ్యాక</w>
మార్ప ులు</w>
వి రు
విరు చ
విరుచ ుకు
ధోరణ ి</w>
ప్రజ ల</w>
పు నర
రోజ ూ
ఎ ప్పుడు</w>
ప్రో టీ
ప్రోటీ న్</w>
ఉండే లా</w>
మూ సీ</w>
గ ిన</w>
పర్య వే
ఇటీవల ి</w>
అధ్యయ నంలో</w>
లాభ రహ
లాభరహ ిత</w>
నిధ ులు</w>
హో ం</w>
హాజ రైన</w>
ల ం
లం కే
ని ర్ల
గో పీ</w>
ఎమ్మెల్ సీ</w>
అ ప్</w>
డే ట్</w>
అస లు</w>
అన ధికార
అనధికార ికంగా</w>
స వర
జీ ఎస్టీ</w>
ను ండ
నుండ ే</w>
సేవ ల</w>
ఫో న్ల</w>
మంత ా</w>
సాహ ో</w>
అంచ నాలు</w>
స త్త
సత్త ా</w>
కో ట్లకు</w>
రిక ్వ
రిక్వ ె
రిక్వె స్ట్</w>
్వ ం</w>
ఆమె కు</w>
బల ం</w>
వల సిన</w>
ఓట మ
జీవి తం</w>
వెన ుక</w>
ంట ్స్</w>
సర్వే లో</w>
వెల్లడ య్యాయి</w>
ుల్ల ోనే</w>
డేట ాను</w>
తే ల
లక్ష లకు</w>
వరు స</w>
ంత ో
ంతో పాటు</w>
రామ ాయ
రామాయ ణం</w>
రో ల్</w>
డ ార్క్</w>
చా క్ల
చాక్ల ెట్</w>
మె రు
మెరు గుప
గ డ్డ
మార్కె ట్ల</w>
అంద ిన</w>
స ాన
సాన ుకూ
సానుకూ ల</w>
ఫలిత ాలు</w>
ఆం క్ష
ఆంక్ష ల</w>
సూ చీ
కల వర
చేశ ాయి</w>
స్వీ కరణ</w>
చూడ గా</w>
ఆ సి
రో ప
కే త
ధోరణ ిలో</w>
హ ల్</w>
అంగ న్</w>
వా డీ</w>
పోష కా
పోషకా హార
పోషకాహార </w>
కేంద్ర ాలు</w>
వార్తా పత్ర
వార్తాపత్ర ిక</w>
జరుగ ుతుంది</w>
పో లింగ్</w>
ఆశ ా</w>
కార్యకర్ త</w>
జన న</w>
మర ణాల</w>
సమీ కృ
సమీకృ త</w>
బాల ల</w>
ఆట ల</w>
మై దానం</w>
గ్రంథ ాలయం</w>
రీ డింగ్</w>
రూ ం</w>
లె క్క
లెక్క ి
స్థాన ాలు</w>
డీ ఎంకే</w>
ంజ లో</w>
కొ ల
త్త ూర్</w>
నియోజకవర్గ ంలో</w>
కుమార ుడు</w>
చె ప
స్థాన ంలో</w>
దక్షి ణ</w>
మె యిన్</w>
డ ్యా
చెప్ప వచ్చు</w>
చూడ ాలి</w>
గే యాన్ని</w>
చ ంద
కేశ వ
కేశవ దా
కేశవదా సు</w>
నాయ క
ె ంలో</w>
ల ూరు</w>
గౌ రీ
గౌరీ శంకర్</w>
త మ్మ
తెలియ జే
కేంద్ర ాలను</w>
సెకన్ ల</w>
షే డ్</w>
స్క్రీ న్</w>
జగ ర్ల
జగర్ల గ్
ర వి</w>
రా శి</w>
ది గా</w>
బు ధ
జా బ్ర
జాబ్ర ా</w>
పలిక ింది</w>
ె ంట్</w>
జ త</w>
రీ జ
రీజ ియన్</w>
అ థ
ారి టీ</w>
నిర్మా ణ
ని మిత
నిమిత ్
నిమిత్ తం</w>
ండ్ల ను</w>
యా ని
వదిల ించుకోవటం</w>
బి జీ
బిజీ గా</w>
విక ెట్లు</w>
బా టలు</w>
తర్ వా
గ డ్
ఉంచ ండి</w>
జు ట్టు</w>
మృ ద
మృద ువ
స డ
టె క్</w>
ష ుగ
షుగ ర్</w>
ఎ నర్
సృష్ట ించే</w>
రె గ్య
రెగ్య ుల
రెగ్యుల ర్</w>
ఎ ట్టి</w>
చ ాల</w>
యో ధ
రా డు</w>
బంగార ాన్ని</w>
సీ జ్</w>
చేశ ామని</w>
టీటీ డీ</w>
వివర ణ</w>
ఆగి పోయింది</w>
లో పల
లోపల ికి</w>
లే రు</w>
ాల ె</w>
పా వ
దీపాల ను</w>
రికార్ డు</w>
మొత్త ంగా</w>
వెలిగ ించారు</w>
య ు</w>
క ీ</w>
మి గిల
మిగిల ిన</w>
పర్యాట క</w>
విశ్వవిద్య ాలయం</w>
వర ల్డ్</w>
కెక్క ాయి</w>
శివసే నపై</w>
శివసే న</w>
బాల ్</w>
ప్రస్త ా
ప్రస్తా వి
ప్రస్తావి స్తూ</w>
అభి మా
అభిమా నించ
బ ాల</w>
థాకర ే</w>
స్థిత ికి</w>
ిన ట్టుగా</w>
ఆసక్తికర మైన</w>
కామెంట ్స్</w>
జ ొ
జొ న్న</w>
సంగీ త</w>
దే వీ
దేవీ శ్రీప్రసాద్</w>
బా ప
బాప ూ</w>
రావ ాలి</w>
సాగ ే</w>
గాంధ ీ
చేస్త ుంద
ఆ పేందుకు</w>
అన ుకో
ుల ంద</w>
రా విప
రావిప ూడి</w>
ట ించారు</w>
ప్రా ణాలు</w>
గుర్త ించారు</w>
ె ంట
ఇ ద
విస్త రి
చెప్ప క</w>
పరిశోధ నల</w>
క్ర మాన్ని</w>
వా క్సిన్</w>
బంధ ువులు</w>
వై ద్య</w>
అంట ారు</w>
కౌంట ర్</w>
భా స్
స్వీ కర
మ ాల్</w>
న్యాయస్థాన ం</w>
ఫిర్యా దు
చో టు
మ ాల
ాల ా</w>
అవినీ తి</w>
మీ ట్</w>
క ్యూట్</w>
నిర్మి స్తున్నాడు</w>
స త్య
సత్య రాజ్</w>
నిర్మా త
నిర్మాత గా</w>
విజయ ంతో</w>
ట్ల ే</w>
పరిచ యం</w>
ఓ టీటీ
ఓటీటీ లో</w>
సన్న ా
సన్నా హాలు</w>
చూస్త ుంటే</w>
పె ను</w>
ఫ్రా ంచ
చివర ికి</w>
ఇండ ి
ఇండి యా
కంపె నీ
సహ కారం</w>
ఎన్నిక ైన</w>
త్త ులో</w>
రాజశేఖ ర</w>
దూర మైన</w>
సమర్థ </w>
ిస్త ుందని</w>
మ న్
అంద ిస్తున్న
ఎ గి
ప్రయత్న మేమీ</w>
ఇ ం
పరిస్థిత ిలో</w>
అంత కు</w>
ు ని</w>
వద్ద నే</w>
మూ సి
సె ట్</w>
స్ వర్
లీ కరణ</w>
చేయ లేదు</w>
కె మిక
కెమిక ల్</w>
ఆర్ గానిక్</w>
సి స్</w>
కన్ ఫ
క్ల ిక్</w>
ఇ న
ఇన ార్
ఇనార్ గానిక్</w>
స మ్మ
సమ్మ ే
సమ్మే ళ
సమ్మేళ నాలు</w>
లి టిక
లిటిక ల్</w>
కెమి స్ట్రీ</w>
చద వ
ప్రత్యే కమైన</w>
ప ద్ధ
వీ ల
రా ధిక</w>
సిబ్బంద ిని</w>
వ్యవస్థ కు</w>
డె స్క్</w>
కార్ మిక</w>
పొంద ుతూ</w>
సంత ా
సంతా పం</w>
కుటుంబ ానికి</w>
ఉద్యమ ంలో</w>
పోరాట ాలు</w>
కె రీ
కెరీ ర్</w>
ఆర ంభ
19 9
శేఖ ర్</w>
గ్రా స్</w>
రెండి ంట
రెండింట ికీ</w>
కంట ై
వ ంట</w>
స్ కా
ిన ట్టు</w>
చి వరి</w>
మాన వ</w>
క లో</w>
పేర్ల ను</w>
అడు గ
స్పీ డ్</w>
వ్యూ హ
ృ ష్ణ</w>
కల ్యాణ్</w>
బి డ్డ
బిడ్డ కు</w>
ర్య ంగా</w>
పోరా టం</w>
క ౌర
కౌర వుల</w>
మూడ వ</w>
ద్రో ణా
ద్రోణా చార
ఆదేశ ించ
షార ు
షారు ఖ
షారుఖ ్</w>
ఎన్ సీ
ఎన్సీ బీ</w>
కారణ ాలు</w>
డ్ర ై
డ్రై వర్</w>
భాగ ం</w>
తీ య
జరుగ ుత
వార్ తలను</w>
నిర్మా తలు</w>
స ుకు
సుకు మార
సుకుమార ్</w>
ఆర ్య</w>
ుకుంట ుంది</w>
లక్ష ్యం</w>
హ ాలను</w>
మ మ్మ
మమ్మ ల్ని</w>
సంప్ర దించ
సంప్రదించ వచ్చు</w>
చ ంప
చంప ుత
చంపుత ానని</w>
బె ది
బెది రించ
మనుష ులు</w>
ఇప్పటి వరకూ</w>
హు జూ
హుజూ రాబాద్</w>
రా బోయే</w>
క్ర ి
స బ్బ
తయ ారీ</w>
ని టై
నిటై జ
త కు</w>
ల కే</w>
పెట్ట ిన</w>
మీ టింగ్</w>
N </w>
దీ క్ష</w>
లై జ
లైజ ేషన్</w>
గా ని</w>
ంట ్లు</w>
టై గర్</w>
దే వి
ఆకర్ష ణ
ఆకర్షణ గా</w>
వెలుగ ులోకి</w>
సాధార ణ
స్తున్న ాం</w>
ుక ో</w>
క యి</w>
మహిళ లకు</w>
ళ్ల లో</w>
పూర్ తయ
బాధ లో</w>
తే నె</w>
ఆధ ార్</w>
పా స్</w>
శ ాయి</w>
మే జ్</w>
యోగ </w>
త ాయ</w>
ఉండ </w>
ఈ పీఎఫ్</w>
స్క్రిప ్ట్</w>
ృ తి</w>
ఆలోచ న</w>
ఆ వి
య ంత్ర
అధ ికంగా</w>
తి ప్ప
m </w>
క ద
కద లిక
స్టా టి
స్టాటి స్ట
ించ ుట
ించుట కు</w>
ముఖ్య మైన</w>
వున్న చో</w>
సమతుల్య ములో</w>
వుండ ును</w>
అను నది</w>
సూ త్ర
అందు చేత</w>
అయిన నూ</w>
అవ ే</w>
చే రు
శూ న్య
గర్వ ంగా</w>
లే డు</w>
కన ుక</w>
గుండ ె</w>
సి ంగ
సింగ ిల్</w>
స ిక్కి
ఆత్మహ త్య</w>
ఎ గ
కృ తి</w>
వివర ించారు</w>
ఎ నిమి
ఎనిమి ది</w>
రె డ్
రెడ్ డిని</w>
ఆద ిత
ఆదిత ్య</w>
పోరా టానికి</w>
ుకె ళ
పెంచ ుతుంది</w>
బా డీ</w>
అ ప్ల
ఏ ంటి</w>
రాల ేదు</w>
ారె డ్డి</w>
మార్చ ి</w>
2 9</w>
ప హా
పహా డ్</w>
వంద లు</w>
టెస్ట ుకు</w>
వార ిపై</w>
పాల్ప డ్డారు</w>
రి పోర్ట్</w>
వాట్ స
వాట్స ప్</w>
ద ్యా
ప్రారంభ ంలో</w>
సీరియ స్</w>
తీసుకోవ డం</w>
మరి ంతగా</w>
0 6</w>
వె య్య
వెయ్య ి</w>
నగ దు</w>
వే త</w>
ంగ ్స్</w>
జ్ ఞ
జ్ఞ ాన
చంద్ర గ్రహ
ల్యా ండ</w>
రో వర్</w>
ల్యా ండర్</w>
ఇ క
ఇక పై</w>
v </w>
విష్ణ ువ
విష్ణువ ర్
విష్ణువర్ దన్</w>
నెల ల</w>
శి వా
శివా జీ
శివాజీ ని</w>
నిజ ాలు</w>
మండిప డ్డారు</w>
ో ను</w>
డ ిక
ఆశ ించిన</w>
గ ాలి
దే వు
దేవు డితో</w>
ఘట నలకు</w>
పాల్ప డ
పాల్పడ ిన</w>
అభ్యర్థ ులు</w>
స్వీ కరించ
రిజ క్ట్</w>
దరఖా స్తులు</w>
కార్ డ
మొద లె
సాగ ారు</w>
శ త
శత కాలు</w>
బా దేశ
బాదేశ ాడు</w>
సాధ ించాడు</w>
6 5</w>
మ్యా చుల్లో</w>
; </w>
× </w>
నా ణ
నాణ ్యత</w>
క శ్
కశ్ మీ
కశ్మీ ర్</w>
సైన ిక</w>
తప్ప ిందని</w>
సైన ిక
సైనిక ులకు</w>
ఆర్ మీ</w>
శి బి
శిబి ర
ప్రాంత ం</w>
చొ క్
చొక్ కాని</w>
నిలిచ ారు</w>
ప్రశ్ నలు</w>
కొ విడ్</w>
ుత ోందని</w>
స్క ో</w>
భూ మా</w>
ళ్ ళ</w>
హె చ్</w>
రాయ ుడు</w>
మ ుల
క్యా బినెట్</w>
తెచ్చ ాను</w>
తి ను</w>
చెప్ప ినా</w>
ఏడు స్త
చిన్నార ిని</w>
ఓదార ్చ
ఓదార్చ టం</w>
కావ టం</w>
వివర ాల్లోకి</w>
జగ ిత
జగిత ్యాల</w>
కొండ గ
కొండగ ట్టు</w>
రెండే ళ్లు</w>
చిన్న ారి</w>
ముద్ద ుల</w>
చి ప
కు మిల
కుమిల ి</w>
జ నం</w>
కంట ై
కంటై న్
కంటైన్ మెంట్</w>
వై ప
వైప ే</w>
ఇప్పటి వరకు</w>
ఇప్ప </w>
సెక్ర </w>
పండ ిత
ఓ ం
ఓం కార్</w>
త ితో</w>
నా గార్
నాగార్ జున</w>
న ులు</w>
ిస్తార </w>
థ ుడు</w>
మ ిన</w>
హాయ ిస్తే</w>
అవుత ోందని</w>
ఫ్రె ంచి</w>
అ ణి
అణి చి
మృత దే
మృతదే హ
మృతదేహ ాన్ని</w>
సదాన ందం</w>
ఇ దొ
ఇదొ క</w>
మూత్ర ం</w>
క ణమ
కణమ ులు</w>
ం కు
ఇ స్తున్న
హామీ లను</w>
కా పీ</w>
రామ లింగరాజు</w>
ప్రయత్ నం</w>
బాల ిక</w>
ఫాలో యింగ్</w>
దు ద్ధ
దుద్ధ గొండ
బీ దర
బీదర ్లో</w>
ట ూ
రోజ ంతా</w>
పు ష్ప
పుష్ప ించే</w>
గో డ
పండ ించిన</w>
కొనుగో లు
కొనుగోలు పై</w>
స్పష్ట త</w>
ప్యాన ెల
ప్యానెల ్లు</w>
మూ లా</w>
స్టూ డియోను</w>
డ్రె స్</w>
బో లె
బోలె డ
బిక ినీ</w>
కార్ తి</w>
సో ము</w>
వీర ్రా
వీర్రా జు</w>
డ ొ
డొ న
డొన ాల్
డొనాల్ డ్</w>
ట్ర ంప్</w>
ఘన స్వా
ఘనస్వా గ
ఘనస్వాగ తం</w>
ఆయ నకు</w>
సా దర
సాదర ంగా</w>
ఆ హ
ఆహ ్వ
ఆహ్వ ానం</w>
పల క
పలక డంతో</w>
సైన ికులు</w>
గౌర వ</w>
వంద నాన్ని</w>
దేవాలయ ాల్లో</w>
భద్రా ద్రి</w>
రాము డికి</w>
ఎ ఫెక్ట్</w>
త గిల
తగిల ింది</w>
భద్రా ద్ర
భద్రాద్ర ిలో</w>
శ్రీ రామ</w>
వేడుక లను</w>
వెంట ాడ
వెంటాడ ుతోంది</w>
అల ర్ట్</w>
భ క్
భక్ తులు</w>
లే కుండ
లేకుండ ానే</w>
జరుప ుతామని</w>
స్పష్ట ం</w>
రామ ుల
రాముల వారి</w>
కల్యా ణం</w>
టిక ెట్లు</w>
టిక ెట్</w>
ఆల య</w>
చెల్లిస్తార న్నారు</w>
క రో
కరో నా
కరోనా పై</w>
భయ భ
భయభ ్రా
భయభ్రా ంత
భయభ్రాంత ులకు</w>
గు రిక
గురిక ావ
గురికావ ొ
గురికావొ దని</w>
అప్రమత్త ంగా</w>
చె ౖన
చైన ాలతో</w>
చెంద ుతున్న</w>
ఆఫ ్ర
ఆఫ్ర ిక
ఆఫ్రిక ా</w>
వెన ుక
వెనుక బడిన</w>
పేర్కొ ంటున్నారు</w>
మన లో</w>
అంద ంగా</w>
సంస్ కరణలు</w>
చెయ్య వచ్చు</w>
చ ౌక</w>
ఎవ రై
ఎవరై నా</w>
మూ లం</w>
ఆ దా</w>
ప్రత్యే కంగా</w>
చెప్ప గలను</w>
హ క్క
హక్క ుకు</w>
ఇ తర
ఇతర ులు</w>
ఇ ంధ
ఇంధ న</w>
వనర ుల</w>
తొలగించ బడుతుంది</w>
హానిక ర
హానికర మైన</w>
వాయ ువులు</w>
హానిక రం</w>
పర్యా వర
పర్యావర ణం</w>
సున్న ిత
సున్నిత మైన
సున్నితమైన దని</w>
లో త
లోత ైన</w>
కావ ాలని</w>
ఆ స్
ఆస్ కార్</w>
ఫె ర్
ఫెర్ నా
ఫెర్నా ండ
ఫెర్నాండ ేజ్</w>
అంజయ్య ను</w>
దళిత ు
దళితు డిగా</w>
పేర్కొ ంటూ</w>
వ్యాఖ్య ల్ని</w>
దళిత ుల
దళితుల ్ని</w>
ఆకర్ష ించేందుకు</w>
చేస్తున్నార ే</w>
తప్ప ించి</w>
వర్గ ానికి</w>
వార ుగా</w>
మనమ డు</w>
వర్ కి
వర్కి ంగ్</w>
అభిషే క్</w>
గార్ డు</w>
స్పె క్టర్</w>
చూప ించి</w>
పరిధిల ోని</w>
బస్స ుల్లో</w>
ఉ చిత
ఉచిత ంగా</w>
ప్రయాణ ించే</w>
కల్ప ించన
కల్పించన ున్నారు</w>
దీ న
దీన ిక
దీనిక ో
దీనికో సం</w>
ఆధ ున
ఆధున ిక</w>
అందజే య
అందజేయ నున్నారు</w>
గార్డ ులకు</w>
ఒక రోజు</w>
ఇవ్వ నున్నారు</w>
తమిళ నాడు</w>
శాసన సభలో</w>
గ్రా ంట్</w>
గార్డ ుల
గార్డుల ందరికీ</w>
ఇవ్వ బడ
ఇవ్వబడ ుతుందని</w>
ప్రకట ించిన</w>
సభ్య ులతో</w>
గడప డానికి</w>
ఆరోగ ్యాన్ని</w>
ఉపయోగ పడుతుంది</w>
రాజధాన ుల</w>
వస్త ుంద
వస్తుంద న్న
వస్తుందన్న ది</w>
చర్చనీయాంశ ంగా</w>
ఒ కి
ఒకి ంత</w>
లాభ మే
లాభమే నని</w>
జే ఏ
జేఏ సీ</w>
యాత్ర ను</w>
అడ్డ ుకోవడం</w>
లాభ ం</w>
చే కూర్చ
చేకూర్చ ింది</w>
వైఖ రి</w>
చర్చనీయాంశ మయింది</w>
చ లో</w>
ఆత్మ క
ఆత్మక ూరు</w>
హై ల
హైల ెట్</w>
ఆగ లేదు</w>
వె తిక
వెతిక ాను</w>
ఆశ గా</w>
బ క
బక ాయి
బకాయి లు</w>
చెల్ల ించ
చెల్లించ ాల్సి
చెల్లించాల్సి వ
చెల్లించాల్సివ ుంది</w>
నెట్ట ిక
నెట్టిక ంటి</w>
ఆంజ నేయ</w>
కొ లు
కొలు వై</w>
వ ున్నారు</w>
భక్త ులకు</w>
ఆయ నే</w>
కల్ప తరు
కల్పతరు వు</w>
వర ప్ర
వరప్ర దాత</w>
స్థ ల
స్థల పురా
స్థలపురా ణం</w>
శ్రీ కృష్ణ
శ్రీకృష్ణ దే
శ్రీకృష్ణదే వర
శ్రీకృష్ణదేవర ాయ
శ్రీకృష్ణదేవరాయ లు</w>
విజయ నగర</w>
సామ ్రా
సామ్రా జ
సామ్రాజ ్యాన్ని</w>
పాల ిస్తున్న
పాలిస్తున్న పుడు</w>
పర ంప
పరంప ర
పరంపర లో</w>
మై సూర
మైసూర ులోని</w>
శేష హ
శేషహ ల్ల
శేషహల్ల ికి</w>
ఉండే వాడు</w>
వ్యాసరాయ లు</w>
ఆంజనే య
ఆంజనేయ స్వామి</w>
భక్త ుడు</w>
ఈయ నే</w>
జన్మ లో</w>
మంత్ర ాలయ</w>
రా ఘ
రాఘ వే
రాఘవే ంద్ర
రాఘవేంద్ర స్వా
రాఘవేంద్రస్వా మి
రాఘవేంద్రస్వామి గా</w>
అవ తర
అవతర ించారని</w>
కు హ
కుహ ుల</w>
రా క్ష
రాక్ష సు
రాక్షసు ని</w>
పీడ ించబడ
పీడించబడ డం</w>
నిమిష ాలు</w>
పాల ించారు</w>
7 3
73 2</w>
ఆంజనే యు
ఆంజనేయు ని</w>
15 3
153 9</w>
ఫ ాల్
ఫాల్ గు
ఫాల్గు ణ</w>
మా స</w>
శుక ్ల</w>
నాలుగ వ</w>
ని ర్యా
నిర్యా ణం</w>
పొ డికి</w>
ఎక్స్ పై
ఎక్స్పై రీ</w>
డబ్బ ాలో</w>
ఎన్నా ళ్ళ
ఎన్నాళ్ళ ైనా</w>
పా డు</w>
అవ దు</w>
అనుకుంట ారు</w>
పాడై పోతుంది</w>
ముత క</w>
వాస న
వాసన లా</w>
పాడై పోయింద
పాడైపోయింద నే</w>
టీ కి</w>
సహజ మైన</w>
కంట ె</w>
ఏ మాత్రం</w>
తేడా గా</w>
ఫ్లే వర్లు</w>
కలి పిన</w>
టీ పొడి</w>
ఫ్లే వర్</w>
పాడై పోయిందని</w>
డబ్బ ా</w>
పా దే
పాదే య
పాదేయ డం</w>
ష ్లాష్</w>
లీక ైంది</w>
పై ర</w>
భూ తం</w>
వి ప్పింది</w>
లీక ై
లీకై పోయింది</w>
అ త్త
అత్త ారి
అత్తారి ంటికి</w>
దార ేద
దారేద ితో</w>
విక ృ
వికృ త</w>
దాల ్చిన</w>
జా డ
జాడ ్యం</w>
రైనో డుక
రైనోడుక ీ</w>
అంట ుకొ
అంటుకొ ంద</w>
కా బోతోంది</w>
హ ేను</w>
చ్ చేసింది</w>
దా ంతో</w>
ట్ట ుకొ
ట్టుకొ ంది</w>
లి ంక
లింక ుల</w>
వె ద
వెద ిక
వెదిక ి
వెదికి ప</w>
ట్ట ుకొని</w>
డి లీ
డిలీ ట్</w>
ని లో</w>
లై పోయింది</w>
చ ిలా
చిలా కా
చిలాకా కు</w>
పచ్చ </w>
క ంచి</w>
పట్టు చీర</w>
తగ్గ ట్టు</w>
రవ ిక</w>
తొ డు
తొడు క్కు
తొడుక్కు ని</w>
అమ ని
అమని లా</w>
స్వ ప్
స్వప్ న</w>
ఇండ ియా</w>
వీ రా
వీరా భి
వీరాభి మాన
వీరాభిమాన ుల
వీరాభిమానుల ున్నారు</w>
పెంచ ిన</w>
అ సమాన</w>
న ట</w>
ప్రతిభ </w>
ఉపయోగ ించి</w>
తీ స్తున్న
తీస్తున్న ానంటూ</w>
అల ీ</w>
అబ్ బా
అబ్బా స్</w>
జా ఫర్</w>
స ల్
సల్ మాన్</w>
కథ ానాయ
కథానాయ కుడిగా</w>
నట ించే</w>
ఫ్రా ంఛ
ఫ్రాంఛ ైజీ
ఫ్రాంఛైజీ లో</w>
మూవీ ని</w>
కత్ర ిన
కత్రిన తో</w>
చేస్తున్న ానని</w>
స్ఫూర్ తిగా</w>
రూపొంద ిస్తాడ
రూపొందిస్తాడ ా</w>
వ్యక్ తమ
వ్యక్తమ య్యాయి</w>
గాయాల పాల
గాయాలపాల ైన</w>
ఆస్పత్ర ికి</w>
తరలి స్తుండగా</w>
మార్గ ం
మార్గం మధ్య
మార్గంమధ్య లోనే</w>
కన్న ు</w>
మూ శాడు</w>
యువ తి</w>
ప్రభ ు</w>
మేన మామ</w>
స్ట ా</w>
ఫొటో పై</w>
క్యాప్ షన్</w>
ఆనంద పడుతోంది</w>
నిర్వాహ క
నిర్వాహక ులకు</w>
థా ం
థాం క్స్</w>
గౌర వం</w>
దక్క డం</w>
ఆనంద పడ
ఆనందపడ ుతున్నానని</w>
భాగస్వా మి
భాగస్వామి నై
భాగస్వామినై నట్లు</w>
భావి స్తున్న
భావిస్తున్న ానని</w>
నె ం</w>
ఫొటో గా</w>
ఊర్వ శ
ఊర్వశ ికి</w>
కంగ ్రా
కంగ్రా ట్స్</w>
ప్ర ౌ
ప్రౌ డ్</w>
ఫీ లవుతున్న
ఫీలవుతున్న ామని</w>
కామెంట ్లు</w>
పెడ ుతున్నారు</w>
చివర గా</w>
వర్ జి
వర్జి న్</w>
భాను ప్రియ</w>
కనిప ించిన</w>
హింద ీలో</w>
బై లింగ
బైలింగ ్వ
బైలింగ్వ ల్</w>
ఎంట్రీ కి</w>
సిద్ధమవ ుతోంది</w>
తర గ
తరగ తి</w>
గుంటూర ులోని</w>
స్ వరూప
స్వరూప నంద
స్వరూపనంద ే
స్వరూపనందే ంద్ర</w>
సర స్వ
సరస్వ తి</w>
ఫీ వర్</w>
ఆసుపత్ర ిలో</w>
సు చరి
సుచరి త</w>
నిబంధ నలకు</w>
లో బడి</w>
చేయాల న్నారు</w>
విశి ష్ట</w>
సేవ లు</w>
అంద ుతున్నాయ
అందుతున్నాయ న్నారు</w>
వే ద</w>
పాఠ శ
పాఠశ ాలలో</w>
విద్యార్థ ులు</w>
చదువ ుతూ</w>
సమా జ</w>
సే వ</w>
చేస్తున్నార న్నారు</w>
ఆశీ స్
ఆశీస్ సులు</w>
ప్రజల కుండ
ప్రజలకుండ ాలని</w>
కోర ుకున్నారు</w>
మ నీ</w>
పిల ిచ
పిలిచ ే</w>
మొక్క ను</w>
ల క్</w>
చెబ ుతు
చెబుతు ంటారు</w>
నిజ మే</w>
మొ క్క</w>
అదృష్ట ం</w>
పండ ిన
పండిన ట్టే</w>
న ంబర్</w>
ఆ కులు</w>
కొ మ్మ
కొమ్మ కు</w>
అన్న ట్లు</w>
జి మ్</w>
అవ ు
అవు ట్లు</w>
ఆశ్చర్య పో
ఆశ్చర్యపో తా
ఆశ్చర్యపోతా ం</w>
నిజ ంగా</w>
ఆ చిన్నార
ఆచిన్నార ికి</w>
లేకపోవ టం</w>
కా దే
కాదే మో</w>
చూడ ండీ</w>
చి చ్చ
చిచ్చ ర
చిచ్చర పి
చిచ్చరపి డుగు</w>
వెల గ
వెలగ పూ
వెలగపూ డిలో</w>
కొనసాగ న
కొనసాగన ున్నాయి</w>
రాజధాన ులను</w>
ప్రక టి
ప్రకటి స్తూ</w>
తీర్ మానం</w>
చెయ్య టం</w>
ఆమో దించ
ఆమోదించ టం</w>
ఉద్రిక్ త</w>
అరాచ క</w>
శక్ తులు</w>
ప్రవేశించ ాయ
ప్రవేశించాయ న్న</w>
సమాచార ంతో</w>
తార క</w>
రా మార
రామార ావు</w>
సంవత్సర ాల
సంవత్సరాల పైగా</w>
కథ ా</w>
నాయ కుని
నాయకుని గా</w>
రాణ ించాడు</w>
సి మ
సిమ ాల</w>
జాబిత ా</w>
ఇవ్వ బడింది</w>
పు రోగ
పురోగ తి</w>
వెలుగ ు</w>
పద వికి</w>
పో రుబా
పోరుబా ట</w>
నియ ంత
నియంత ృత్వ
నియంతృత్వ </w>
పాల నకు</w>
గో రీ</w>
కట్ట డమే</w>
ఎ జె
ఎజె ండా</w>
లక్ష ్య</w>
సాధ న</w>
లె ఫ్ట్</w>
నేపథ ్యం</w>
రై ట్</w>
తె ంచ
తెంచ ేస
తెంచేస ుకున్నారు</w>
అల జ
అలజ డులు</w>
ఉద్యమ ాల
ఉద్యమాల తోనే</w>
గడి చి
గడిచి పోయాయి</w>
బాట ను</w>
ఎంచ ుకున్నారు</w>
విద్యార్థ ిగా</w>
పీ డీ
పీడీ ఎస్</w>
య ూ</w>
నేత గా</w>
పె ండ్ల
పెండ్ల ి</w>
పౌ ల్ట
పౌల్ట ్ర
పౌల్ట్ర ీ</w>
వ్యాపార ంలోకి</w>
ప్రవేశ ించారు</w>
సాగ ుతున్న</w>
వ్యాపార ంలో</w>
డబ్బ ులను</w>
ఆద ుకున్నారు</w>
నమ్మ ిన</w>
బంట ుగా</w>
మార ారు</w>
చిత్ర ాలను</w>
తెరకెక్క ించారు</w>
నొ ట
నొట ొక్క</w>
జిల్ల ాలకు</w>
అంద గా
అందగా డిని</w>
డై లా
డైలా గ్</w>
పా పుల
పాపుల ర్</w>
నాగ మల్ల
నాగమల్ల ి</w>
భా గో
భాగో తం</w>
చిత్ర ాలకు</w>
వహ ించారు</w>
డ ామ
డామ ి
డామి ట్</w>
అడ్ డం</w>
తిరిగ ింది</w>
టి వి</w>
సీరియ ల్</w>
అంద ించి</w>
న ంది</w>
శ్రీ మంత
శ్రీమంత ుడు</w>
బ స్టర్</w>
అవ్వ డం</w>
వస్తుండ డం</w>
బ్రహ్ మో
బ్రహ్మో త్స
బ్రహ్మోత్స వం</w>
వల నే</w>
ఆఫ ర్స్</w>
అ స్తున్నాయి</w>
ప శ్చి
పశ్చి మ
పశ్చిమ గోదావరి</w>
జన వరి</w>
పాల కొ
పాలకొ ల్లు</w>
మార్గ మధ్యలో</w>
దిగ మర
దిగమర ్రు</w>
రో డ్
రోడ్ డు</w>
పట్టణ ానికి</w>
గౌ త
గౌత మి</w>
ని వృత్తి</w>
ఘట నపై</w>
చేసుకున్న ామని</w>
కో ణాల్లో</w>
చేస్తున్న ట్లు</w>
అదన పు</w>
ర త్
రత్ న</w>
ఏపీ వైపు</w>
ముంచ ుకొ
ముంచుకొ స్తోంది</w>
బంగాళ ా
బంగాళా ఖా
బంగాళాఖా తం</w>
పరి స
పరిస ర</w>
అల ్ప
అల్ప పీడ
అల్పపీడ నం</w>
గ డిచ
గడిచ ిన</w>
ప శ్చిమ</w>
వాయ ువ
వాయువ ్య</w>
ప్రయాణ ించి</w>
ట్రి ం
ట్రిం కో
ట్రింకో మ
ట్రింకోమ లై
ట్రింకోమలై కు</w>
7 10</w>
కన్ యా
కన్యా కుమార
కన్యాకుమార ికి</w>
కేంద్ర ీ
కేంద్రీ కృ
కేంద్రీకృ త
కేంద్రీకృత మైంది</w>
రా గల</w>
వాయ ు
వాయు గుండ
వాయుగుండ ంగా</w>
బల పడి</w>
తు ఫ
తుఫ ాన్</w>
మార ుతుందని</w>
వాతావరణ శాఖ</w>
వే స్తోంది</w>
ఎంప ీపై</w>
కోడిగుడ ్ల</w>
తె గ</w>
కా కర
కాకర కాయ
కాకరకాయ లు</w>
క డిగ
కడిగ ి</w>
పొ ట్టు</w>
తీస ేసి</w>
పొడ వ
పొడవ ుగా</w>
నిల ువు
నిలువు ముక్కలు</w>
త రుగ
తరుగ ుకోవాలి</w>
ము దిరి
ముదిరి న</w>
గు చ్చుకుంట
గుచ్చుకుంట ాయి</w>
తీ సి
తీసి వేస
తీసివేస ుకోవాలి</w>
అంజయ్య యా
అంజయ్యయా ద
అంజయ్యయాద వ్</w>
ప్రారంభ ించారు</w>
శర వేగంగా</w>
కొనసాగ ుతున్నాయి</w>
కళాకార ులను</w>
ప్రోత్సహ ిస్తుండడంతో</w>
గ్రామ ీ
గ్రామీ ణ</w>
ప్రదర్శన ల్లో</w>
పాల్గొ నే
పాల్గొనే ందుకు</w>
యో గా</w>
మూడ ్రో
మూడ్రో జ
మూడ్రోజ ుల</w>
కళాకార ులతో</w>
ప్రదర్శ నలు</w>
ప్రదర్శన లో</w>
చాట డంతో</w>
పూర్ వ</w>
కళ ను</w>
పట్ట ణ</w>
త ిలక
తిలక ించి</w>
వ్యక్త ంచ
వ్యక్తంచ ేశారు</w>
ఏర్పాట ుతో</w>
కళాకార ుల్లో</w>
ఉత్త ే
ఉత్తే జం</w>
ని ండి</w>
ప్రదర్శ నలకు</w>
సిద్ధమవ ుతున్నారు</w>
కస్టమర్ల కే</w>
వాడ ాలి</w>
2 4
24 9</w>
బ ండిల్</w>
వీ వో</w>
సేవ లను</w>
హ్యా ండ్</w>
సె ట్లకు</w>
అందు బాట
అందుబాట ులోకి</w>
తీసుకు వచ్చింది</w>
వాయి స్</w>
ఓ వర్</w>
వై ఫై</w>
సదుప ాయం</w>
కస్టమర్ల కు</w>
కాల ్</w>
బా గుంట
బాగుంట ుంది</w>
కంగ ల్</w>
అదుప ుత
అదుపుత ప్ప
అదుపుతప్ప ి</w>
అస త
అసత ాయి</w>
కాంబ ్ల
కాంబ్ల ి</w>
మహిళ పైకి</w>
మహిళ కు</w>
గాయాల య్యాయి</w>
28 1</w>
బి యా
బియా ండ్</w>
ఆత్మ కథ
ఆత్మకథ ను</w>
పు స్త
పుస్త క
పుస్తక ంలో</w>
గ్రె గ్</w>
చా ప
చాప ెల్</w>
ప్రస్త ావ
ప్రస్తావ ించారు</w>
ఆ స్ట్ర
ఆస్ట్ర ే
ఆస్ట్రే లి
ఆస్ట్రేలి యన్</w>
భాగ ాలుగా</w>
విడి పోయిందని</w>
అ ంస
అంస తృ
అంసతృ ప్తి</w>
నెలకొ ందని</w>
ఇష్ట మైన</w>
ఉండే వారు</w>
వాళ్ల నే</w>
పట్ట ించ
పట్టించ ుకునే
పట్టించుకునే వాడు</w>
నిల దొక్క
నిలదొక్క ుకున్నారు</w>
బాధ లు</w>
పడ ుతూ</w>
క ను
కను మ
కనుమ రుగ
కనుమరుగ ై
కనుమరుగై పోయారు</w>
కళ్ల ముందే</w>
ప తన
పతన మై
పతనమై ప
పతనమైప పోయింది</w>
పి న్న</w>
వయ సులో</w>
ఆడ ుతున్న</w>
కొండ ెక్క
కొండెక్క ిన</w>
ఉల్ల ి</w>
స మూ
సమూ హం</w>
సమా జా
సమాజా న్ని</w>
ఐ కమ
ఐకమ త్య
ఐకమత్య ంగా</w>
నిలి పే
నిలిపే ది</w>
ఏ ద
ఏద ైనా</w>
కా వచ్చు</w>
ప్రా ంత</w>
విశి ష్ట
విశిష్ట తను</w>
సం స్క
సంస్క తీ
సంస్కతీ సంప్రద
సంస్కతీసంప్రద ాయాలను</w>
శుభ కార
శుభకార ్యం</w>
లోక ానికి</w>
ఉత్సవ ాలు</w>
చాల నే</w>
కార్య ాలే</w>
దేశ ాన్ని</w>
ఉంచ ుతున్నాయ
ఉంచుతున్నాయ నడ
ఉంచుతున్నాయనడ ంలో</w>
ఉత్సవ ాల్లో</w>
జాగ రీ</w>
ఉత్స వం</w>
శ్రీ వారి</w>
సేవ లో</w>
తప్ప ిన</w>
పె ను
పెను ముప్పు</w>
గ జ
గజ రాజు</w>
మావ టికి</w>
లె వల్</w>
హ్యా చ్</w>
ఆల ్ట
ఆల్ట ో</w>
స్వి ఫ్ట్</w>
మ ద్య</w>
భర్ తీ</w>
కార ్ల
కార్ల ను</w>
మోడ ళ్ల</w>
ఏక ఛ
ఏకఛ త్రా
ఏకఛత్రా ధ
ఏకఛత్రాధ ిప
ఏకఛత్రాధిప త్య
ఏకఛత్రాధిపత్య ానికి</w>
టా టా</w>
టియా గో</w>
చర మగ
చరమగ ీ
చరమగీ తం</w>
పా డింది</w>
నెల లో</w>
57 0</w>
యూని ట్లు</w>
5 14</w>
యూని ట్ల</w>
సే ల్స్</w>
టా టాను</w>
అందుకో లేకపోయ
అందుకోలేకపోయ ాయి</w>
కాన ుక
కానుక గా</w>
జ క్క
జక్క న్న</w>
ట ్రీట్</w>
గు ంక
గుంక ుల్లో</w>
కడ ప</w>
ఆద ిన
ఆదిన ారాయణ</w>
కాష ాయ</w>
తీర్థ ాన్ని</w>
పు చ్చ
పుచ్చ ుకున్న</w>
చేర ిక</w>
జమ్మ మ
జమ్మమ డుగు</w>
ప్రొ ద్ద
ప్రొద్ద ుట
ప్రొద్దుట ూరు</w>
మై దుక
మైదుక ూరు</w>
నియోజక వర్
నియోజకవర్ గాపై</w>
నియోజకవర్గ ాల్లో</w>
బల పడ
బలపడ టానికి</w>
దొరిక ిన
దొరికిన ట్ట
దొరికినట్ట యి
దొరికినట్టయి ందని</w>
జే సీ</w>
చేర్చ ుకుంటే</w>
అన ంతపురం</w>
రాజకీయ ాలపై</w>
చిక్క ుతుందనే</w>
అభిప్ర ాయం</w>
అభిప్ర ాయాన్ని</w>
లక్ష్మీ నారాయణ</w>
దూర ప్రాంతాల</w>
అంద ుకుంటారు</w>
వింద ు
విందు వినోద
విందువినోద ాలు</w>
శుభ కార్య
శుభకార్య ాలలో</w>
చుర ుకు
చురుకు గా</w>
పాల్గొ ంటారు</w>
జీవిత భాగ
జీవితభాగ స్వామి</w>
సలహా పై</w>
కార్యక్రమ ాలకు</w>
శ్రీ కారం</w>
చ ుడ
చుడ తారు</w>
బ త్త
బత్త ని</w>
రా కే
రాకే ష్</w>
గౌ డ్</w>
ఫ్ల డ్</w>
లై ట్లను</w>
చొర బడుతున్న</w>
మ త్తు</w>
పదార్థ ాల</w>
అ క్రమ
అక్రమ చొర
అక్రమచొర బాట్లు</w>
సహ క
సహక రి
సహకరి స్తుందని</w>
ద ౌ
దౌ త్య</w>
బాగు ందని</w>
చెప్ప డానికి</w>
నిదర్శ న
నిదర్శన మని</w>
ఇక్క డికి</w>
మైన ార
మైనార ్ట
మైనార్ట ీ
మైనార్టీ లకు</w>
పౌరస త్వం</w>
ఇచ్చే ందుకు</w>
ప్రయత్నిస్త ామని</w>
పారిశ్రామ ిక</w>
మౌ ల
మౌల ిక</w>
సదుప ాయ
సదుపాయ ాల</w>
బా ష్ప
బాష్ప ీ
బాష్పీ భవ
బాష్పీభవ న</w>
దు స్
దుస్ సహ
దుస్సహ మైన</w>
శ ారీ
శారీ ర
శారీర క</w>
కి ష</w>
డి ంపుల్</w>
చో ప</w>
మి ళ</w>
ఎ రు
ఎరు డా</w>
ర్శ క</w>
హ ించారు</w>
తీసుకొ స్తున్నారు</w>
అను వాద</w>
ప్రాంత ాలలో</w>
అబ్ ఖ
అబ్ఖ జ
అబ్ఖజ ియా</w>
ప్రారంభ మవుతుంది</w>
మును ప
మునుప టిల
మునుపటిల ా</w>
ఇ రగ
ఇరగ దీ
ఇరగదీ స్త
ఇరగదీస్త ాం</w>
కో హ
కోహ ్లీ</w>
అఖ ిల్</w>
కీల కమైన</w>
వహించ గల
వహించగల డని</w>
నిర్ధార ణ</w>
అయ్య ే
అయ్యే కే</w>
క్లో జ్</w>
ఫ ైల్</w>
ఓ పెన్</w>
చేయ ించ
చేయించ ాను</w>
మిస్ట రీ</w>
ఛ ేద
ఛేద ించబడ
ఛేదించబడ ాలంటే</w>
మీ వా
మీవా డే</w>
తిరుగ ులే
తిరుగులే ని</w>
ఆధార ం</w>
మి ఠ
మిఠ ాయి</w>
కే కులు</w>
ఐ చ్ఛ
ఐచ్ఛ ిక</w>
తా డే
తాడే పల్లి</w>
నివా సం</w>
సి ఎం</w>
బయ లు
బయలు దే
బయలుదే ర
బయలుదేర తారు</w>
శ్ర ా
శ్రా వ్య
శ్రావ్య మైన</w>
సంగీ తాన్ని</w>
మ ంద్ర
మంద్ర స్థాయిలో</w>
వినిప ించడంతో</w>
ఆపర ేషన్ల</w>
బాధ ించలేకపోయ
బాధించలేకపోయ ిందట</w>
రోగ ిలో</w>
భ యా
భయా ందోళ
భయాందోళ నలు</w>
శ స్త్ర
శస్త్ర చికిత్
శస్త్రచికిత్ స
శస్త్రచికిత్స కు</w>
సన్న ద్ధ
సన్నద్ధ ం</w>
చేయ డ
చేయడ ంలో</w>
ప్రశంస నీ
ప్రశంసనీ య
ప్రశంసనీయ మని</w>
పరిశోధ కుల
పరిశోధకుల ంటున్నారు</w>
బ ంప
బంప ర్</w>
మెజారి టీ
మెజారిటీ తో</w>
కొ లువ
కొలువ ు
కొలువు దీ
కొలువుదీ రిన</w>
ప్రభుత్వ ంలో</w>
సమన్వ యం</w>
లో పం</w>
కనిపిస్త ోంద
కనిపిస్తోంద ంటున్నారు</w>
పరిశీల కులు</w>
మర ీ</w>
వేగవంత మైన</w>
ఒక పక్క</w>
పథ కాలు</w>
ఇంక ో</w>
విధ ాన</w>
దూసుకుపోత ున్న</w>
సమన్వ య</w>
లోప మే</w>
మార ింద
మారింద ంటున్నారు</w>
ఇ ందుకు</w>
ప్ర స్ఫ
ప్రస్ఫ ుట
ప్రస్ఫుట ంగా</w>
ఎత్తి చూపుతున్నారు</w>
అమ ిత్</w>
కాన్ వాయ
కాన్వాయ ్</w>
మహ నీ
మహనీ యు
మహనీయు డి</w>
వి గ్రహం</w>
ధ ్వ
ధ్వ ంసం</w>
ఉద్రిక్ త
ఉద్రిక్త తలు</w>
సంకల్ప యాత్ర
సంకల్పయాత్ర </w>
ముగి ంపు</w>
వైఎస్ ఆర్</w>
పాదయాత్ర కు</w>
ప్రతీ క
ప్రతీక గా</w>
ఇచ్చ ా
ఇచ్చా పురంలో</w>
పై ల
పైల ాన్</w>
విశేష ాలను</w>
వివర ించ
వివరించ ేలా</w>
గ్ర ాన
గ్రాన ైట్</w>
పల కల
పలకల పై</w>
డి జై
డిజై న్స్</w>
పొంద ు
పొందు పరిచ
పొందుపరిచ ారు</w>
కాల ్చిన</w>
ట పా
టపా సులు</w>
పక్క నే</w>
ట్రే డింగ్</w>
పడ డంతో</w>
అంద ులోని</w>
అంట ుకుని</w>
వ్యాప ించాయి</w>
వ్యవధ ిలోనే</w>
బు గ్గ
బుగ్గ ి</w>
ఆర్ పేందుకు</w>
ప్రయత్నించ ినా</w>
ఫల ితం</w>
లేకపోవ డంతో</w>
అ గ్ని
అగ్ని మా
అగ్నిమా ప
అగ్నిమాప క</w>
సిబ్బంద ికి</w>
వార ొచ్చ
వారొచ్చ ి</w>
మంట లను</w>
క ాలి</w>
బూ డి
బూడి ద
బూడిద ై
బూడిదై నట్టు</w>
ఇంద ిరా
ఇందిరా గాంధీ</w>
స్టిట ్యూట్</w>
ఎడ ్య
ఎడ్య ుక
ఎడ్యుక ేషన్</w>
స్ పో
స్పో ర్
స్పోర్ ట్స్</w>
పచ్చ ి</w>
ఉల్ల ిప
ఉల్లిప ాయ
ఉల్లిపాయ ల
ఉల్లిపాయల తోపాటు</w>
వే ర్లు</w>
చె డి
చెడి పోతాయి</w>
మూ ల
మూల ాలను</w>
క త్తి
కత్తి రించి</w>
మారు స్తూ</w>
దో స
దోస క
దోసక ాయ</w>
క్యాప్ సిక
క్యాప్సిక మ్</w>
డ్ర మ్</w>
వ ంక
వంక ాయ</w>
క ూర
కూర గాయ
కూరగాయ లను</w>
కా టన్</w>
వస్త్ర ంతో</w>
చుట్ట ండి</w>
చల్ల ుతూ</w>
క్యా ంపు</w>
ఆత్మహత్య ాయ
ఆత్మహత్యాయ త్
ఆత్మహత్యాయత్ నం</w>
జ రి
జరి పిన</w>
వి మాన</w>
దా డ
దాడ ుల్లో</w>
పాత్ర ిక
పాత్రిక ేయ
పాత్రికేయ ులపై</w>
సరా సరి</w>
బాంబ ుల</w>
కురి ప
కురిప ించింద
కురిపించింద నే</w>
విషయ ానికి</w>
సాక్ష ంగా</w>
ప్ర సార
ప్రసార </w>
మాధ్యమ ాలకు</w>
అంద ించింది</w>
చే బూ
చేబూ ని</w>
ర ాయి
రాయి టర్</w>
వార్ తా</w>
చనిపోయ ినట్లు</w>
రు జు
రుజు వైంది</w>
అంతే కాకుండా</w>
రక్ష ించేందుకు</w>
అంబ ుల
అంబుల ెన్సు
అంబులెన్సు పై</w>
పౌర ులపై</w>
బాంబ ులు</w>
ప్రా ణ</w>
హ ానికి</w>
విధ్వంస ానికి</w>
సై న్యం</w>
పాల్ప డిందని</w>
వి డియో
విడియో లు</w>
దేశ పు</w>
న్యాయ శాఖ</w>
నే ర</w>
చేపట్ట ింది</w>
ఆయ న్ని</w>
అ దు
అదు పు
అదుపు లో</w>
మహి ళ</w>
లై ంగ
లైంగ ిక</w>
అత ్యా
అత్యా చార
అత్యాచార ానికి</w>
పాల్ప డ్డ
పాల్పడ్డ ాడని</w>
20 10</w>
విచార ణలో</w>
ఆయ నపై</w>
ఇంటర్ నే
ఇంటర్నే షనల్</w>
అరె స్టు</w>
వారె ంట
వారెంట ు</w>
ప్ర త్తి</w>
మి ర
మిర ప
మిరప మి
మిరపమి ను
మిరపమిను ము</w>
శన గ</w>
బెదిరింప ుల</w>
కాల ్స్</w>
ఎక్కు వై
ఎక్కువై పోయాయి</w>
ర జ
రజ నీ
రజనీ కాంత్</w>
అ జ
అజ ిత్</w>
సూర ్య</w>
బాంబ ు</w>
బెదిరి ంపులు</w>
విజయ కాంత్</w>
ధ ను
ధను ష్</w>
గ ున్న</w>
ఏ ను
ఏను గు</w>
తెలి వికి</w>
ఖ ంగ
ఖంగ ుత
ఖంగుత ిన్న</w>
రా స్</w>
ట ే
టే లర్</w>
లె జె
లెజె ండ్</w>
మార ే
మారే పల్లిలో</w>
పూర్తవ ుతోంది</w>
అధ్యక్షు రాలిగా</w>
పద వీ</w>
పూర్త య్య
పూర్తయ్య ే</w>
ఉండ కుండా</w>
వై దొ
వైదొ ల
వైదొల గ
వైదొలగ ాలని</w>
అధ్యక్షు ని</w>
ప్రారంభ మయింది</w>
దీర్ఘ </w>
ప్రయోజన ాలను</w>
చూస ుకుని</w>
అధ్యక్షు డిని</w>
చేయాల ంటూ</w>
సీ నియ
సీనియ ర్లు</w>
లే ఖ</w>
రాయ డంతో</w>
అధ్య క్ష</w>
తార స్థాయికి</w>
చేరి న
చేరిన ట్ల
చేరినట్ల యింది</w>
ప్రి యా
ప్రియా ంక
ప్రియాంక ా</w>
ఉండ ాలనే</w>
నియమ ం</w>
ప్రకట ించ
ప్రకటించ ేశారు</w>
ప్రచార ంలోకి</w>
ఒప్ప ించి</w>
చె ట్ల</w>
పెంప కాన్ని</w>
ప్రోత్సహ ించాలి</w>
నాలుగై దే
నాలుగైదే ండ్ల</w>
ఫిక ్స్</w>
స న్న</w>
చిన్న కారు</w>
లాభ ద
లాభద ాయ
లాభదాయ కం</w>
పల్లె పట్టు</w>
రంగ రాజ
రంగరాజ పురం</w>
కు ప్ప
కుప్ప ం</w>
సముద్ర ము</w>
మండల ం
మండలం ల
మండలంల ున్నాయి</w>
హ్యా పీ
హ్యాపీ గా</w>
ఫ్రె ండ్ల
ఫ్రెండ్ల ీగా</w>
దేవ ుడు</w>
ఆమె కి</w>
ఇచ్చ ాడో</w>
కంట తడి</w>
పెట్ట డం</w>
గుండ ెల
గుండెల ్ని</w>
పిండ ే
పిండే స్తోంది</w>
కాంబినే ష</w>
ఎ ప్ప</w>
ట్ నుంచ
ట్నుంచ ో</w>
చార ంలో</w>
గు రూ</w>
అ ద</w>
య ్యాక</w>
ల ొచ్చ
లొచ్చ ాయి</w>
ధ ్య</w>
పేర్ల ూ</w>
వినిప ించాయి</w>
అ వే
అవే వీ</w>
ర ార
రార </w>
వ్వ </w>
హీరో గానే</w>
అన ౌన్స్</w>
పీ ట
పీట లె
పీటలె క్
పీటలెక్ కే
పీటలెక్కే ందుకు</w>
సిద్ధ మయ
సిద్ధమయ ్యాడు</w>
మ రెవర
మరెవర ో</w>
నై ట్</w>
రై డ
రైడ ర్స్</w>
ప్రాతి ని
ప్రాతిని ధ్యం</w>
రా ణాకు</w>
స్నేహిత ురాలు</w>
సా చ
సాచ ిన</w>
మార్వా కు</w>
నిశ్చిత ార్థ
నిశ్చితార్థ ం</w>
ముఖ్య ులు</w>
సన్నిహిత ులు</w>
స్నేహిత ుల</w>
కుటుంబ ాలకు</w>
వేడుక ను</w>
సహ చ
సహచ ర</w>
దృ వ్</w>
వేడుక కు</w>
హాజ ర
హాజర య
హాజరయ ్యాడు</w>
మ జ
మజ ిల
మజిల ీ</w>
సన్నివేశ ాలలో</w>
నట ించి</w>
దివ్యా ంశ
దివ్యాంశ </w>
కౌ శ
కౌశ ిక్</w>
వ ంబ</w>
అర్థ </w>
బి హ
బిహ ండి</w>
పంచాయిత ీలో</w>
చేస్తున్న ఓ</w>
కో ప
కోప ంతో</w>
ఇ దే
ఇదే ం</w>
ఘా ట
ఘాట ుగా</w>
రె చ్చిపోయ
రెచ్చిపోయ ాడు</w>
అ క్క</w>
ఆ గ</w>
గ్రూప ్</w>
ఫోస్ట ులోని</w>
కా స్తా</w>
గ్రూప ుల్ల
గ్రూపుల్ల ోకి</w>
వై ర</w>
పి ర్యా
పిర్యా ద
పిర్యాద ుతో</w>
రంగ ంలోకి</w>
ది గారు</w>
విచార ించారు</w>
విచార </w>
సంతృ ప్త
సంతృప్త ిక</w>
మా ధానాలు</w>
స్ట ేష
స్టేష </w>
ల ించారు</w>
అత నిని</w>
పంచాయిత ీ
పంచాయితీ రాజ్</w>
స్పె ండ్</w>
చేస్త ు</w>
ఈ య</w>
తెలిప ిన</w>
కొ ంప</w>
ముంచ ింది</w>
గ్రూప ే</w>
ఫోస్ట ులు</w>
పెట్టార ో</w>
స ో</w>
కే ర్</w>
ఫో స్టు</w>
పెట్ట ే</w>
ఆలోచ ించ
ఆలోచించ ుకుంటే</w>
స్వే ఛ
స్వేఛ ్చ
స్వేఛ్చ ను</w>
హ రి
హరి స్తున్నార
హరిస్తున్నార నేది</w>
మరికొ ంత
మరికొంత మంది</w>
వాద న</w>
యుద్ధ </w>
లీ క్</w>
అవుత ుండగా</w>
చేస ారా</w>
లా ంగ్</w>
మార్చ ్</w>
మ ండి</w>
న డి
నడి బొ
నడిబొ డ్
నడిబొడ్ డు
నడిబొడ్డు న</w>
నిల బడి</w>
మాట్లాడ ానని</w>
ధై ర
ధైర ్యం</w>
అ ర్ర
అర్ర ులు</w>
చా చ
చాచ ే</w>
వా డిని</w>
దత్త ప
దత్తప ుత
దత్తపుత ్రుడు</w>
ఇ స
ఇస ుక</w>
ఆగి పోత
ఆగిపోత ోందని</w>
ఆత్మహత్య లు</w>
కలి చి</w>
వే సాయ
వేసాయ ని</w>
చేస ారు</w>
అద్ బ
అద్బ ుత</w>
అంద ిస్తే</w>
చేసుకుంట ానని</w>
నేత లతో</w>
తిట్ట ించుకోవటం</w>
సర దా</w>
తెలియ దని</w>
కావ ాలంటే</w>
ప్రజ ారా
ప్రజారా జ
ప్రజారాజ ్యం</w>
అన కా
అనకా పల్లి</w>
ఎంప ీగా</w>
చేసే వాడి
చేసేవాడి నని</w>
ఎమ్మెల్యే ల</w>
వీర ంతా</w>
ఓ డ
ఓడ ించినట్లు</w>
మెగా బ్ర
మెగాబ్ర ద
మెగాబ్రద ర్</w>
నాగ బాబు</w>
తీ కారం</w>
తీర్చ ుకోవ
తీర్చుకోవ ాల</w>
గిల ిపోత
గిలిపోత ోందని</w>
ర్ గ
ర్గ ాలు</w>
అధికార ాన్ని</w>
నిల ుప
నిలుప ుకునేందుకు</w>
కాప ులను</w>
అణ గ
అణగ దొక్క
అణగదొక్క ుతున్నారని</w>
తామ ంతా</w>
బు ద్ద
బుద్ద ికి</w>
చెప్ప ాలని</w>
ఉండ టంతో</w>
ఆ పార్టీలో</w>
మ దిత
మదిత ్</w>
దండ వత్</w>
నిషేధ ిత</w>
అట వి</w>
ప్రవేశించ ాడని</w>
చే తిని</w>
మొ స
మొస లి</w>
కొ రికి</w>
తి నే
తినే సి
తినేసి ందని</w>
అంద ిందని</w>
స్వయ ం
స్వయం ప్రే
స్వయంప్రే రి
స్వయంప్రేరి తంగా</w>
రామ నగర</w>
ఒకర ి</w>
ఒకర ికి</w>
వ్యాప ిస్తుండడంతో</w>
డ ెలి
డెలి వర
డెలివర ీపై</w>
నిషే ధం</w>
విధ ించారు</w>
మును పె
మునుపె న్న
మునుపెన్న డ
మునుపెన్నడ ూ</w>
సంఘ మిత్ర</w>
రూపొంద ించాలని</w>
సంకల్ప ించారు</w>
కే న్స్</w>
ఫిల ి
ఫిలి ం</w>
ఫె సి
ఫెసి వల్</w>
ఆవిష్కర ణను</w>
అంగ రంగ
అంగరంగ </w>
వై భవ
వైభవ ంగా</w>
స వ్య
సవ్య ంగా</w>
అనుకుంట ున్న</w>
శ ృ
శృ తి
శృతి హా
శృతిహా సన్</w>
తప్ప ుకోవడంతో</w>
ప్రాజెక్ టు</w>
సంద ి
సంది గ్
సందిగ్ ద
సందిగ్ద ంలో</w>
పడి పోయింది</w>
ఉద్య మ</w>
టి ఆర్ఎస్</w>
వచ్చ ినప్పుడు</w>
ఉండే వని</w>
ఐ టి
ఐటి పుర
ఐటిపుర పాల
ఐటిపురపాల క</w>
బే గ
బేగ ంపేట</w>
మ్య ారి
మ్యారి గో
మ్యారిగో ల్డ్</w>
హో టల్</w>
అ గర్వ
అగర్వ ాల్</w>
మహ ేశ్వ
మహేశ్వ రి</w>
మార్వా డి</w>
గుజరా తీ</w>
కమ ్యూ
కమ్యూ ని
కమ్యూని టీ</w>
వ్యాపార ుల</w>
వై బ్ర
వైబ్ర ంట్</w>
ఆ రే
ఆరే ళ్ల</w>
వ్యాపార ులకు</w>
ఉండే వ
ఉండేవ న్నారు</w>
కి ర
కిర ణ్</w>
కో తలకు</w>
పారిశ్రామ క
పారిశ్రామక వేత్తలు</w>
ధర్ నాలు</w>
ఆ రు</w>
పరిష్కరించ ామని</w>
అభివృద్ధ ికి</w>
సూ చిక
సూచిక న్నారు</w>
తల సరి</w>
వినియోగ ంలో</w>
దేశ ంలోనే</w>
ముంద ుందని</w>
హ ర్ష
హర్ష ం</w>
స స్పె
సస్పె న్స్</w>
క్ర ై
క్రై మ్</w>
థ ్ర
థ్ర ిల్ల
థ్రిల్ల ర్</w>
పీ పుల
పీపుల ్స్</w>
ఫ్యా క్ట
ఫ్యాక్ట రీ</w>
హ ే
హే మంత
హేమంత ్</w>
మధ ుక
మధుక ర్</w>
టీ జర్</w>
ప్రవేశ ించి</w>
సక్ సె
సక్సె స్ఫ
సక్సెస్ఫ ుల్</w>
ఏ ళ్ళు</w>
అవ ుతున్న</w>
నిర్వహించ నుంది</w>
త ాలూ
తాలూ కు</w>
ఎవ రెవర
ఎవరెవర ు</w>
అతిథ ులు</w>
వ స్తున్నారు</w>
రాన ుంది</w>
మంచి వి</w>
క దాని</w>
తిన కూడదు</w>
పది గింజలు</w>
జీ ర్
జీర్ ణం</w>
కా వు</w>
వేయ ించి</w>
గో పాల్</w>
వ్యాఖ్య లే</w>
అధ ి
అధి నేత</w>
ట్వి ట్</w>
పోత ుల
పోతుల ూరి</w>
వీర బ్రహ్
వీరబ్రహ్ మ
వీరబ్రహ్మ ం</w>
రాన ున్న</w>
కళ ్యా</w>
� </w>
కృష్ణ వంశీ</w>
నట ించడం</w>
వినిప ిస్తోంది</w>
రూపొంద ుతుందని</w>
బ ండ్ల</w>
గణ ేష్</w>
ప్రకట ించాడు</w>
త దుప
తదుప రి</w>
ఇంటర్వ్యూ ల్లో</w>
ఫై నల్</w>
స్టో రీ</w>
వి న్న</w>
క్యారె క్టర్</w>
శా టిస్</w>
నట ించ
నటించ నని</w>
అక్క ా</w>
రచ్చ బండ</w>
ఒక ాయ
ఒకాయ న్ని</w>
పడ ుకో
పడుకో బెట్టారు</w>
ఇంకా సేప
ఇంకాసేప ట్లో</w>
చ చ్చిపోయ
చచ్చిపోయ ే
చచ్చిపోయే ట్ట
చచ్చిపోయేట్ట ున్నాడు</w>
కల వరి
కలవరి స్తున్నాడు</w>
చంద్ర శేఖ
చంద్రశేఖ ర
చంద్రశేఖర రా
చంద్రశేఖరరా వు
చంద్రశేఖరరావు గారి</w>
బంధ ువ
బంధువ ని</w>
సమాజ ానికి</w>
నిల వ
నిలవ ాల్సిన</w>
సమయ మిదని</w>
చే తన
చేతన ైన</w>
పే ద
పేద లకు</w>
చేయూ త</w>
అందించ ాల్సిన</w>
తరుణ మిదని</w>
పిన్న మ
పిన్నమ నేని</w>
ఎ ప్పుడూ</w>
చొ రవ
చొరవ తో</w>
చెబ ుతున్న</w>
పాక శాస్త్ర
పాకశాస్త్ర </w>
విశ్వవిద్యాలయ ానికి</w>
వర్సి టీని</w>
తిరు ప
తిరుప తిలో</w>
ఆమో దం</w>
విశ్వవిద్యాలయ ంలో</w>
వ ంట
వంట కాల</w>
బోధ న</w>
ఢిల్లీ తోపాటు</w>
దేశ ంలోని</w>
నగర ాల్లో</w>
వర్సి టీ</w>
శాఖ లు
శాఖలు ంటాయి</w>
బయట ప
బయటప డ్డ</w>
ని త్య</w>
పెళ్లిక ొ
పెళ్లికొ డ
పెళ్లికొడ ుకు</w>
ఈ మె
ఈమె </w>
డ్రీ మ్
డ్రీమ్ స్</w>
అంద రిని</w>
ఆశ్చర్య ప
ఆశ్చర్యప ర్చ
ఆశ్చర్యపర్చ ింది</w>
సహజ ంగా</w>
విలాస ాలకు</w>
ఉండాలన ుకునే</w>
లా విష
లావిష ్</w>
కో రికను</w>
ఉంద ట</w>
ల ండ
లండ న్</w>
ఖరీ దైన</w>
భ ట్</w>
డ్రీ మ్</w>
పర్వ త
పర్వత ాల</w>
మ ద్య
మద్య లో</w>
ప్రశాంత మైన</w>
ఉండాలన ుకుంటున్న
ఉండాలనుకుంటున్న ట్లుగా</w>
విష ం</w>
చి మ్మ
చిమ్మ ుతున్న</w>
ఒ కే
ఒకే సారి</w>
అ కౌంట
అకౌంట ్లు</w>
స ప్ప
సప్ప ె
సప్పె ండ్</w>
ఉద్యమ కార
ఉద్యమకార ులపై</w>
వే స్తూ</w>
ట్వీ ట్స్</w>
చైనా పై</w>
కొర డా</w>
ఝ ళ
ఝళ ిప
ఝళిప ించింది</w>
నే ర
నేర స్త
నేరస్త ులను</w>
తరల ించే</w>
చట్ట ానికి</w>
ఉద్య మి
ఉద్యమి స్తున్నారు</w>
ఆందోళన కార
ఆందోళనకార ులకు</w>
తీవ్ర మైన</w>
ఘ ర్ష
ఘర్ష ణలు</w>
చేసుకుంట ున్నాయి</w>
వాస ులకు</w>
ప్రపంచ వ్యాప్తంగా</w>
తెలు ప
తెలుప ుతుంటే</w>
ముద్ర వే
ముద్రవే స్తున్నారు</w>
ప్ర తీ</w>
చెల్లిస్తార ో</w>
సమ ాన
సమాన ంగా</w>
జ మ</w>
ప్రతీ కా
ప్రతీకా త్మక</w>
వ కీ
వకీ ల్</w>
సా బ్</w>
చా ప</w>
పద్ మాస
పద్మాస నం</w>
వేస ుకుని</w>
కూర్ చో
కూర్చో ండి</w>
జయ ించ
జయించ చ్చు</w>
నిబంధన ల్లో</w>
చేయ వద్దని</w>
ఎక్క డా</w>
స్ పిన్న
స్పిన్న ర్</w>
చేస ుకోవచ్చు</w>
ఏ రియ
ఏరియ ాలో</w>
పరుగ ె
పరుగె త్త
పరుగెత్త కూడదు</w>
అ ం
అం పై
అంపై ర్</w>
వ్యూ ను</w>
డి స్ట
డిస్ట ర్బ్</w>
చేయ డమే</w>
న ాన్</w>
స్ట్రై కర్</w>
త లె
తలె త్తింది</w>
వాద ో
వాదో ప
వాదోప వాద
వాదోపవాద నల</w>
వెన క్క
వెనక్క ుత
వెనక్కుత గ్గ
వెనక్కుతగ్గ ాడు</w>
శ ై
శై ల
శైల ిలోనే</w>
బౌ లింగ్</w>
రాహ ుల్</w>
ద్ర విడ్</w>
రి ఫ
రిఫ రీ</w>
జ వ
జవ గ
జవగ ళ
జవగళ ్</w>
శ్రీ నాథ్</w>
చర్చ ించడం</w>
కెమెర ాల్లో</w>
నిర్వహ ిస్తే</w>
మనమ ూ</w>
నిర్వహించ వచ్చు</w>
నిర్వహించ ాలంటే</w>
ఒక దారి</w>
ఉ లి
ఉలి ప
ఉలిప ిక
ఉలిపిక ట్ట
ఉలిపికట్ట ె</w>
దొ క
దొక దారి</w>
అన్న ట్టుగా</w>
ఇన్నే ండ
ఇన్నేండ ్లు</w>
జర్ ప
జర్ప ుకున్న</w>
పుట్టిన రోజులు</w>
చేతి గా
చేతిగా జుల
చేతిగాజుల మ్మ
చేతిగాజులమ్మ ుకోవ
చేతిగాజులమ్ముకోవ ాల్సి</w>
నిర్మ ల
నిర్మల మ్మ</w>
మా ండ
మాండ రి
మాండరి న్</w>
న ారి
నారి ంజ
నారింజ </w>
కే క్</w>
మాధ వి
మాధవి లు</w>
రిజి స్టర్</w>
మ్య ార
మ్యార ే
మ్యారే జీ</w>
చేసుకొ న్నారు</w>
కౌ న్
కౌన్ సి
కౌన్సి లింగ్</w>
మనో హార
మనోహార ాచ
మనోహారాచ ారి</w>
తెచ్చ ినా</w>
కూడ </w>
మాధ వి</w>
తల్ల ి
తల్లి దండ
తల్లిదండ ్ర
తల్లిదండ్ర ులతో</w>
వెళ్ల ేందుకు</w>
ఇష్ట పడలేదు</w>
లక్షద్వీప ములకు</w>
చేర ుకుని</w>
జ ండ
జండ ాను</w>
లక్షద్వీప ములో</w>
ద్వీ పాల</w>
అధీ నాన్ని</w>
ధ్రువ పరి
ధ్రువపరి చి</w>
చర్య లకు</w>
అడ్డ ుక
అడ్డుక ట్ట</w>
వేస ారు</w>
ప ద్యం</w>
క వి
కవి తా
కవితా సాహిత
కవితాసాహిత ్య
కవితాసాహిత్య ానికి</w>
అను వై
అనువై న
అనువైన భా
అనువైనభా ష
అనువైనభాష గా</w>
ఉ ర్
ఉర్ దూ
ఉర్దూ కు</w>
పేరుగ ల
పేరుగల దు</w>
ఏ పీకి</w>
ప్యా కే
ప్యాకే జీ
ప్యాకేజీ లకు</w>
ఖర ార
ఖరార ైంది</w>
న రేంద్ర</w>
మో దీ
మోదీ తో</w>
భ ే
భే టీ</w>
కాన ున్నారు</w>
ని వాసానికి</w>
చేర ుకోవాలని</w>
అంద ింది</w>
సమ యాన్ని</w>
పీ ఎం
పీఎం ఓ</w>
ఢిల్లీ లోని</w>
అధికార ులకు</w>
పంప ింది</w>
సుదీర్ఘ ంగా</w>
ఇబ్బంద ులను</w>
ఏక రువు</w>
హామీ ని</w>
ర్ కార్</w>
తెలంగా ణా</w>
ఏర్పాట ుకు</w>
నాయ </w>
కుని గానే</w>
స్ ప</w>
ష్ట ంగా</w>
విభ </w>
ధా న</w>
ర్శ ి</w>
రాజీ వ్</w>
నేతృత్వ ంలో</w>
విధ ివిధ
విధివిధ ాన
విధివిధాన ాల</w>
ర ారు</w>
త్య ే
త్యే క</w>
మి టీని</w>
పు నర్
పునర్ విభ
పునర్విభ జ
పునర్విభజ ించి</w>
చేయాల నే</w>
ఆలోచ </w>
సీ యం</w>
టు న</w>
3 5</w>
రి పాల</w>
సౌ ల</w>
భ ్యం</w>
జనాభా కే</w>
సి ద్ద</w>
పడ ుకునే</w>
మళ్ళ ుతుంది</w>
మె ద
మెద డుకి</w>
ఆలోచ ించడానికి</w>
శ్ర మ</w>
పట్ట దు</w>
అందువల్ల </w>
తొందర గా</w>
ఉప క్రమ
ఉపక్రమ ించ
ఉపక్రమించ వచ్చు</w>
మాట లకు</w>
రు జ
రుజ ువ
రుజువ న్న
రుజువన్న ట్లుగా</w>
రాయలసీ మ
రాయలసీమ కు</w>
కొంద రిన
కొందరిన ైనా</w>
మరో లా</w>
విధ్వ ం
విధ్వం స</w>
కా ండ
కాండ కు</w>
నిందిత ులంతా</w>
తూర్ పు
తూర్పు గోదావరి</w>
కావ ట
కావట ంపై</w>
వర్గ ాలు</w>
వైఎస్ సార్</w>
నేత ల</w>
మాట ల్
మాటల్ నే</w>
తీస ుకుంటే</w>
విధ్వంస ంలో</w>
రాయలసీ మ</w>
బాధ్య ుల
బాధ్యుల ంటూ</w>
పలువు రిని</w>
ఏమి ట
ఏమిట ంటూ</w>
ప్రశ్ న
ప్రశ్న ంచ
ప్రశ్నంచ ట
ప్రశ్నంచట మే</w>
నిదర్శ నం</w>
ఎ పి
ఎపి సో
ఎపిసో డ్</w>
తప్ప ులు</w>
వ్యవహార ంలోనూ</w>
విమర్శ ల</w>
పాల వ
పాలవ ుతున్నారని</w>
చెప్ప ొచ్చు</w>
ప ంట
పంట లు</w>
సర ుకులు</w>
అందించ క</w>
మంత్ర ికి</w>
పట్ట డం</w>
z </w>
M </w>
సమీ క్షలు</w>
బహు ముఖ</w>
మో స్త
మోస్త రుగా</w>
నిర్వహి స్తున్న
నిర్వహిస్తున్న ప్పుడు</w>
సహ ే
సహే తుక
సహేతుక మైన</w>
మో టార్
మోటార్ సై
మోటార్సై క
మోటార్సైక ిల్</w>
డ్రె ౖ
డ్రై వర్లు</w>
సరస మైన</w>
సమ ానం</w>
రై డర్</w>
వా ంఛ
వాంఛ నీ
వాంఛనీ య</w>
అందించ డమే</w>
ఒక్క రూ</w>
కోర ుకుంట
కోరుకుంట ాను</w>
అధ ిక</w>
వే గం</w>
సై కి
సైకి ళ్ళు</w>
శ్ర ద్ధ
శ్రద్ధ </w>
వహ ించడానికి</w>
పథ కాల</w>
లో టును</w>
రాష్ట్రప్రభుత్వ ాలు</w>
స్టా ంపు</w>
పెంచ ుకుంట
పెంచుకుంట ున్నాయి</w>
ఎ స్టే
ఎస్టే ట్</w>
వస్త ు
వస్తు సేవా</w>
తెలంగాణ తో</w>
దక్షి ణా
దక్షిణా ది
దక్షిణాది రాష్ట్రాలు</w>
మహ ారా
మహారా ష్ట
మహారాష్ట ్ర
మహారాష్ట్ర </w>
వ్యతిరే కి
వ్యతిరేకి స్తున్నాయి</w>
తేదీ న</w>
అస్ సా
అస్సా ం</w>
గౌ హ
గౌహ తిలో</w>
సూచ న</w>
ప్ర ాయ
ప్రాయ ంగా</w>
చర్చ ించనున్న
చర్చించనున్న ట్లు</w>
రాష్ట్ర ప్రభుత్వానికి</w>
పన్న ుల</w>
నివేదిక ను</w>
కార్యదర్శ ికి</w>
ఇచ్చ ినట్లు</w>
స్టా ంపులు</w>
రిజిస్ట్ర ేషన్ల</w>
వా టా</w>
లో టు</w>
ఏర్ పడుతుందని</w>
కార్యక్రమ ాలపై</w>
ప్రభావ ంప
ప్రభావంప డుతుందని</w>
మి గులు</w>
రాష్ట్ర ాల</w>
జాబిత ాలో</w>
పథ కాలను</w>
అంద ిస్తోంది</w>
వినియోగ ించే</w>
ఇథ నాల
ఇథనాల ్</w>
క సర
కసర త్తు</w>
ఉత్పత్త ులపై</w>
రాష్ట్రప్రభుత్వ ాలే</w>
తెచ్చ ి</w>
రే ట్లను</w>
తగ్గించ ాలనే</w>
ప్రతిపాద న</w>
ఉప ందుకుంది</w>
నిజ మై
నిజమై త
నిజమైత ై</w>
ఎక్ సై
ఎక్సై జ్</w>
లీ టర్</w>
తగ్గ ిస్తుంది</w>
తగ్గ ించాలని</w>
కోర ుతోంది</w>
వనర ులు</w>
ప్రతిపాద న
ప్రతిపాదన లపై</w>
ని వేదిక</w>
ఉన్నతాధికార ులను</w>
1 64</w>
7 14</w>
50 5</w>
3 64</w>
3 50</w>
2 45</w>
57 4
574 2
5742 6
57426 6</w>
క రా
కరా ళ</w>
న ృ
నృ త్యం</w>
రాష్ట్ర వ్యాప్తంగా</w>
విజృంభ ిస్తున్న</w>
ప్రక ంప
ప్రకంప నలు</w>
రే ప
రేప ుతోంది</w>
బ్ర ేక్</w>
టెస్ట ులు</w>
నిర్వహ ిస్త
నిర్వహిస్త ుండగా</w>
విజయ వాడ
విజయవాడ లోనూ</w>
పంజ ా</w>
వి సుర
విసుర ుతోంది</w>
చై నాల
చైనాల ోని</w>
వ ూ
వూ హాన్</w>
పు ట్టి</w>
అ ల్ల
అల్ల కల్ల
అల్లకల్ల లో
అల్లకల్లలో లం</w>
చేస్తున్న సంగతి</w>
విశ్వ వ్యాప్తంగా</w>
వ్యాప ించింది</w>
దెబ్బ కు</w>
అ గ్ర
అగ్ర రాజ
అగ్రరాజ ్యం</w>
అమెరిక ా
అమెరికా తో</w>
కోర ల్లో</w>
బిక ిన
బికిన ీలు</w>
అమ్మ ుకో
అమ్ముకో నున్న</w>
య ామ
యామ ీ</w>
సిద్ద న
సిద్దన కి
సిద్దనకి చ్చాయ
సిద్దనకిచ్చాయ పల్లెలో</w>
2 5
25 8</w>
జరుగ ుతున్నాయని</w>
ప ియ
పియ ూ
పియూ ష్</w>
గో య
గోయ ల్</w>
సిద్ద ిరా
సిద్దిరా ం</w>
ప్రభ ు
ప్రభు ప్రసాద్</w>
ఈ నాడు</w>
త ట
తట స్థ
తటస్థ </w>
శ ై
శై లి</w>
బిల్ల ును</w>
వ్యతిరేక ిస్త
వ్యతిరేకిస్త ాం</w>
అసెంబ్ల ీ
అసెంబ్లీ ని</w>
ము ట్ట
ముట్ట డిస్త
ముట్టడిస్త ాం</w>
ష రీ
షరీ ఫ్</w>
ఒప్ప ుకున్న
ఒప్పుకున్న ారని</w>
సాధించ ాలంటే</w>
వై సి
వైసి ప
వైసిప ికి</w>
సులు వైన</w>
ఊ </w>
ఎమ్మెల్ సీ
ఎమ్మెల్సీ లు</w>
వై స్
వైస్ స
వైస్స ార్
వైస్సార్ సీ
వైస్సార్సీ పీలోకి</w>
క్య ూ</w>
కడ త
కడత ారని</w>
వి దానం</w>
కాద న్నారు</w>
కు ళ
కుళ ాయి
కుళాయి ల</w>
రక్ష ిత</w>
మంచ ినీ
మంచినీ టి</w>
జరుగ ుతోంది</w>
బా వుల</w>
చేతి పంప
చేతిపంప ుల</w>
కాల ువ
కాలువ </w>
వా గు</w>
చె రువు</w>
తా గు
తాగు నీరు</w>
విక్రయ ించ
విక్రయించ ాలంటే</w>
తీసుకోవ ాల్సి</w>
అమ్మ ిన</w>
లా ట్</w>
దళ ారులు</w>
అనుమ తులు</w>
మి ర్చ
మిర్చ ిన
మిర్చిన ారు</w>
విక్రయ ిస్తూ</w>
నాట ితే</w>
ఉండ దని</w>
మి ర్
మిర్ చిత
మిర్చిత ో
మిర్చితో టలు</w>
కాయ కుంటే</w>
గి రి
గిరి జన</w>
దుకా ణా
దుకాణా దారులు</w>
కొంత మేర</w>
నష్ట </w>
పరిహార ం</w>
చెల్ల ించి</w>
దుల ుప
దులుప ుకున్నారు</w>
తో టలు</w>
కాయ కపోతే</w>
ఎవరి నీ</w>
అడి గే</w>
అవకాశ మే</w>
నష్ట పోవ
నష్టపోవ ాల్సి</w>
వస్త ుందని</w>
తు ది</w>
డ్ర గ్</w>
అడ్మి ని
అడ్మిని స్ట్ర
అడ్మినిస్ట్ర ేషన్</w>
య ూర
యూర ప్</w>
అడిగ ింది</w>
మాస్ క్</w>
ధ రించ
ధరించ ాలి</w>
చూడ వద్దు</w>
అంట ు</w>
నిపుణ ుడు</w>
ఆం థ
ఆంథ ో
ఆంథో నీ</w>
ఫ ౌ
ఫౌ సీ</w>
సమర్ ధ
సమర్ధ వంత
సమర్ధవంత ంగా</w>
సంక్రా ంతి</w>
మెగా స్టార్</w>
ఖై దీ</w>
న ంబ</w>
విస్ మ
విస్మ య</w>
డీ ఎస్పీ</w>
బాల ా
బాలా జీ</w>
క ంది</w>
చ ౌర
చౌర స్త
చౌరస్త ాలో</w>
ని ఘ
నిఘ ా</w>
పెట్టార న్నారు</w>
జ హీ
జహీ రాబాద్</w>
ల ారీ
లారీ ని</w>
ఆ పి</w>
చేశ ార
చేశార న్నారు</w>
ఇ ను
ఇను ప</w>
స్క్ర ా
స్క్రా ప్</w>
ప్లా స్టిక్</w>
సంచ ుల్లో</w>
ఎ ండ
ఎండ ు</w>
గ ంజ
గంజ ాయి</w>
ప్యా కె
ప్యాకె ట్ల</w>
సంచ ులు</w>
గుర్త ించారని</w>
డ ించింది</w>
క ై
కై వ</w>
చేసుకుంట ుంద</w>
అభిప్ర ాయ</w>
అత ్య</w>
గెలుచ ుకున్న</w>
పో ల్చ
పోల్చ ుకుంటే</w>
కోల్పో తు
కోల్పోతు ంద</w>
అంచ </w>
సాధ ిస్త
సాధిస్త ుంద</w>
మొ జా
మొజా ంబ
మొజాంబ ిక్</w>
వర ద
వరద లు</w>
వ సంత</w>
ఋ త
ఋత ువ
ఋతువ ులో</w>
తీవ్ర వాద</w>
సంఘ ాలు</w>
రాజ ీ</w>
ప్రయత్ ని
ప్రయత్ని స్తున్నారు</w>
తిరుగు బా
తిరుగుబా టు</w>
తిరుగుబాటు దారులు</w>
నియంత్ర ణను</w>
కోల్పోయ ింది</w>
ఒప్ప ుకున్నాడు</w>
చర్చ లు</w>
నట న</w>
U </w>
దళ ాలు</w>
నిరోధ ించింది</w>
హా స్పి
హాస్పి ట
హాస్పిట ల్స్</w>
సం యు
సంయు క్త</w>
ఎ ండీ</w>
సంగీ తా</w>
సర్వే ల
సర్వేల న్ని</w>
గెలు పు</w>
జో స్యం</w>
ఎంప ీ</w>
స్ ధాన
స్ధాన ాలను</w>
గెలుచ ుకుని</w>
వెల్ల డిస్త
వెల్లడిస్త ుండటంతో</w>
జ ోర
జోర ందుకుంది</w>
వి చిత్రం</w>
అ న్</w>
టె ంప
టెంప ్ట్</w>
హింద ువ
హిందువ ా</w>
ము స్లి
ముస్లి మా</w>
చూడ ం</w>
అల హా
అలహా బాద్</w>
హై కోర్టు</w>
విపక్ష నేత</w>
య నమ
యనమ ల</w>
రామకృష్ణ ుడు</w>
దండ ుగా</w>
వ్యవస్థ గా</w>
సలహా దార
సలహాదార ులను</w>
పద ుల</w>
సంఖ్య లో</w>
నియమ ించ
నియమించ ుకుపోత
నియమించుకుపోత ున్నారని</w>
భార ం</w>
ఒ రిగ
ఒరిగ ింద
ఒరిగింద ేమి</w>
అస లే</w>
భార ంగా</w>
పై సా</w>
విస్మర ించి</w>
వృ ధా</w>
ఖర్చ ులకు</w>
ఏ మని</w>
అధీ నం</w>
అక్క డి
అక్కడి నుంచి</w>
బల గ
బలగ ాలను</w>
బై డెన్</w>
పెంచ ాల్సి
పెంచాల్సి వస్తే</w>
కంట ి
కంటి ంజ
కంటింజ ెన్
కంటింజెన్ సీ</w>
తా త్
తాత్ కాల
తాత్కాల ిక</w>
సిద్ధ ం</w>
బౌ డెన్</w>
బృ ందాన్ని</w>
ఆదేశ ించారని</w>
కాబ ూ
కాబూ ల్</w>
తాలిబ న్ల
తాలిబన్ల నుంచి</w>
ఎదురవ ుతున్న</w>
భద్ర తా
భద్రతా పర
భద్రతాపర మైన</w>
హెచ్చ రిక
హెచ్చరిక లు</w>
మ ంగ
మంగ ళ
మంగళ వారం</w>
అమెరిక న్
అమెరికన్ లతో</w>
పాట ుగా</w>
తరల ించని</w>
విధ ించ
విధించ ుకున్న</w>
పొ డిగ
పొడిగ ించడానికి</w>
అంగ ీ
అంగీ కర
అంగీకర ించే</w>
బే రీ
బేరీ జు</w>
వేస ుకున్న</w>
ఖాళ ీ</w>
చేయ ించే</w>
వేగవంత ం</w>
రంగ ారా
రంగారా వ్</w>
గార ూ</w>
ఖ ర్మ
ఖర్మ ంటున్నారు</w>
పక్క నున్న</w>
రూ ంలో</w>
పాఠ ం</w>
చెప్త ున్న
చెప్తున్న ా</w>
శర భయ
శరభయ ్య</w>
మే స్ట
మేస్ట ారు</w>
రంగ ారావు</w>
అడిగ ాడు</w>
నియంత్ర ణ</w>
చుక్క ె
చుక్కె దు
చుక్కెదు రైంది</w>
చా ంప
చాంప ియ
చాంపియ న్స్</w>
ట్రో ఫీ
ట్రోఫీ కి</w>
జట్ట ును</w>
ప్రకట ించాలని</w>
పాల నా
పాలనా ధికార
పాలనాధికార ుల</w>
సి ఒ
సిఒ ఎ</w>
ఐ సి
ఐసి సి</w>
వా టాను</w>
ప్రయత్న ాలను</w>
అడ్డ ుకుంట
అడ్డుకుంట ున్న</w>
ప్రతి ష్ఠ
ప్రతిష్ఠ ాత్మ
ప్రతిష్ఠాత్మ కంగా</w>
యా దా
యాదా ద్రి</w>
ప్రాజెక్ టు
ప్రాజెక్టు పై</w>
అ ద్య
అద్య క్షుడు</w>
డా ః</w>
వంశ ీ
వంశీ కృష్ణ</w>
రాన ా</w>
చిత్ర ంగా</w>
తెరకెక్క ుతున్న
తెరకెక్కుతున్న టువంటి</w>
భీ మ
భీమ ్ల
భీమ్ల ా</w>
నటి స్తున్నారు</w>
మహ మ్మ
మహమ్మ ద్</w>
ఉగ్ర వాద</w>
స్థ ా
స్థా వర
స్థావర ాలతో</w>
క మాండ్</w>
కంట ్రో
కంట్రో ల్</w>
రూ మ్</w>
నామ </w>
రూప ాల్ల
రూపాల్ల ే
రూపాల్లే కుండా</w>
నా శన
నాశన మైంది</w>
హ త
హత మైన
హతమైన ట్లు</w>
విప త్
విపత్ కర</w>
పరిస్థిత ులలో</w>
కోట పై</w>
శత్ర ువులు</w>
ఎదుర్కో లేని</w>
దా పు
దాపు రించ
దాపురించ ిన
దాపురించిన పుడు</w>
తప్పించ ుకోవడానికి</w>
కోట లో</w>
రహస్ య</w>
మార్గ ాలు</w>
నిర్మ ించినట్లు</w>
ఘన పు
ఘనపు ర్</w>
గ్రామ ంలోని</w>
చే ద
చేద ుడు</w>
బా వికి</w>
చేర ుకుంటుందని</w>
గ ల్</w>
నిర్మ ించ
నిర్మించ బ
నిర్మించబ డిందని</w>
ట్రాక్ట రు</w>
పోత ోంది</w>
మురళ ీ</w>
మోహ న
మోహన రావు</w>
నమూ నా
నమూనా తో</w>
తో లు</w>
అద్భుత మైన</w>
కో శా
కోశా గార
కోశాగార ము</w>
చేయ బడుతుంది</w>
పదార్థ ం</w>
వాల ెట్</w>
ఉంట ారని</w>
ముఖ చిత్రం</w>
కావ ాలన
కావాలన ుకుంటే</w>
వ్యాఖ్య లను</w>
సమర్థ ించ
సమర్థించ లేదని</w>
స్పష్ట ీ
స్పష్టీ కరణ</w>
క్యారె ట్లు</w>
చ ిలక
చిలక డ</w>
బంగాళ దుంపలు</w>
బెల్ల ం</w>
తే నే</w>
కొ బ్బ
కొబ్బ రి</w>
వెల్ల ుల్ల
వెల్లుల్ల ి</w>
ఉప్ప టి</w>
అసి డ
అసిడ ిక్</w>
సు బ్
సుబ్ స్ట
సుబ్స్ట ెన్సు
సుబ్స్టెన్సు స్</w>
అస్ స
అస్స లు</w>
తీసుకో కూడదు</w>
పాండ ్యా</w>
నే ర్చ
నేర్చ ు</w>
కో వాలని</w>
పరిస్థిత ులకు</w>
తాగ ుతూ</w>
పాండ ్యా
పాండ్యా కు</w>
అల వడ
అలవడ లేదని</w>
వ్యాఖ్యా నించ
వ్యాఖ్యానించ ాడు</w>
ఓ పె
ఓపె నర్</w>
బౌ లర్</w>
ప్యా ట్</w>
తప్ప వని</w>
ది గ్గ
దిగ్గ జ</w>
హెచ్చర ించాడు</w>
వై వి
వైవి ద్య</w>
బంత ులతో</w>
బో ల్
బోల్ తా</w>
కొట్ట ిస్తాడ
కొట్టిస్తాడ నన్న
కొట్టిస్తాడనన్న ాడు</w>
స్వి ంగ్</w>
షార ్ట్</w>
బంత ులు</w>
ఆడ ాలో</w>
తెలుస ుకోవాలని</w>
చెప్పుకొచ్చ ాడు</w>
చిక ు</w>
స పో
సపో టా</w>
ఆరోగ్య కర</w>
చెప్ప ాలంటే</w>
మంచి వాళ్ల
మంచివాళ్ల ే</w>
మహమ్మార ి</w>
ప్రభా వాన్ని</w>
స ార్క్</w>
ఉపయోగ పడుతుందని</w>
సభ్య దేశ
సభ్యదేశ ాల
సభ్యదేశాల ైన</w>
మ ల్
మల్ దీవ
మల్దీవ ులకు</w>
భూ ట
భూట ాన్</w>
శ్రీలంక కు</w>
డాల ర్ల</w>
నిధ ిని</w>
అందజే స్తుందని</w>
మహ మూ
మహమూ ద్</w>
ఖ ు
ఖు ర
ఖుర ేష
ఖురేష ి</w>
క ్యూ
క్యూ సె
క్యూసె క్క
క్యూసెక్క ుల</w>
తిరువ న
తిరువన ంతపురం</w>
కా మ్ర
కామ్ర ే
కామ్రే డ
కామ్రేడ ్ల</w>
ఏ లిక
ఏలిక లో</w>
ఎ లా
ఎలా గ
ఎలాగ ైనా</w>
ప్రా బల
ప్రాబల ్యాన్ని</w>
చాట ుకోవాలని</w>
భాజపా కు</w>
వి ంత</w>
అను భవం</w>
ఎదు రైంది</w>
తర ఫ
తరఫ ున</w>
ప్రకట ించగా</w>
బ రి
బరి లోకి</w>
దిగ ేందుకు</w>
స సే
ససే మి
ససేమి రా</w>
వాహ నాలను</w>
అనుమతి స్తున్నారని</w>
జరుగ ుతుంటే</w>
దొరక ని</w>
వాహ నాలు</w>
తమ క
తమక ెల
తమకెల ా</w>
పట్టు బడ
పట్టుబడ ుతున్నాయని</w>
వే తన
వేతన ాలు</w>
సరి పో
సరిపో కుంటే</w>
భ ిక్ష
భిక్ష మె
భిక్షమె త్తి</w>
అంతే కానీ</w>
ఇంత పెద్ద</w>
చేయ ొద్దని</w>
పోలీస ులపై</w>
అయిపోయ ింద
అయిపోయింద న్నారు</w>
బాధ్య తా</w>
రా హిత
రాహిత ్య
రాహిత్య మైన</w>
తగ దని</w>
జరిగ ాయని</w>
పోలీ సు</w>
ఉన్నతాధికార ులకు</w>
అ ప్పటికీ</w>
తీసుకో లేదని</w>
చేయ ొచ్చ
చేయొచ్చ న్నారు</w>
తీసుకున్న ట్లు</w>
ఆధార ముంద
ఆధారముంద ా</w>
ఎమ్మెల్య ేను</w>
బయటపెట్ట ాల
బయటపెట్టాల న్నారు</w>
వ్యాఖ్య లపై</w>
సై బ
సైబ రాబాద్</w>
కమి షన
కమిషన రేట్</w>
పోస్ట ులు</w>
ఒక్క ో</w>
రవా ణాకు</w>
ఒ క్క</w>
వాహ నమ
వాహనమ ూ</w>
రా ద
రాద న్నారు</w>
మే ం</w>
ఉంట ామని</w>
తామ ూ</w>
కా మెంట్</w>
క్ర ోధ
క్రోధ ో</w>
మా త్సర
మాత్సర ్యం</w>
లోభ ో</w>
శుభ ా</w>
మ తి
మతి ః</w>
వాల ంటీ
వాలంటీ ర్లు</w>
కలె క్ట
కలెక్ట రేట్</w>
వద్ద కు</w>
అధికార ికి</w>
విన తి
వినతి పత్రం</w>
కు వై
కువై ట్</w>
రు ణ</w>
రూపొంద ిస్తున్న</w>
అబ్బ ే</w>
అలాంట ి
అలాంటి దేమీ</w>
అంట ున్నాడు</w>
స కాలంలో</w>
షూ టింగ
షూటింగ ులకు</w>
వచ్చ ాడని</w>
అన ుకున్న
అనుకున్న ట్టుగా</w>
చేయ గలి
చేయగలి గ
చేయగలిగ ామని</w>
చెప్ప డం</w>
ఆరోగ ్యం</w>
మె గా</w>
అంద రికి</w>
శుభ వార్త</w>
అంతకు ముంద
అంతకుముంద ె
అంతకుముందె ప్పుడూ</w>
కార ా</w>
చూడ లేదు</w>
గొంత ును</w>
ఇంత కంటే</w>
ఏ ము
ఏము ంటుంది</w>
ఉద్వేగ ంగా</w>
ప్రతి స్పందించారు</w>
హ బ్
హబ్ సీ
హబ్సీ గూడ
హబ్సీగూడ </w>
ఉంట ోంది</w>
కు దించ
కుదించ నున్న</w>
ఇ దు
ఇదు గో</w>
సా ంబ
సాంబ య్య
సాంబయ్య ా</w>
మాట్లాడ మన్న
మాట్లాడమన్న ావ్</w>
మాట్లాడ ాను</w>
క ట్నం</w>
లే వ
లేవ నె
లేవనె త్త
లేవనెత్త డం</w>
మన కు</w>
మర ్యా
మర్యా ద
మర్యాద కాదు</w>
అతన ిక
అతనిక ున్న
అతనికున్న దే
అతనికున్నదే దో</w>
పిల్ల కి
పిల్లకి చ్చుకుంట
పిల్లకిచ్చుకుంట ాడు</w>
బ్రా హ్
బ్రాహ్ మ
బ్రాహ్మ డ్
బ్రాహ్మడ్ ని</w>
పిలిప ించి</w>
లగ్ నం</w>
పెట్ట ించి</w>
నిశ్చితార్ధ ాలు</w>
ఊ స
ఊస ే</w>
పోవ డానికి</w>
చట్ట ాల</w>
ప్రభావ మేన
ప్రభావమేన నేది</w>
బహిరంగ </w>
రహస్ య
రహస్య మే</w>
సుదీర్ఘ కాలం</w>
కొనసాగ ుతోన్న</w>
హ ర్య
హర్య ాన
హర్యాన ాల్ల
హర్యానాల్ల ోనే</w>
బీ జం</w>
సార థ
సారథ ్యాన్ని</w>
వహ ిస్త
వహిస్త ో
వహిస్తో న్నారు</w>
ఆధార ిత</w>
నుంచ ీ</w>
చట్ట ాలకు</w>
ఉంట ూ</w>
ఇన్ని రోజ
ఇన్నిరోజ ుల
ఇన్నిరోజుల ూ</w>
ప్రభుత్వ ంపై</w>
ఆ గ్రహ
ఆగ్రహ ాన్ని</w>
ఉద్యమ ాల</w>
ప్రతి ఫ
ప్రతిఫ లింప
ప్రతిఫలింప జేశారు</w>
లే డీ</w>
డ య
డయ ాన
డయాన ా</w>
గమ నించ
గమనించ ండి</w>
అట ుక
అటుక ులతో</w>
భ ుజ
భుజ ాలపై</w>
విలాస వంత
విలాసవంత మైన</w>
రై లు</w>
విషయ ాలను</w>
యువ రాణ
యువరాణ ి</w>
అ గుప
అగుప ిస్తుంది</w>
స్ట ార్
స్టార్ స్</w>
ప్రమాద కర</w>
డ ూప
డూప ్</w>
తామ ే</w>
చేసే స్తారు</w>
వెళ్ల డంతో</w>
పంప ిస్త
పంపిస్త ారని</w>
చిత ్
చిత్ త
చిత్త ూరు</w>
పల స
పలస పల్లెలో</w>
నవ నిర్మాణ</w>
దీక్ష లో</w>
కోర్ట ుల</w>
చుట్ట ూ</w>
తిరుగ ుతోన్న</w>
సహ కరించ
సహకరించ కపోయ
సహకరించకపోయ ినా</w>
రాష్ట్ర ా
రాష్ట్రా భి
రాష్ట్రాభి వృద్ధ
రాష్ట్రాభివృద్ధ ి</w>
ఆగ దని</w>
కోర ుతున్నానని</w>
ఇవ్వ ర
ఇవ్వర ని</w>
మా ఫీ</w>
ప్రయత్నిస్త ోందని</w>
బీజేపీ తో</w>
ల ాలూ
లాలూ చీ</w>
చేస్త ోందని</w>
ముంద ుకే</w>
స వ
సవ లు</w>
ప్రమా ణ</w>
స్వీ కారానికి</w>
సమ ే
సమే తంగా</w>
రావ ాల
రావాల ంటూ</w>
నర సింహ
నరసింహ న్</w>
దంప తులను</w>
కలి శారు</w>
రే ణ
రేణ ుక
రేణుక మ్మ</w>
ఆల యం</w>
నిబంధన లను</w>
ఉల్లంఘ ించి</w>
పంప ించింది</w>
మెడ ికల్</w>
ఇంజ ినీ
ఇంజినీ రింగ్</w>
కో చి
కోచి ంగ్</w>
సెంట ర్లు</w>
యూప ీ
యూపీ కి</w>
విద్యార్ధ ులు</w>
చిక్క ుకు
చిక్కుకు పోయారు</w>
వీ రిని</w>
తరల ించాలని</w>
నిబంధ నలు</w>
విద్యార్ధ ులను</w>
తరల ించ
తరలించ డంపై</w>
భ గ్
భగ్ గు
భగ్గు మన్న
భగ్గుమన్న ాయి</w>
నితీ శ్</w>
వైఖ రి
వైఖరి పై</w>
కూ లీ
కూలీ లను</w>
అనుమ త
అనుమత ించ
అనుమతించ కపోవ
అనుమతించకపోవ డం</w>
అన్య ాయం</w>
ప్రధా ని
ప్రధాని నే</w>
కోర్టు లో</w>
రాష్ట్ర ాల్లో</w>
పరిష్ కారానికి</w>
ఉంచ ారు</w>
లింగ సముద్ర
లింగసముద్ర ంలో</w>
గ్రామ ాల</w>
వాతావరణ ాన్ని</w>
సృష్ట ిస్త
సృష్టిస్త ాయని</w>
అధికార ుల</w>
నై త
నైత ిక</w>
స్థ ై
స్థై ర్యాన్ని</w>
దెబ్బ తీ
దెబ్బతీ స్త
దెబ్బతీస్త ాయని</w>
అధికార ులపై</w>
చర్య లతో</w>
కు ంగి
కుంగి పోవ
కుంగిపోవ డమే</w>
కర్త వ్య</w>
దీక్ష కు</w>
ఆట ంక
ఆటంక ంగా</w>
మారుత ాయని</w>
స్వే చ్చాయ
స్వేచ్చాయ ుత</w>
వాతావరణ ంలో</w>
జర పడ
జరపడ ంలో</w>
వి ఫ
విఫ లం</w>
చెంద వచ్చ
చెందవచ్చ ున
చెందవచ్చున ని</w>
పని చేసేందుకు</w>
ఎల క్ట
ఎలక్ట ోర
ఎలక్టోర ల్</w>
ఆఫీ సర
ఆఫీసర ్లు</w>
ముంద ుకొ
ముందుకొ స్త
ముందుకొస్త ారని</w>
ప్రశ్నించ ింది</w>
రై ల్</w>
కే సును</w>
అని ల్</w>
అంబ ాన
అంబాన ీ</w>
గెలి చ
గెలిచ ింది</w>
పొంద నుంది</w>
కా ంట
కాంట ్రా
కాంట్రా క్
కాంట్రాక్ టును</w>
ఉల్లంఘ ించారని</w>
ఆరోప ిస్తూ</w>
8 00</w>
పరిహార ాన్ని</w>
అభ్య ంతం</w>
చెప్ప డంతో</w>
నాలుగే ళ్లుగా</w>
కోర్ట ులలో</w>
తిరుగ ుత
తిరుగుత ూనే</w>
సు ప్రీ
సుప్రీ ం
సుప్రీం కోర్టు</w>
వాద నను</w>
సమర్థ ి
సమర్థి స
సమర్థిస ూ</w>
ఆదేశ ాలి
ఆదేశాలి చ్చింది</w>
వ డ్డ
వడ్డ ీ</w>
నష్ట పరిహార
నష్టపరిహార ంతో</w>
సి ని</w>
200 8</w>
ఒప్ప ంద
ఒప్పంద ానికి</w>
సంబంధ ించిన
సంబంధించిన ది</w>
ఆప రేట్</w>
ట్రా న్స్</w>
బి ఒ
బిఒ టి</w>
ప్రాతి పద
ప్రాతిపద ిక
ప్రాతిపదిక న</w>
ఎక్ స్</w>
ప్ర ెస్</w>
నిర్మ ించడానికి</w>
ఒప్ప ందం</w>
కు దిరి
కుదిరి ంది</w>
ఉల్లంఘ ించ
ఉల్లంఘించ ారంటూ</w>
ఆరోప ించడంతో</w>
ఆర్బి ట్ర
ఆర్బిట్ర ేషన్</w>
ట్రి బ్య
ట్రిబ్య ున
ట్రిబ్యున ల్</w>
లో డిఎంఆర్</w>
స ికి</w>
లా హో
లాహో ర్</w>
సి రీ
సిరీ స్</w>
జట్ట ుపై</w>
పరుగ ుల</w>
తేడా తో</w>
ఘ న</w>
టా స్</w>
బ్యా టింగ్</w>
బి స్
బిస్ మా</w>
మార ూ
మారూ ఫ్</w>
ఒ మై
ఒమై మా</w>
సో హై
సోహై ల్</w>
3 3</w>
ఇరా ం</w>
జా వే
జావే ద్</w>
రాణ ించ
రాణించ </w>
నిర్ణ ీ
నిర్ణీ త</w>
ఓ వర్లలో</w>
విక ె
వికె ట్లను</w>
నష్టపో య</w>
1 26</w>
డా ష
డాష ింగ్</w>
ప ూరి</w>
జగ న్న
జగన్న ా
జగన్నా థ
జగన్నాథ ్</w>
తెరకెక్క ిన</w>
సినిమ ాల
సినిమాల ోనే</w>
అంద ం</w>
అభిన య
అభినయ ంతో</w>
మ ెల్ల
మెల్ల గా</w>
అంద ుకుంటూ</w>
సాగ ింది</w>
కొంత కాల
కొంతకాల ానిక
కొంతకాలానిక ే</w>
అరు ంధ
అరుంధ తి</w>
నట న
నటన తో</w>
అయి పోయింది</w>
దేవ సేన</w>
అవకాశ ాల
అవకాశాల ుతో</w>
దూసుకెళ్ల ిన</w>
పొ ంది</w>
ఎ దిగ
ఎదిగ ింది</w>
కొ న్నే
కొన్నే ళ్లుగా</w>
పర్ ఫార్
పర్ఫార్ మె
పర్ఫార్మె న్స్</w>
అల ర
అలర ించేందుకు</w>
రె డీ</w>
అవుత ో
అవుతో ండగా</w>
కు ట్టి</w>
అను ప
అనుప మ</w>
పర మే
పరమే శ్వ
పరమేశ్వ ర
పరమేశ్వర న్</w>
మా స్టర్</w>
త ారా</w>
సంగారె డ్డి</w>
15 2</w>
5 9
59 6</w>
50 7</w>
28 8</w>
3 0
30 8</w>
57 38
5738 12</w>
50 2
502 3
5023 13</w>
నా గార
నాగార ం</w>
ఎల్లమ్మగూడ లోను</w>
ఎల్లమ్మగూడ లోనూ</w>
కా స
కాస ల్లోనూ</w>
సంగారెడ్ డిలో</w>
సంగారెడ్ డి
సంగారెడ్డి లోను</w>
స్వ యం</w>
సహాయ క</w>
పౌ ర</w>
సరఫ రాల</w>
మార్కె టింగ్</w>
సొ సై
సొసై టీ</w>
ఏటీ ఎ
ఏటీఎ మ్</w>
సహకార </w>
189 3</w>
వారెవర ికీ</w>
ఇప్ప ుడ
ఇప్పుడ ున్న</w>
ఫ్ల ు
ఫ్లు య
ఫ్లుయ ె
ఫ్లుయె ంజ
ఫ్లుయెంజ ా</w>
ర కాల
రకాల ే
రకాలే వీ</w>
సో కే</w>
సంవత్సర ాల</w>
కింద ట</w>
మనుష ుల్లో</w>
ఉండ ిన</w>
అంత రించ
అంతరించ ిపోయింది</w>
19 18</w>
మహమ్మార ిని</w>
అంత మైపోయింది</w>
అమెరిక ాలో</w>
బల ిత
బలిత ీ
బలితీ స
బలితీస ుకున్న</w>
19 57</w>
ఏ వి
ఏవి యన్</w>
విజృంభ ణ
విజృంభణ కు</w>
కారణ మైన</w>
మ ాయ
మాయ మైపోయింది</w>
200 9</w>
స్ వై
స్వై న్</w>
పుట్ట ుకు
పుట్టుకు వచ్చింది</w>
మరు వ
మరువ క</w>
ధ వ
ధవ నం</w>
మరు వం</w>
చై తు
చైతు ను</w>
ఏ డిప
ఏడిప ించిన</w>
సమ ంత</w>
చె డ
చెడ గొ
చెడగొ ట్టు</w>
వా న</w>
రైత న్న
రైతన్న ను</w>
కష్ట ాల
కష్టాల పాలు</w>
తెల్ల వార
తెల్లవార ుజ
తెల్లవారుజ ామ
తెల్లవారుజామ ున</w>
అ కాల</w>
అన్న దా
అన్నదా తలను</w>
ఆగ మా
ఆగమా గం</w>
అమ్మ కాని</w>
తెచ్చ ిన</w>
ము ంచె
ముంచె త్తింది</w>
పో సిన</w>
రాశ ులు</w>
త ూ
తూ కం</w>
ని ంపిన</w>
బస్త ాలు</w>
నా ని
నాని పోయాయి</w>
కేంద్ర ంలోని</w>
వందలా ది</w>
తడి సి</w>
ముద్ద యింది</w>
పొ లంలో</w>
తూర్ పార
తూర్పార బ
తూర్పారబ ట్ట
తూర్పారబట్ట ిన</w>
తరలి స్తున్నారు</w>
ప్లా ట్</w>
ఫ ారం</w>
కల్ల ంలో</w>
పలువు రు</w>
ఆర బో
ఆరబో శారు</w>
తరలి ంప
తరలింప ునకు</w>
తడి సి
తడిసి పోయింది</w>
తడి సిన</w>
చెంద వద్దని</w>
చై ర్</w>
పర్ సన్</w>
బ ాల్
బాల్ దె
బాల్దె </w>
సిద్ధ ిల
సిద్ధిల ి
సిద్ధిలి ంగం</w>
వా ప్తంగా</w>
మిల్ల ీ
మిల్లీ మీటర్ల</w>
దేవ రు
దేవరు ప్ప
దేవరుప్ప ుల</w>
మండల ంలో</w>
ఘ న్</w>
బ చ్చ
బచ్చ న్న
బచ్చన్న పే
బచ్చన్నపే ట
బచ్చన్నపేట లో</w>
లింగ ాల
లింగాల ఘన
లింగాలఘన పురంలో</w>
జనగ ామ
జనగామ లో</w>
ర ఘ
రఘ ు
రఘు నాథ
రఘునాథ పల్లిలో</w>
గ్రామ ాల్లోని</w>
కొన గో
కొనగో లు</w>
కేంద్ర ాల్లో</w>
క వర్లు</w>
క ప్ప
కప్ప ుకోవడంతో</w>
స రె
సరె ౖన</w>
లే చి</w>
నిల బడుతూ</w>
నమ్మ ను</w>
రికార్ డు
రికార్డు నే</w>
పాలి ష్</w>
మెరుగ ులు</w>
అ ద్ద
అద్ద ాడు</w>
కం బా
కంబా ళ</w>
1 42</w>
పూర్ తి
పూర్తి చేశాడు</w>
లె క్క</w>
7 8</w>
సెకన్ ల
సెకన్ల లోనే</w>
త ానే</w>
తిరగరా శాడు</w>
పోటీ పడి
పోటీపడి నట్లు</w>
అంచ న
అంచన ాలతో</w>
అంద ర్
అందర్ నీ</w>
చేస ాయి</w>
చిత్ర ాలతో</w>
రా కపోయ
రాకపోయ ే
రాకపోయే సర
రాకపోయేసర ికి</w>
ఖాళ ీగా</w>
కనిపి స్తున్నాయి</w>
మరో పక్క</w>
స మ్
సమ్ మోహ
సమ్మోహ నం</w>
దారు ణంగా</w>
వెళ్ల డం</w>
ఆగ ింది</w>
వి ండీ
విండీ స్</w>
బౌ ల
బౌల ర్లు</w>
1 43</w>
పరుగ ుల
పరుగుల కే</w>
ఊ పు
ఊపు మీద</w>
బ్బ ు</w>
సం పా
సంపా ద</w>
రుగ ుతున్న</w>
అడ్డ ూ</w>
అదుప ూ</w>
సామాన్య ులు</w>
బ్రిటీ లు</w>
పాల్ప </w>
డ ుతున్నారు</w>
కే టు
కేటు గాళ్లు</w>
రా మాన
రామాన ాయ
రామానాయ ుడు</w>
వ్యా క్సి
వ్యాక్సి న్స్</w>
ఇస్త ానంటూ</w>
ర్చ </w>
నీయాంశ ంగా</w>
రిగ ితే</w>
సామాన్య ుల</w>
రి స్థిత
రిస్థిత ే
రిస్థితే ంట</w>
ఫో న్స్</w>
డివై జె
డివైజె స్</w>
ట్యా బ్
ట్యాబ్ స్</w>
అయ ి</w>
ఐ డీతో</w>
సర్వీ సు</w>
యా ప్</w>
అయ్య ి</w>
ఉంద నేది</w>
స్వి చ్ఛ
స్విచ్ఛ ా
స్విచ్ఛా ఫ్</w>
ఆఖ రిగా</w>
ఆగ ిన</w>
ప్ల ేస్</w>
ఫీ చ
ఫీచ ర్ల
ఫీచర్ల కు</w>
జో డి
జోడి స్తూ</w>
సర్వీ సును</w>
క్రమ ంలో</w>
ఐ ఫోన్లు</w>
ఐ ప్యా
ఐప్యా డ్</w>
వా చ్</w>
పా డ్స్</w>
■ </w>
ఒ ళ్ళు</w>
వే డి
వేడి నీటిలో</w>
ఉప్ప ు
ఉప్పు వేసి</w>
కాప డం</w>
కాయ ాలి</w>
నిర్మ ించిన</w>
భవ నం</w>
క్ర ింది</w>
సెక్ర ట
సెక్రట రీ</w>
జన ార్
జనార్ దన్</w>
ట్రె జర
ట్రెజర ర్</w>
నా గ</w>
భూ ష
భూష ణ్</w>
ప్ర ె
ప్రె సి
ప్రెసి డెంట్</w>
కు ంభ
కుంభ వృ
కుంభవృ ష్ట
కుంభవృష్ట ి</w>
మే ఘ
మేఘ ాల
మేఘాల న్నీ</w>
కూ లి
కూలి నట్లు</w>
ఏ కంగా</w>
అ నాటి</w>
వర్ష ాలకు</w>
అత లా
అతలా క
అతలాక ుత
అతలాకుత లం</w>
ఏ డు</w>
కథ ల్ని</w>
కొట్టే స్తున్నారని</w>
దో చ
దోచ ుకుని</w>
ఘో స్ట్</w>
రై టర్ల
రైటర్ల ుగ
రైటర్లుగ ానే</w>
డైరెక్ట ర్లు</w>
యువ తరం</w>
రచయిత లు</w>
ఫిర్యాద ులు</w>
సందర్భ ాలెన్నో</w>
వివాద ాలెన్నో</w>
బయట పడుతున్నాయి</w>
డైరెక్ట ర్ల
డైరెక్టర్ల ే</w>
కొట్టే స్తున్నార
కొట్టేస్తున్నార న్న</w>
నిరూప ణ</w>
కొట్ట ేయ
కొట్టేయ డం</w>
అ టు
అటు ంచ
అటుంచ ితే</w>
రై టర్</w>
వెంక ట్</w>
అంత టి</w>
ద్రో హం</w>
టైట ిల్స్</w>
శ్రీను నే</w>
వేసే స
వేసేస ుకుంటున్న
వేసేసుకుంటున్న ాడని</w>
గొడ వ</w>
పెట్ట ుకున్నారు</w>
ఇద్ద రి</w>
మధ్య ా</w>
స్నే హం</w>
చె డింది</w>
ఎవరి దార
ఎవరిదార ిన</w>
వెళ్లి పోయారు</w>
అంతకు ముందు</w>
బ స్ట
బస్ట ర్లు</w>
విడి పోయా
విడిపోయా క</w>
రె ంటికి</w>
చె డ్డ</w>
రే వ
రేవ డి</w>
అయి పోయారు</w>
రచయిత ల
రచయితల ుగా</w>
సాధించ లేకపోవడం</w>
చర్చ కొ
చర్చకొ చ్చింది</w>
తెలుస ుకుంటూ</w>
దృష్ట ికి</w>
సమస్య పై</w>
ఖా తా</w>
నిలదీ శారు</w>
మే ని
మేని ఫె
మేనిఫె స్టో
మేనిఫెస్టో లోని</w>
పే జీ</w>
ము ఖ్యా
ముఖ్యా ంశ
ముఖ్యాంశ ాల్లో</w>
నియోజకవర్గ ానికి</w>
వృద్ ధా
వృద్ధా శ్రమ
వృద్ధాశ్రమ ం</w>
కట్ట ిస్త
కట్టిస్త ామని</w>
ఇచ్చ ిందని</w>
సంగతే మై
సంగతేమై ందని</w>
పోస్ట ును</w>
పెట్ట ారు</w>
య థా
యథా త
యథాత థ
యథాతథ ంగా</w>
తు ళ్లూరు</w>
ధర్ మే
ధర్మే ంద్ర</w>
బాబ ుపై</w>
శ్రీ ను</w>
జయ జాన
జయజాన కి</w>
నాయ క</w>
ఉంద నే</w>
కె రియ
కెరియ ర్</w>
ప ంతం</w>
ప రువు</w>
రెండి టి</w>
నలి గి
నలిగి పోయే</w>
ప్రయత్నించ ే</w>
నడిచ ే</w>
కథ తో</w>
మార్ క్</w>
అదర గొ
అదరగొ ట్ట
అదరగొట్ట ేశ
అదరగొట్టేశ ాడు</w>
డా న్స్</w>
పర్వాల ేద
పర్వాలేద నిప
పర్వాలేదనిప ించినా</w>
ఎ మోషన్</w>
తే లి
తేలి పోయా
తేలిపోయా డనే</w>
హా ఫ్</w>
స్క్రీ ప్ల
స్క్రీప్ల ే</w>
న డిప
నడిప ించడంతో</w>
అవ టంతో</w>
వేస ుకున్న
వేసుకున్న ాడ
వేసుకున్నాడ నే</w>
మహా పూర్
మహాపూర్ ణా
మహాపూర్ణా హ
మహాపూర్ణాహ ుత
మహాపూర్ణాహుత ి</w>
చక్ర తీర్థ
చక్రతీర్థ ం</w>
చెప్త ాను</w>
అన డం</w>
స్థాయ ిని</w>
దిగ జార
దిగజార ్చ
దిగజార్చ ే</w>
అంశ ాలే</w>
ఆ రి
ఆరి తే
ఆరితే రిన</w>
కనిప ించ
కనిపించ డ
కనిపించడ ం
కనిపించడం లేదు</w>
వర్ షా
వర్షా కాల</w>
ప్రవేశ ంపై</w>
చిత్రీ కరించ
చిత్రీకరించ డంపై</w>
శుక ్ర
శుక్ర వారం</w>
దు మార
దుమార ం</w>
రే గ
రేగ ింది</w>
దృ శ్య
దృశ్య ాలను</w>
పెట్ట డంపై</w>
ఎంప ి
ఎంపి లు</w>
చట్ట </w>
తీస ుకుంటుందని</w>
కు రియ
కురియ న్</w>
చిత్రీ కర
చిత్రీకర ణ
చిత్రీకరణ పై</w>
నెల కొన
నెలకొన డంతో</w>
సభ ను</w>
వాయి దా</w>
బీ ట్</w>
దాని మ్మ</w>
జ ్యూ
జ్యూ స్</w>
ఎర్ర టి</w>
సా స్</w>
పా స్తా</w>
బె స్ట్</w>
మ ిక్
మిక్ సర్</w>
గ్రై ండర్</w>
పదార్థ ాలను</w>
సున్న ితంగా</w>
గ్రై ండ్</w>
బాగు ంది</w>
స్టె యిన్</w>
లె స్</w>
స్టీ ల్</w>
మె టీ
మెటీ రియల్</w>
పాత్ర లు</w>
మూ తలు</w>
విడ దీయ
విడదీయ లేని
విడదీయలేని వి</w>
జా డీ
జాడీ ల</w>
హ్యా ండ
హ్యాండ ిల్స్</w>
యా ంట
యాంట ీ</w>
స్లి ప్</w>
గ్ర ిప్</w>
పట్టుకో వ</w>
రు బ్బ
రుబ్బ ుకోవచ్చు</w>
నిర ంతరం</w>
ష ీ
షీ ట్</w>
దిగు వ</w>
ఫ ్రీ
ఫ్రీ క్
ఫ్రీక్ వె
ఫ్రీక్వె న్సీ</w>
స్ట్ర ా
స్ట్రా బె
స్ట్రాబె ర
స్ట్రాబెర ్రీ
స్ట్రాబెర్రీ లను</w>
పండ ించ
పండించ టానికి</w>
మంచ ు</w>
క రిగ
కరిగ ిపోత
కరిగిపోత ుండటంతో</w>
ముంబై లోని</w>
ప్రాంత ాలు</w>
దశా బ్
దశాబ్ ధ
దశాబ్ధ ాల్లో</w>
తు డి
తుడి చి
తుడిచి పెట్ట
తుడిచిపెట్ట ుకుపోత
తుడిచిపెట్టుకుపోత ాయని</w>
పరిశోధ నలు</w>
ఉత్త ర్</w>
ప్ర దేశ
ప్రదేశ ్లో</w>
వె రీ</w>
సరి గా</w>
జరగ లేదు</w>
అమెరిక ాలోని</w>
అల బ
అలబ ామ
అలబామ ాలో</w>
దశాబ్ద ాల</w>
కాల ంగా</w>
యో గాపై</w>
నిషేధ ాన్ని</w>
ఎత్తి వేశారు</w>
భార తీయ</w>
యో గా
యోగా స
యోగాస నాల</w>
ప్రా చు
ప్రాచు ర్యాన్ని</w>
ప్రాము ఖ్యా
ప్రాముఖ్యా న్ని</w>
గుర్త ించి</w>
తీసుకున్న ప్పటికీ</w>
సంప్రద ాయాన్ని</w>
బ్య ాన్</w>
దు ర
దుర దృష్ట
దురదృష్ట ం</w>
తీర్ప ుల</w>
అదృష్ట ంగా</w>
పోవ డం</w>
ప్రకట ించడం</w>
వాటి లో</w>
లొ సు
లొసు గులు</w>
పట్ట ుకుని</w>
కోర్టు మె
కోర్టుమె ట్ల
కోర్టుమెట్ల ెక్క
కోర్టుమెట్లెక్క డం</w>
తీర్ప ులపై</w>
ఇవ ే</w>
పని గా</w>
నెట్ట ుకొ
నెట్టుకొ స్తున్నారు</w>
ప్రత్య క్షంగా</w>
జన ాల్లోకి</w>
ప్ర స్తుత
ప్రస్తుత ానికి</w>
వి రమ
విరమ ించ
విరమించ ుకున్నారు</w>
వందలా ది
వందలాది మంద
వందలాదిమంద ినే
వందలాదిమందినే సుకుని</w>
రోడ ్ల
రోడ్ల పైకి</w>
రావ డమే</w>
ప్ర జా
ప్రజా సమస్య
ప్రజాసమస్య లపై</w>
ప్రజల కూ</w>
ప్రభుత్వ ానిక
ప్రభుత్వానిక ీ</w>
అర్ధ మయ
అర్ధమయ ేలా</w>
స్పంద ించడం</w>
ఇంత వరకూ</w>
టా స్క్</w>
గెలు స్తారు</w>
వర్ షన్</w>
పాట ల</w>
ని రాడ
నిరాడ ంబరంగా</w>
ప్రతిష్ట ా
ప్రతిష్టా త్మక</w>
వేడుక ని</w>
సి ంపుల్</w>
ఏమి టా</w>
నో రె
నోరె ళ్ల
నోరెళ్ల బెట్టారు</w>
మ్యా జిక్</w>
పల ుకులు</w>
పలిక ారు</w>
ఎన్న డు</w>
అయ న</w>
చేయాల నీ</w>
ఉన్న దని</w>
మాట కు</w>
జన ాల్లో</w>
ర కర
రకర కాల</w>
స్పంద నలు</w>
వర కే</w>
మాట లు</w>
మరి చి
మరిచి పోత
మరిచిపోత ారు</w>
పోత ు
పోతు గొండ</w>
పౌరస త్
పౌరసత్ వాన్ని</w>
నిరూప ించ
నిరూపించ ుకుంట
నిరూపించుకుంట ేనే</w>
అతన ికి</w>
వీ లవ
వీలవ ుతుంది</w>
పరిశోధ న</w>
కేంద్ర ంగా</w>
టియా ంగ్</w>
గా ంగ్</w>
2౦ 11</w>
క క్ష్య
కక్ష్య లోకి</w>
ప్రయోగ ాలలో</w>
దిశ లో</w>
సంస్థ ను</w>
ప్రాథమిక ంగా</w>
ఐదే ళ్లు</w>
బా గానే</w>
పని చేసిన</w>
2౦ 16</w>
ల్యా బ్</w>
న ౌక</w>
అప్ప టి</w>
అంతరిక్ ష
అంతరిక్ష ంలో</w>
చక్క ర్లు</w>
కొడ ుతోంది</w>
తా కే</w>
దశ కు</w>
చేరి ంది</w>
ఆది వారానికి</w>
వాతావరణ ానికి</w>
17 9</w>
వెల్లడ ించిన
వెల్లడించిన ట్టు</w>
హా ంగ్</w>
కా ంగ్</w>
వెలువ డే</w>
సౌ త్</w>
మార్ నింగ్</w>
అవ ుతోంది</w>
అల రించ
అలరించ లేకపోయిన</w>
గుంటూర ుకు</w>
చైత న్య</w>
జే వీ
జేవీ ని</w>
వి హ
విహ హం</w>
నిమిష ాలకు</w>
పూ జ
పూజ లు</w>
పుర స్క
పురస్క ాలు</w>
న వ</w>
హ నీ
హనీ మూ
హనీమూ న్</w>
మ ాల్
మాల్ దీవ
మాల్దీవ ్స్</w>
దీవ ుల్లో</w>
రొ మా
రొమా న్స్</w>
దిగ ి</w>
పంచ ుకున్నది</w>
ఫోటో స్</w>
నిలిచ ాయి</w>
గో వ
గోవ ాలో</w>
సే ద
సేద తీర
సేదతీర ుతోంది</w>
బీ చుల్లో</w>
గడిప ిన</w>
మధు ర</w>
క్షణ ాలను</w>
ఫాలో వర్
ఫాలోవర్ స్</w>
పంచ ుకుంటోంది</w>
బ్ల ూ</w>
జీ న్స్</w>
టా ప్</w>
ఫోటో ను</w>
హ్యా ండిల్</w>
ఫోటో లో</w>
స్ట న్ని
స్టన్ని ంగ్</w>
అదర గొడ
అదరగొడ ుతోంది</w>
ద సరా
దసరా కు</w>
ఆర్ ఆర్
ఆర్ఆర్ ఆర్</w>
సంక్రా ంత
సంక్రాంత ికి</w>
సల ార్</w>
పీ సీసీ</w>
దక్క డంతో</w>
పరి స్త
పరిస్త ిత
పరిస్తిత ి</w>
పార్టీ లోని</w>
పక్క న
పక్కన బె
పక్కనబె ట్టి</w>
సిద్ధ మైంది</w>
దూ కు
దూకు డుగా</w>
బీజేపీ ల
బీజేపీల ని</w>
సీ న్</w>
నడు స్తుందని</w>
త్రి ముఖ</w>
జరగ డం</w>
విశ్లేష ణలు</w>
బల ంగా</w>
రా ష
రాష ్ర
రాష్ర ్ట</w>
రా క
రాక తో</w>
యా క్టివ్</w>
అయ ిందని</w>
వస్త ారని</w>
వేయ డానికి</w>
వీ ల్ల
వీల్ల ేదని</w>
యోగ మ
యోగమ ులోకి</w>
రావ డ
రావడ ము</w>
నన్న ు</w>
గురు వ
గురువ ులే</w>
తీసుకు వచ్చ
తీసుకువచ్చ ారు</w>
ద య</w>
చెయ్య లే
చెయ్యలే ము</w>
సందే శా
సందేశా త్మక</w>
అనుభవ ాలు</w>
దొర ుక
దొరుక ుతాయి</w>
గురు వైన</w>
ష ి
షి రి
షిరి డీ
షిరిడీ బా
షిరిడీబా బా
షిరిడీబాబా గార
షిరిడీబాబాగార ే</w>
ఇంట ర్</w>
పా సై
పాసై న</w>
విద్యార్థ ిని</w>
చదువ ులకు</w>
పంప ినట్లు</w>
యోగ ానికి</w>
మొ ట్ట
మొట్ట మొద
మొట్టమొద టి
మొట్టమొదటి సారి</w>
గుర్తు పెట్ట
గుర్తుపెట్ట ుకునే
గుర్తుపెట్టుకునే ట్లు</w>
జరుగ లే
జరుగలే దు
జరుగలేదు ట</w>
చూడ ాల
చూడాల న్న</w>
త పన
తపన తో</w>
శ్రీ ధ
శ్రీధ ర్</w>
యోగ ిని</w>
అడిగ ితే</w>
విన్న వ
విన్నవ ించుకోండి</w>
తప్ప కుండా</w>
నె ర
నెర వే
నెరవే ర
నెరవేర ుతుంది</w>
ఆదేశ ించగా</w>
ప్ర ార్థ
ప్రార్థ ించి</w>
నిమిష ం</w>
దర్శ ిస్తే</w>
గార ికి</w>
గడిప ే</w>
దృష్ట ిలో</w>
లే రన్న</w>
గార ిది</w>
మాట్లాడుకుంట ాము</w>
అవ న్నీ</w>
ఆ టో
ఆటో మే
ఆటోమే టిక్</w>
తీర్చ ినట్లు</w>
తీ రి
తీరి పోతాయి</w>
చో ట</w>
లై వ్</w>
అవ ుతాయి</w>
సంకల్ప ాన్ని</w>
సాధ నను</w>
అధ్యయ న</w>
మార్ గ</w>
అనిప ిస్తారు</w>
స్టా ంట్</w>
రిజ ల
రిజల ్ట్</w>
మంత్ర ము</w>
కాశ ీ</w>
యాత్ర లో</w>
తిరుగ ు</w>
ప్రయాణ ంలో</w>
భయంకర మైన</w>
మొత్త ము</w>
కుటుంబ ములో</w>
అవ లేదు</w>
ఉన్న దనే</w>
నమ్మ క
నమ్మక ము</w>
వె తుక
వెతుక ులా
వెతుకులా ట</w>
మాన ే
మానే ద్ద
మానేద్ద ాము</w>
అయిపోయ ి</w>
చెప్ప ింది</w>
వచ్చ ాము</w>
తెలుస ుకుని</w>
వీ లై
వీలై నంత</w>
యోగ ులుగా</w>
పాద పద్
పాదపద్ మ
పాదపద్మ ములకు</w>
అర్ ప
అర్ప ిస్తే</w>
చూస ుకుంటారు</w>
కర్త వ్య
కర్తవ్య బోధ</w>
అన్య ధా</w>
శర ణం</w>
నా స్త
నాస్త ి</w>
కాబ ట్టే</w>
కాశ ి</w>
పౌ ర్
పౌర్ ణ
పౌర్ణ మి</w>
హి మ
హిమ ాలయ
హిమాలయ ాల్లో</w>
పచ్చ ద
పచ్చద నాల</w>
కాష ాయ
కాషాయ ా
కాషాయా ంబ
కాషాయాంబ ర</w>
ధార ిణ
ధారిణ ి</w>
ఆత్ మాన
ఆత్మాన ంద
ఆత్మానంద మయ
ఆత్మానందమయ ి</w>
గు ంత</w>
త వ్వ
తవ్వ ి</w>
అద్భుత </w>
శ్రీచక్ర ాన్ని</w>
మ ట్ట
మట్ట ితో</w>
ఆ వు
ఆవు పే
ఆవుపే డ</w>
క డు
కడు గ
కడుగ ుతున్న</w>
కొద్ద ీ</w>
బంగార పు</w>
శ్రీచక్ర ముగా</w>
శ్రీచక్ర ము</w>
త్రి శూ
త్రిశూ ల
త్రిశూల ము</w>
డ మర
డమర ుక
డమరుక ముగా</w>
దాల్చ ింది</w>
యోగ ులు</w>
చక్ర </w>
సాక్ష ా
సాక్షా త్
సాక్షాత్ కరించ
సాక్షాత్కరించ గానే</w>
బంగ ారు</w>
చె క్స్</w>
ఆ భర
ఆభర ణ
ఆభరణ ాలతో</w>
శ్రీచక్ర ార
శ్రీచక్రార ్చ
శ్రీచక్రార్చ న</w>
అభిషే క</w>
ధార కు</w>
ము ని
ముని గి
మునిగి పోయాయి</w>
జల ధార
జలధార </w>
లాంట ిది</w>
గు హ
గుహ ల్లో</w>
ప్రసా దం</w>
ఉన్న ట్ల
ఉన్నట్ల ు
ఉన్నట్లు ండి</w>
శి వ
శివ పార
శివపార ్వ
శివపార్వ తులు</w>
అద ృ
అదృ శ్య
అదృశ్య మై</w>
వే ంక
వేంక టేశ్వ
వేంకటేశ్వ ర</w>
కన బడి</w>
హార తి</w>
గో చర
గోచర ించారు</w>
విజ న్</w>
దుకా ణాల్లో</w>
గౌ డ్స్</w>
ఎస్ సి</w>
రాన ుండగా</w>
డిసెంబ రు</w>
20 23</w>
ప్రారంభ ించ
ప్రారంభించ నున్న</w>
రి వ్య
రివ్య ూ</w>
కాబ ుల్</w>
ఏటీ ఎం
ఏటీఎం ల</w>
ర ద్ద
రద్ద ీ</w>
కొనసాగ ుతోంది</w>
ఏటీ ఎం</w>
తీసుకో డానికి</w>
రోజ ూ</w>
బ ారులు</w>
తీర ుతున్నారు</w>
ప్రతి సారీ</w>
ని రాశ
నిరాశ ే</w>
ఎదురవ ుతోంది</w>
ఇన్నే ళ్లు</w>
కష్ట పడి</w>
కూడ బెట్ట
కూడబెట్ట ుకున్న</w>
సొ మ్మ
సొమ్మ ంతా</w>
చెంద ుతున్నారు</w>
ప్రత్యే కం</w>
నెల ా
నెలా ఖ
నెలాఖ రులో</w>
జయ ంతి</w>
ద ానిక
దానిక ంటే</w>
వ్యవధ ిలో</w>
పండుగ లు</w>
వేడుక ల్ని</w>
ఆడ ంబరంగా</w>
జరుప ుకోవడం</w>
జ ూ</w>
అల వా
అలవా టు</w>
అప్పుడ ప్పుడు</w>
ఇండస్ట్రీ లోని</w>
సన్నిహిత ులతో</w>
ఉంట ాడు</w>
ఉండ ట్ల
ఉండట్ల ేద
ఉండట్లేద ట</w>
తల్ల ి</w>
ష ాలిని</w>
లక్ష్మీ ప్ర
లక్ష్మీప్ర ణ
లక్ష్మీప్రణ తి</w>
అభ య
అభయ ్</w>
పుట్టినరోజ ును</w>
ప్రశాంత ంగా</w>
గడప బోతున్న
గడపబోతున్న ట్లు</w>
రోజ ైన</w>
చేశా క</w>
ఫ్యామిల ీ
ఫ్యామిలీ తో</w>
ట ూర్</w>
వెళ్ తా
వెళ్తా డ
వెళ్తాడ ట</w>
గడి పి</w>
పాల్గొ ంట
పాల్గొంట ాడని</w>
ఇండ స్ట్రీ</w>
పుట్టినరోజ ున
పుట్టినరోజున ాడు</w>
ఉండ డు</w>
కార్యక్రమ ాలు</w>
చే పడుతున్నారు</w>
వాళ్ల ందరికీ</w>
ఇచ్చ ి</w>
వెళ్ త
వెళ్త ున్నాడు</w>
నిర్ణయ ాల్ని</w>
వెన క్కి</w>
తీసుకోవ టం</w>
అరు ద
అరుద ుగా</w>
సాగ ుతు
సాగుతు ంటుంది</w>
అందు నా</w>
ఏ మై
ఏమై నా</w>
జరగ ాల్సిందే
జరగాల్సిందే నని</w>
డి సై
డిసై డ్</w>
నిర్ణయ ాల్లో</w>
చేసుకోవ టం</w>
నిర స
నిరస నలు</w>
విరుచుకు పడ
విరుచుకుపడ ట
విరుచుకుపడట ం
విరుచుకుపడటం లాంటి</w>
లై ట్</w>
తీస ుకుంటూ</w>
చేయాల న
చేయాలన ుకున్న
చేయాలనుకున్న దే</w>
ప్రభుత్వ ాల్లో</w>
ఎక్కు వైంది</w>
ప్రభుత్వ ాలు</w>
నిర్ణయ ాలపై</w>
వ్యతిరేక త</w>
పునర ాలో
పునరాలో చ
పునరాలోచ నకు</w>
ప్రయత్నించ ే
ప్రయత్నించే వారు</w>
రోజూ లో</w>
ఆహార ం</w>
చూస ుకో
చూసుకో ండి</w>
ప ప్ప
పప్ప ులు</w>
నట ్స్</w>
బీ న్స్</w>
కోడిగుడ ్లు</w>
తదిత ర
తదితర ాలను</w>
ఆహార ంలో</w>
తీసుకో ండి</w>
జ లా
జలా శ
జలాశ య
జలాశయ ాలకు</w>
చేర ుత
చేరుత ుండటంతో</w>
గే ట్లను</w>
ఎ త్తి</w>
న దిల
నదిల ోకి</w>
వ దుల
వదుల ుతున్నారు</w>
పరి వాహ
పరివాహ క</w>
ప్రాంత ంలోని</w>
బస్త ీలు</w>
కాల నీ
కాలనీ ల</w>
అప్రమత్త ం</w>
తె గిన</w>
చె రు
చెరు వుల</w>
ఇ రిగ
ఇరిగ ేషన్</w>
పోలీ సు
పోలీసు శాఖ
పోలీసుశాఖ ల</w>
పర్యవే క్షి
పర్యవేక్షి స్తున్నారు</w>
200 7</w>
మార్కె టింగ
మార్కెటింగ ్లో</w>
మీడియ ాను</w>
ఉపయోగ ించడం</w>
పే స్
పేస్ ను</w>
ఆశ్చర్య కర
ఆశ్చర్యకర ం</w>
సుల భం</w>
సంస్థ లకు</w>
సమ కూర్చ
సమకూర్చ డానికి</w>
తమ ను</w>
విక్రయ ించడానికి</w>
కూడ ుకున్నది</w>
మేనే జ్
మేనేజ్ మెంట్</w>
అమ ృ
అమృ త
అమృత సర్</w>
| </w>
Y </w>
బెంగళ ూ
బెంగళూ రులో</w>
జర్ నలి
జర్నలి స్టు</w>
గౌ రీ</w>
లంకే శ్</w>
ఉద్వేగ ానికి</w>
లో న
లోన య్యారు</w>
తెలుస ని</w>
హత్య చేసిన</w>
పట్టుకో లేకపోవడం</w>
నిర్ల క్ష్య
నిర్లక్ష్య ానికి</w>
ప రా
పరా కా
పరాకా ష్ట</w>
బాల ాన
బాలాన గర్</w>
పెద్ద ాయ
పెద్దాయ పల్లిలో</w>
హ ర్
హర్ షా
హర్షా తిరే
హర్షాతిరే కాలు</w>
సు ంద</w>
ఆకట్ట ుకో
ఆకట్టుకో లేక</w>
గ్ర ౌ
గ్రౌ ండ్</w>
పర్వాల ేదు</w>
అనిప ించింది</w>
ఆధ ిక
ఆధిక ్యత</w>
డి జె
డిజె ౖ
డిజై న్</w>
ఆయు ధ
ఆయుధ ాలు</w>
సవర ణ</w>
కన్ ప
కన్ప ిస్తోంది</w>
అమ ల్ల
అమల్ల ోకి</w>
వస్త ు</w>
ధర లపై</w>
చూప ుతోంది</w>
అత్యధ ిక
అత్యధిక శాతం</w>
ప్ నను</w>
శ ్లా
శ్లా బ్</w>
ఎల క్
ఎలక్ ట్ర
ఎలక్ట్ర ాన
ఎలక్ట్రాన ిక్</w>
కా స్
కాస్ మో
కాస్మో టిక
కాస్మోటిక ్స్</w>
వినోద రంగానికి</w>
ఛ ార్
ఛార్ జీ
ఛార్జీ లు</w>
పెరిగ ాయి</w>
స్క్రీ న్ల</w>
ప్రదర్శ ితం</w>
దేశ మంతా</w>
తిరుగ ుతున్న</w>
ప్ర మో
ప్రమో ష
ప్రమోష న్ల
ప్రమోషన్ల లోనూ</w>
రి చ్</w>
నె స్</w>
కనిపిస్త ోందని</w>
మూవీ ల
మూవీల కంటే</w>
దూసుకుపోత ోంది</w>
ప్రేక్షక ుల్లో</w>
వ ున్నాయి</w>
యూ ఏ</w>
సర్ టిఫిక
సర్టిఫిక ెట్</w>
ఓ వర్
ఓవర్ సీస్</w>
చా టి
చాటి ందని</w>
స ద్
సద్ గురు
సద్గురు డు</w>
వ్ర ా
వ్రా సె
వ్రాసె నాడు</w>
నీ రూపు</w>
నీ చక్క
నీచక్క న</w>
అబ్బ ా</w>
ధ ో
ధో నీ
ధోనీ ని</w>
చూప ించ
చూపించ రా</w>
సీ ఎస్</w>
సాక్ష ి</w>
నాయ ుడ
నాయుడ ితో</w>
పుర ంద
పురంద ేశ్వ
పురందేశ్వ రికి</w>
వార ి
వారి రు
వారిరు వు
వారిరువు రి</w>
శత్ర ుత
శత్రుత ్వం</w>
సార ్వ
సార్వ త్ర
సార్వత్ర ిక</w>
ఎన్నిక లలో</w>
విశాఖ ప
విశాఖప ట్నం</w>
చే ద్ద
చేద్ద ామ
చేద్దామ న
చేద్దామన ుకొ
చేద్దామనుకొ ంటే</w>
సీ టు</w>
దక్క కుండా</w>
బొ త్తి
బొత్తి గా</w>
అవ గా
అవగా హ
అవగాహ న</w>
రాజ ంపేట</w>
నియోజ క</w>
చేయ వలసిన</w>
దు స్థితి</w>
కల్ప ించి</w>
ఓటమ ికి</w>
ప రో
పరో క్షంగా</w>
కార కుల
కారకుల యిన</w>
వారెవర ో</w>
వి శాఖ</w>
ఉ జ
ఉజ ్వ
ఉజ్వ లంగా</w>
తె ర</w>
రాజకీయ ాల</w>
నష్ట పోయింది</w>
స్వయ ంశ
స్వయంశ క్త
స్వయంశక్త ితో</w>
ప్రతిభ తో</w>
ఎ ద
ఎద గ
ఎదగ గలి
ఎదగగలి గారు</w>
అధ్యక్షు ర
అధ్యక్షుర ాలుగా</w>
నియ మిత
నియమిత ుల
నియమితుల య
నియమితులయ ితే</w>
తె దే
తెదే పా
తెదేపా తో</w>
సంబంధ ాలు</w>
ఏ విధంగా</w>
ఉండ బోత
ఉండబోత ాయో</w>
ఊహ ించడం</w>
కష్ట మేమీ</w>
డీ ఎన్
డీఎన్ ఏ</w>
ఫి ంగ
ఫింగ ర్</w>
ప్రి ంట్స్</w>
ఆందోళన కర</w>
ఉన్న వారి</w>
వార ిక
వారిక ే</w>
పొ ంచి</w>
తే ట
తేట తెల్ల
తేటతెల్ల మైంది</w>
అసి ంప
అసింప ్ట
అసింప్ట మా
అసింప్టమా టిక్</w>
రోగ ుల్లోనే</w>
లో డు</w>
స్పష్ట మైంది</w>
గ్ర ేట
గ్రేట ర్</w>
శి వారు</w>
బ ార
బార ిన
బారిన పడిన</w>
2 10</w>
రోగ ుల</w>
సేకర ించి</w>
విశ్లేష ించిన</w>
9 5</w>
మంద ిలో</w>
క్ల ే
క్లే డ్</w>
స్ట ్రె
స్ట్రె యి
స్ట్రెయి ట్</w>
తేల ింది</w>
మ ించ
మించ ొ
మించొ ద్దు</w>
సమీ ర్</w>
వా ం
వాం ఖ
వాంఖ డే
వాంఖడే పై</w>
ఉండ ్ర
ఉండ్ర ుకు
ఉండ్రుకు డియ
ఉండ్రుకుడియ ాలో</w>
దీ ంతోపాటు</w>
ఆది పురు
ఆదిపురు ష్</w>
రాము డుగా</w>
కనిప ించన
కనిపించన ున్నాడు</w>
ఒత్తి డిలో</w>
ఉన్న వారు</w>
కా ఫీ
కాఫీ లు</w>
తాగ ుత
తాగుత ంటారు</w>
య ంలో</w>
భ ిస్తుంది</w>
సరఫ ర
సరఫర ాను</w>
మెరుగుప ర</w>
ర క్
రక్ తం</w>
గడ్డ కట్ట
గడ్డకట్ట కుండా</w>
మార్కె ట్లకు</w>
నిల వగా</w>
దేశ ీ
దేశీ యంగా</w>
విజృంభ ణ</w>
సూచీ లను</w>
కలవర పాట
కలవరపాట ుకు</w>
గు రి
గురి చేశాయి</w>
ఉదయ పు</w>
లాభ ాల</w>
సూచీ లు</w>
దశ లో</w>
నే ల
నేల చూప
నేలచూప ులు</w>
ఆసి యా</w>
ఐ రోప
ఐరోప ా</w>
సం కేత
సంకేత ాలు</w>
నష్ట ాల్ని</w>
నేపథ ్య
నేపథ్య ంలోనే</w>
మార్కె ట్లు</w>
ఊ గి
ఊగి స
ఊగిస లా
ఊగిసలా ట</w>
ప య
పయ నించ
పయనించ ాయి</w>
ఫొటో లోని</w>
పట్ట ారా</w>
టిస్త ోన్న</w>
సూ యి</w>
ధా గా</w>
సినిమ ాలోని</w>
చ ల్</w>
దిగ ాలుగా</w>
కూర్ చు
కూర్చు ని</w>
పట్ట లే
పట్టలే న
పట్టలేన ంతగా</w>
దృష్ట ినీ</w>
ఆకర్ష ించింది</w>
తమిళ నా
తమిళనా డు
తమిళనాడు లో</w>
లెక్కి ంపు</w>
కొనసాగ ుతున్న
కొనసాగుతున్న ది</w>
2 34</w>
సీ ట్ల
సీట్ల లో</w>
దూసుకుపోత ున్న
దూసుకుపోతున్న ది</w>
ఏ ఐ
ఏఐ ఏ
ఏఐఏ డీఎంకే</w>
ముంద ంజలో</w>
ప్రతి ప
ప్రతిప క్ష</w>
కొల త్తూర్</w>
లీ డ్</w>
ఉదయ ్</w>
చెప క్</w>
వెనక బ
వెనకబ డి
వెనకబడి పోయారు</w>
ఎడ ప్ప
ఎడప్ప ా
ఎడప్పా డిలో</w>
ప ళ
పళ ని
పళని స్వామి</w>
ముంద జ
ముందజ లో</w>
కొనసాగ ుత
కొనసాగుత ుండగా</w>
బో డి
బోడి నాయ
బోడినాయ క్క
బోడినాయక్క న్న
బోడినాయక్కన్న ూర్</w>
పోటీ చేసిన</w>
ఉప ముఖ్యమంత్రి</w>
పన్న ీ
పన్నీ ర్</w>
సెల ్వం</w>
ప్రత్య ర్థ
ప్రత్యర్థ ుల
ప్రత్యర్థుల కంటే</w>
వెనక పడి
వెనకపడి పోయారు</w>
కో య
కోయ ంబ
కోయంబ త్తూర్</w>
కమ లా
కమలా సన్</w>
వెనక ంజలో</w>
గ ట్ట
గట్ట ిగా</w>
తా క
తాక ినప్పుడు</w>
పంచ ింగ్</w>
ఏంట ో</w>
ఫ్యామిల ీ</w>
ఎ మో
ఎమో షనల్</w>
అక్క డ
అక్కడ క్క
అక్కడక్క క్
అక్కడక్కక్ స</w>
ఆడియ ె
ఆడియె న్స్</w>
ఆకట్ట ుకుంట
ఆకట్టుకుంట ాయి</w>
పాట ల్ల
పాటల్ల ోని</w>
డ్యా న్స్</w>
క ిక్</w>
అంచ నాలను</w>
అందుకో లే
అందుకోలే దనే</w>
సంగీ త
సంగీత ంతో</w>
మెప్ప ించలేకపోయ
మెప్పించలేకపోయ ాడు</w>
పని త
పనిత నం</w>
ప్ల స్</w>
ఫె స్టి
ఫెస్టి వల్</w>
సీ జన్</w>
అవ ుతుంద
అవుతుంద ో</w>
వె ండి</w>
తె రకు</w>
చంద ాల</w>
నాయక నగ
నాయకనగ ూడ
నాయకనగూడ ెంలో</w>
ఫె యిర్</w>
జూ లూరు</w>
కో దా
కోదా డ</w>
తమ్మ ర
తమ్మర బండ</w>
పాల ెంలో</w>
ప్రతిష్ట ాత్మ
ప్రతిష్టాత్మ కమైన</w>
సీ తార
సీతార ామ
సీతారామ చంద్ర</w>
దేవ ాలయం</w>
శ ిలా
శిలా ఫల
శిలాఫల క
శిలాఫలక ంపై</w>
చె క్క
చెక్క ించాలని</w>
గీ తాన్ని</w>
రా వె
రావె ళ్ల</w>
వెంక ట్ర
వెంకట్ర ామ
వెంకట్రామ ారావు</w>
విగ్రహ ాన్ని</w>
నెల ొ
నెలొ కొ
నెలొకొ ల్ప
నెలొకొల్ప ాలని</w>
ఖమ్మ ంలోని</w>
గ్రంథ ాలయ</w>
విస్మర ించ
విస్మరించ బడిన</w>
సాహిత ీ
సాహితీ మూ
సాహితీమూ ర్
సాహితీమూర్ తులను</w>
భావి తర
భావితర ాలకు</w>
తెలియజే సే
తెలియజేసే ందుకు</w>
పేరు న</w>
స్ మృ
స్మృ తి</w>
నెలకొల్ప ాలని</w>
చేయ ని</w>
పరిష్ కర
పరిష్కర ించడానికి</w>
అన్న ి
అన్ని టిక
అన్నిటిక న్నా</w>
సుల భ
సులభ మైన</w>
మార్ గం</w>
డేట ా</w>
ఎంపిక ను</w>
ఆ పి
ఆపి వేసి</w>
ప్రారంభ ించడం</w>
సె ట్ట
సెట్ట ి
సెట్టి ంగుల</w>
మె న
మెన ుకు</w>
వెళ్ళ వచ్చు</w>
నిలి పి
నిలిపి వేయ
నిలిపివేయ వచ్చు</w>
పై భాగంలో</w>
ప్యాన ెల్</w>
డి స్ప
డిస్ప ్ల
డిస్ప్ల ే</w>
దిగు వ
దిగువ న</w>
జగర్లగ్ నం</w>
చై త్ర
చైత్ర మాస
చైత్రమాస మున</w>
మ ేష
మేష రాశి</w>
ప్రవేశ కాల
ప్రవేశకాల ము</w>
తుల ా</w>
లగ్ నంలో</w>
ప్రవేశ ము</w>
జరిగ ిన
జరిగిన ది</w>
లగ్ నా
లగ్నా దిగా</w>
కేత ువు</w>
చంద్ర ుడు</w>
శ ని</w>
కు జ
కుజ ుడు</w>
బుధ ుడు</w>
శుక ్రుడు</w>
రాహ ువు</w>
సంచ రించ
సంచరించ ుచ
సంచరించుచ ున్నారు</w>
వర్ష </w>
జగర్లగ్ న</w>
గ్రహ </w>
సం ప
సంప త్తి
సంపత్తి ని</w>
పరిశీల ించగా</w>
స రికొ
సరికొ త్త</w>
ఆ ఫ్ఘ
ఆఫ్ఘ నిస్త
ఆఫ్ఘనిస్త ాన్</w>
బయట కొ
బయటకొ స్తున్న</w>
ప్రభుత్వ ో
ప్రభుత్వో ద్య
ప్రభుత్వోద్య ోగ
ప్రభుత్వోద్యోగ ులపై</w>
గడ ప</w>
దా ట
దాట ొద్దని</w>
వార్ నింగ్</w>
సంవత్సర ాలుగా</w>
పరిక రాల</w>
నిల కడ
నిలకడ గా</w>
రాణ ిస్తూ</w>
రా బడుతున్న</w>
శ కాన
శకాన ా
శకానా కి</w>
నా ంది</w>
స్ట్ర ్రీట్</w>
వర్ష న్
వర్షన్ లో</w>
ఆర్ న
ఆర్న మెంట్</w>
డా గ్</w>
పె ండ
పెండ ెంట్</w>
ఆ కృ
ఆకృ తిలో</w>
డి జ
డిజ ైన</w>
కాబ డ్డ</w>
గ ్యా
గ్యా డ్జెట్</w>
మెడ లో</w>
గొ లు
గొలు సుల
గొలుసుల ా</w>
వేస ుకోవచ్చు</w>
ఆధార ితంగా</w>
చేసుకోవ ల్
చేసుకోవల్ సి</w>
బొ ంబ
బొంబ ాయి</w>
స్టా క్</w>
ఎక్స్ ఛ
ఎక్స్ఛ ే
ఎక్స్ఛే ంజ్</w>
బా ండ్ల</w>
విక్ర యం</w>
ప్రారంభ ం</w>
ఇన్ వె
ఇన్వె స్ట
ఇన్వెస్ట ర్ల</w>
స్పంద న</w>
కనిప ించడంతో</w>
సీ ఆర్
సీఆర్ డీ
సీఆర్డీ య
సీఆర్డీయ ే</w>
కా పి
కాపి టల్</w>
అథ ారిటీ</w>
నిర్మాణ ానికి</w>
నిధ ుల</w>
సమీ కరణ</w>
సేకర ించాలని</w>
బా ండ్లను</w>
ఎంత ో
ఎంతో సి
ఎంతోసి యాని
ఎంతోసియాని న్స్</w>
బూ జు</w>
తె గులు</w>
సినిమ ాలలో</w>
నటి స్తూ</w>
బి జీ</w>
ఉండ డం</w>
ప్రేమ ించడానికి</w>
దొరక లేదని</w>
అంతే గా
అంతేగా క</w>
అందువల్ల నే</w>
వ్యవహార ాలకు</w>
ఉన్న ానని</w>
భ ువ
భువ నే
భువనే శ్వ
భువనేశ్వ ర్</w>
జ స్
జస్ ప్రీ
జస్ప్రీ త్</w>
బు మ్ర
బుమ్ర ాలు</w>
చె రో</w>
కంగ ార
కంగార ూ
కంగారూ లకు</w>
కళ్ల ె
కళ్లె ం</w>
చా హల్</w>
తీస ుకున్నాడు</w>
సె ంచ
సెంచ రీ
సెంచరీ తో</w>
విజయ ానికి</w>
అవార్ డు</w>
దక్క ింది</w>
తర్వా తి</w>
ఆడ నుంది</w>
వె చ్చ
వెచ్చ ని</w>
వస్త్ర ం
వస్త్రం ను</w>
ము ంచి</w>
గడ్ డం</w>
చ ర్మ
చర్మ ం</w>
మృదువ ుగా</w>
సడ ల
సడల ించి</w>
కర్ నూ
కర్నూ లు</w>
అల ్ట
అల్ట ్రా</w>
సి మెంట్</w>
స్ మూ
స్మూ తీ
స్మూతీ స్</w>
ఎనర్ జి
ఎనర్జి టిక్</w>
ఫీ లింగ్</w>
కలిగ ిస్త
కలిగిస్త ాయి</w>
బ్ల డ్</w>
లె వెల
లెవెల ్స్</w>
తగ్గ ించి</w>
ఆ కల
ఆకల ి</w>
పెంచ డానికి</w>
కారణ మవ
కారణమవ ుతాయి</w>
మధ్య ప్రదేశ్</w>
ఎనర్ జీ</w>
ధై ర్యాన్ని</w>
అందించ ిందట</w>
మూవీ స్</w>
చేయ కూడదు</w>
భాజపా తో</w>
కొనసాగ ాలని</w>
అనుకుంట ుండగా</w>
టి డిప
టిడిప ితో</w>
పరి స్
పరిస్ ధ
పరిస్ధ ిత
పరిస్ధిత ుల్ల
పరిస్ధితుల్ల ోనూ</w>
భాజ పాల
భాజపాల ోని</w>
అభిప్ర ాయ
అభిప్రాయ పడుతున్నారు</w>
నేపధ్య ంలోనే</w>
చర్చ ల్లో</w>
న ాన
నాన ుతోంది</w>
ఏ ళ్ళ
ఏళ్ళ క్రితం</w>
పర దేశ
పరదేశ ి</w>
వచ్చ ాడు</w>
గ్రామ పెద్ద
గ్రామపెద్ద ను</w>
క చే
కచే రి</w>
కార్య ాలయ
కార్యాలయ ంలో</w>
పది మంది</w>
పెద్ద లతో</w>
అయ్య ా</w>
బల శ
బలశ ాలిని</w>
మల్ల యోధ
మల్లయోధ ు
మల్లయోధు డిని</w>
కు స్త
కుస్త ీలు</w>
పట్ట ే</w>
వస్త ా
వస్తా దును</w>
బ లాన్ని</w>
పరీ క్ష
పరీక్ష ించి</w>
తగ ిన</w>
బహు మతి</w>
ఇవ్వ ండి</w>
విన యంగా</w>
కో రాడు</w>
ఏ రిక
ఏరిక ో
ఏరికో రి</w>
తెచ్చ ుకొ
తెచ్చుకొ న్న</w>
శబ్ద ాలు</w>
భూ మిల
భూమిల ో
భూమిలో ంచి</w>
వ స్తున్న
వస్తున్న ట్టు</w>
గుర్తి ంపు</w>
సహ కర
సహకర ించారు</w>
చె న్న
చెన్న ై</w>
తీసుకొ స్తుండగా</w>
తిరువ ళ్లూరు</w>
వే పంప
వేపంప ట్టి</w>
స రైన</w>
ఆధార ాలు</w>
ఫ్ల ై
ఫ్లై యింగ్</w>
స్ క్
స్క్ వా
స్క్వా డ్</w>
చూప ిన</w>
ఆధార ాలతో</w>
సంతృ ప్తి</w>
1 38
138 1</w>
కిలో ల</w>
సుర క్ష
సురక్ష ితంగా</w>
చేర్చ ారు</w>
కన్నీ ళ్ల
కన్నీళ్ల కే</w>
షా ప్</w>
వేదిక లకు</w>
కు ర్చ
కుర్చ ీలు</w>
ఎ ప్ప
ఎప్ప ు
ఎప్పు డిస్త
ఎప్పుడిస్త రో</w>
అడుగు ద
అడుగుద ామని</w>
పో నిస్త
పోనిస్త లేరు</w>
ఇబ్బంద ుల్లో</w>
కా కుంటే</w>
చెప్ప ుకోవ
చెప్పుకోవ ాలె</w>
తీ రు
తీరు స్త
తీరుస్త రు</w>
నిమిష ాల్లో</w>
పోయ ి</w>
వస్త </w>
కు దర
కుదర దు</w>
అంట ున్న
అంటున్న రు</w>
దీ పో
దీపో త్స
దీపోత్స వ</w>
గి న్న
గిన్న ీ
గిన్నీ స్</w>
రికార్ డ
రికార్డ ుల
రికార్డుల లోకి</w>
ఎక్క ింది</w>
దీ పావ
దీపావ ళ
దీపావళ ి</w>
సమయ ంలోనూ</w>
8 4</w>
57 2</w>
వెలిగ ించి</w>
తిరగరా సింది</w>
దీపాల లో</w>
సర యు</w>
తీ రా
తీరా న</w>
పై డీ</w>
ఘా ట్</w>
అయోధ్య లోని</w>
మ ఠ
మఠ ాల్లో</w>
దీ ప</w>
ప్రజ ్వ
ప్రజ్వ ల
ప్రజ్వల న</w>
దీ పాల</w>
ప్రదర్శ న</w>
నిర్వహించ ిన
నిర్వహించిన ంద
నిర్వహించినంద ుకు
నిర్వహించినందుకు గాను</w>
మనో హ
మనోహ ర్</w>
లో హి
లోహి యా</w>
అవ ధ
అవధ ్</w>
రికార్ డ్స్</w>
స బ
సబ బ
సబబ ే</w>
వృ థ
వృథ ాను</w>
అ రిక
అరిక ట్ట
అరికట్ట ాలి</w>
విరుచుకు పడ్డారు</w>
వ్యవస్థ ాప
వ్యవస్థాప కుడు</w>
థాకర ేను</w>
అభిమానించ ే
అభిమానించే వారిలో</w>
మహ ామ
మహామ హ
మహామహ ుడు</w>
సా హె
సాహె బ్</w>
ఒకర ని</w>
కాంగ్రె సు
కాంగ్రెసు గా</w>
మార ిపోత
మారిపోత ుంద
మారిపోతుంద ే
మారిపోతుందే మో
మారిపోతుందేమో నని</w>
భయ పడ్డ
భయపడ్డ ారని</w>
కంగ నా</w>
మాన స
మానస ిక</w>
గు రై
గురై </w>
ఉండే వార
ఉండేవార ో</w>
ఊహ ించ
ఊహించ గల
ఊహించగల రా</w>
అడి గారు</w>
టిక ె
టికె ట్ల</w>
రే టు</w>
మాట్లాడ ిన</w>
చంద్రబాబు ని</w>
తిట్ట ినట్టుగా</w>
తిట్ట లే
తిట్టలే ద
తిట్టలేద న్న</w>
మొక్క జొన్న</w>
ఊ ద
ఊద ుతున్న
ఊదుతున్న దె
ఊదుతున్నదె వర
ఊదుతున్నదెవర ు</w>
ఆయ నే
ఆయనే నా</w>
మ ెల
మెల ో
మెలో డి</w>
గీ త
గీత ాలతో</w>
యువ తను</w>
దా దా</w>
జి ంద
జింద ా
జిందా బాద్</w>
మహా త్
మహాత్ మా
మహాత్మా గాంధీ</w>
స్ఫూర్ తిని</w>
తెలిప ే</w>
పాట నంద
పాటనంద ించారు</w>
గీ తం</w>
గాంధీ యి
గాంధీయి జం</w>
ఆ వ
ఆవ శ్య
ఆవశ్య క
ఆవశ్యక తను</w>
తెలియ జె
తెలియజె ప్పింది</w>
ఆ వేశ
ఆవేశ ం</w>
చిరు న
చిరున వ్వ
చిరునవ్వ ే</w>
అ హి
అహి ంస
అహింస ా</w>
మార్ గా
మార్గా న</w>
నడ వాలని</w>
హిత బోధ</w>
చేస్తుంద ీ</w>
పా ట</w>
అరాచ కాలను</w>
సు ద్ద
సుద్ద ాల</w>
తే జ</w>
చైత న్య
చైతన్య వంత
చైతన్యవంత మైన</w>
సాహిత ్యం</w>
పాట ను</w>
ఆల ప
ఆలప ించి</w>
గాంధ ీపై</w>
ప్రేమ ను</w>
చాట ుకున్నారు</w>
గాయ కుడు</w>
య ంలోనే</w>
చేస ుకున్నాడు</w>
అప్పుడ ే</w>
ఏ మైంది</w>
ఏ మ</w>
న్న ాడు</w>
అనుకో క
అనుకోక ండి</w>
మే మ
మేమ ంటే</w>
సీ ని
సీని య</w>
విక ్ట</w>
సంద </w>
ర్భ ంగా</w>
ఇండ </w>
ముఖ ులంద</w>
ర్ త్</w>
విష ె
విషె ష్</w>
జే సిన</w>
ముంద ుక
ముందుక ేసి</w>
దు ప</w>
ఇచ్ చేశాడు</w>
రాజ ుతో</w>
బోతున్న ా
బోతున్నా డ</w>
య ంలోకి</w>
ర్శ </w>
త్వ ంలో</w>
రు ణ్</w>
తే జ్</w>
మె హ</w>
రీ న్</w>
లి సి</w>
ఫ </w>
రై డ</w>
మో దు</w>
చేస్త ామ</w>
ఎ ప్పుడ
ఎప్పుడ ో</w>
ఎ ట్ట</w>
కే ల</w>
స్టార ్ట్</w>
తొల ుత</w>
గుర్త ించిన
గుర్తించిన ప్పుడు</w>
ప సి
పసి గ
పసిగ ట్టే</w>
ఉండే వి</w>
మార ిపోయ
మారిపోయ ిందని</w>
నిపుణ ులు</w>
అ టాక్</w>
కనిప ించని</w>
శరీర ంలోని</w>
అవ యువ
అవయువ ాల్ని</w>
దెబ్బ </w>
పోయ ేలా</w>
చేస్తుంద న్న</w>
మర ే</w>
ఆసుపత్ర ుల్లో</w>
చేర ే</w>
ప ేష
పేష ెంట
పేషెంట ్లలో</w>
9 0</w>
ఆక్సి జన్</w>
అవసర మవ
అవసరమవ ుతోంది</w>
వి పరీ
విపరీ త
విపరీత మైన</w>
శ్ వాస
శ్వాస కో
శ్వాసకో శ</w>
సమస్య ల్ని</w>
ఎదుర్కొ ంటున్నారు</w>
పలువు రికి</w>
వెంట ిల
వెంటిల ేట
వెంటిలేట ర్ల
వెంటిలేటర్ల ను</w>
ఇవ్వ ాల్సి</w>
వస్త ోందని</w>
ఇద ంతా</w>
చూ సి
చూసి ప్పుడు</w>
విస్తరి స్తున్న</w>
తప్ప దు</w>
అను సర
అనుసర ించ
అనుసరించ ండి</w>
ప్రపంచ ంలోని</w>
భారత దేశంలో</w>
చర్చ ించారు</w>
చెప్ప ినట్లు</w>
ఒక్క రికి</w>
అంద ించే</w>
కలిగ ిన</w>
వృద్ధ ులు</w>
యూ రోప
యూరోప ియన్</w>
కోర ుకుంటారు</w>
రి పబ్లిక్</w>
వినియోగ ాలు</w>
తిన డానికి</w>
పె న్షన్</w>
ని వ
నివ సి
నివసి స్తున్న</w>
ప్ర ియ
ప్రియ మైన</w>
సమ క్ష
సమక్ష ంలో</w>
వృద్ధ </w>
గౌర వ
గౌరవ ంగా</w>
సౌకర్య ంగా</w>
ఏ లేరు</w>
అతిథ ిగ
అతిథిగ ృ
అతిథిగృ హ
అతిథిగృహ ంలో</w>
నిర్వహి స్తున్న</w>
ఫిర్యాద ుల</w>
ప్రత్యే క
ప్రత్యేక ించి</w>
విజయ కుమార్</w>
ప్రతి నిధులు</w>
వై వీ</w>
అను రా
అనురా ధ
అనురాధ </w>
భాస్ కర
భాస్కర రావు</w>
ఫిర్యాద ులను</w>
స్వీకర ించడం</w>
వా ట
వాట న్ని
వాటన్ని ంట
వాటన్నింట ినీ</w>
పరిశీల ించే</w>
కార్య క్రమాన్ని</w>
టా ంప
టాంప రింగ్</w>
వాటి పై
వాటిపై నే</w>
దృష్ట ి
దృష్టి పెట్టాలని</w>
నిర్ణయ ించింది</w>
19 50</w>
ల్ల ోనే</w>
దేశ ాల్లోని</w>
మైన ారిటీ
మైనారిటీ ల</w>
అప్ప ట్ల
అప్పట్ల ోనే</w>
చేస ుకున్నారు</w>
దా న్నే</w>
నె హ
నెహ ్రు</w>
లి యా
లియా ఖ
లియాఖ త్</w>
ప్యా క్ట్</w>
అంట ు
అంటు ంట
అంటుంట ాము</w>
లో గో</w>
ముద్ర ించిన</w>
చేస్తున్నార ంటూ</w>
నిలదీ శాడు</w>
నిర్ల క్ష్యంగా</w>
బె జ్
బెజ్ జం</w>
చెల్ల ించిన</w>
పే ప
పేప ర్</w>
బ్యా గ్
బ్యాగ్ ను</w>
జ త
జత చేర్చ
జతచేర్చ ి</w>
వినియోగ దార
వినియోగదార ుల</w>
న్యాయస్థాన ాన్ని</w>
ఆ శ్ర
ఆశ్ర య
ఆశ్రయ ించాడు</w>
విచార ించిన</w>
ఫిర్యాదు దార
ఫిర్యాదుదార ుడ
ఫిర్యాదుదారుడ ికి</w>
పరిహార ంగా</w>
వే లు</w>
జార ీ
జారీ చేసింది</w>
గత ంలోనూ</w>
చోటు చేసుకున్న
చోటుచేసుకున్న ాయి</w>
అయిన ప్పటికీ</w>
మాల ్స్</w>
తీ రులో</w>
మార్ప ు</w>
కర్ ణా
కర్ణా ట
కర్ణాట క
కర్ణాటక లోనూ</w>
గుజరా త్</w>
ఫలిత ాలా</w>
గ్రహ ాలకు</w>
విస్తరి స్తుంది</w>
నటి స్తున్నాడు</w>
అ </w>
కమ ర్ష
కమర్ష ియ
కమర్షియ ల్</w>
తీసుకొ స్తే</w>
పేర ుకు</w>
తగ్గ ట్లే</w>
అడ వి</w>
శ ేష్</w>
వీ టితో</w>
పాట ే</w>
నిర్మాణ ంలో</w>
దీ ప్తి</w>
దర్శకు రాలిగా</w>
వాల ్య
వాల్య ూ</w>
ప్ర ధాన
ప్రధాన ంగా</w>
అడు గులు</w>
వే స్తున్నాడు</w>
చేస్తున్న ాడు</w>
తెరకెక్క ిస్తున్న</w>
తీ రు</w>
ఓ టీ
ఓటీ టీ</w>
వర స</w>
వస్తుండ టం</w>
ఆసక్తికర మే</w>
వే లంలో</w>
కొద్ది సేప
కొద్దిసేప టి</w>
సంచల న
సంచలన మే</w>
సౌ రాష్ట్ర</w>
జయ దే
జయదే వ్</w>
బే స్</w>
ప్రై స్</w>
అత న్ని</w>
ఫ్రాంచ ైజీ
ఫ్రాంచైజీ ల
ఫ్రాంచైజీల న్నీ</w>
పడ్డ ాయి</w>
చూస్త ుండ
చూస్తుండ గానే</w>
క నీ
కనీ స</w>
రె ట్లు</w>
పెరిగ ిపోయింది</w>
రాయ ల్స్</w>
ఫ్రాంచ ై
ఫ్రాంచై జీ</w>
ముఖ ్యం</w>
ఇండియా తో</w>
భాగస్వా మ్యా
భాగస్వామ్యా న్ని</w>
కోర ుతున్న
కోరుతున్న ాం</w>
గ మే
గమే లియా</w>
ఇవ్వ గల</w>
తగ్గ ట్టుగా</w>
చేయ ాలంటే</w>
ఫార్ మా</w>
కంపెనీ లతో</w>
భాగస్వా మ
భాగస్వామ ్యం</w>
సాగ ిస్తున్న
సాగిస్తున్న ాం</w>
దేశ ాల</w>
ఉంట ేనే</w>
దగ్గ రవ
దగ్గరవ ుతుందని</w>
గ ెంట
గెంట ే
గెంటే వేయ
గెంటేవేయ లేదు</w>
వ ని
వని త</w>
చైర్మ న్ల
చైర్మన్ల ుగా</w>
అభిన ంద
అభినంద ించారు</w>
భ విష
భవిష ్య
భవిష్య త్తులో</w>
అ ంక
అంక ిత
అంకిత మై</w>
సాగ ుతామని</w>
ఎన్నిక లను</w>
సమర్థ ంగా</w>
ఎదుర్కో గల
ఎదుర్కోగల మా</w>
కలి గి
కలిగి ందని</w>
అభిమాన ంతో</w>
గెల ిప
గెలిప ించారని</w>
విజయ ాలను</w>
అంద ిస్తుందని</w>
లోక సభ
లోకసభ </w>
4 1</w>
గెలుచ ుకుంట
గెలుచుకుంట ామని</w>
ధ ీ
ధీ మా</w>
స్ఫూర్ తి</w>
స జీ
సజీ వ
సజీవ ంగ
సజీవంగ ానే</w>
రో శ
రోశ య్య</w>
నాయకత్వ ంలో</w>
మన్ మోహన్</w>
అందిస్తున్న ారని</w>
కాంగ్రె స
కాంగ్రెస ుకు</w>
చే కూ
చేకూ రు
చేకూరు స్తుందని</w>
ఎగి రిగ
ఎగిరిగ ంత
ఎగిరిగంత ేస
ఎగిరిగంతేస ే</w>
చెయ్య లేదు</w>
క్ల ు
క్లు ప్తంగా</w>
ఇంత టి</w>
అవ మనం</w>
నే నె
నేనె ప్పుడూ</w>
పొంద లేదు</w>
ఇం కె
ఇంకె వర్
ఇంకెవర్ న
ఇంకెవర్న యి
ఇంకెవర్నయి నా</w>
ప్రతీ కారం</w>
తీర్చ ుకునే
తీర్చుకునే వాడి
తీర్చుకునేవాడి నే</w>
నిర్ మొ
నిర్మొ హ
నిర్మొహ మాట
నిర్మొహమాట త్వం</w>
బహు శ</w>
నా కూతు
నాకూతు ర్
నాకూతుర్ ని</w>
రక్ష ిస్త
రక్షిస్త ూ
రక్షిస్తూ ంది</w>
న చ్చింది</w>
డబ్బ ుని</w>
వా ళ్ళు</w>
అ ర
అర టి
అరటి పండ
అరటిపండ ుని</w>
కో తుల
కోతుల ూ</w>
వు ంటాయి</w>
కో తిని</w>
కొండ మీద
కొండమీద నుంచి</w>
ది ంప
దింప ే</w>
చెయ్య కుండా</w>
వ చ్
వచ్ చేశ
వచ్చేశ ాను</w>
నో ట్
నోట్ బ
నోట్బ ుక
నోట్బుక ్లు</w>
నిద్ర ా
నిద్రా ణ
నిద్రాణ స్థితికి</w>
ఎ నే
ఎనే బుల్</w>
దీని లో</w>
మూసి వేయ
మూసివేయ డం</w>
పరిష్కరించ బడుతుంది</w>
ఉపయోగ ిస్తుంది</w>
మూసి వే
మూసివే సి
మూసివేసి న
మూసివేసిన ప్పుడు</w>
నిర్వహ ణ</w>
బ టన్</w>
ఆ విధంగా</w>
పా స్వర్
పాస్వర్ డ్
పాస్వర్డ్ ను</w>
అభ్యర్థ ిస్తోంది</w>
మే ల్
మేల్ కొ
మేల్కొ నే</w>
స్థ ి
స్థి ర</w>
అమ ర్చ
అమర్చ వచ్చు</w>
అన ుకూ
అనుకూ లీకరణ</w>
ఎంపిక లు</w>
సె షన్</w>
ని ష్
నిష్ క్రమ
నిష్క్రమ ించడానికి</w>
రా సే
రాసే వారు</w>
రి యా
రియా క్షన్</w>
మె కా
మెకా నిజం</w>
స్టీ రియో</w>
ఎ సె
ఎసె మి
ఎసెమి ట్ర
ఎసెమిట్ర ిక్</w>
సిం థ
సింథ సిస్</w>
కన్ఫ ర్మ
కన్ఫర్మ ేష
కన్ఫర్మేష నల్</w>
అన ాలి
అనాలి సిస్</w>
స్పె క్
స్పెక్ ట్రో
స్పెక్ట్రో స్
స్పెక్ట్రోస్ కో
స్పెక్ట్రోస్కో పి</w>
రియ ే
రియే జె
రియేజె ంట్స్</w>
పె రి
పెరి సై
పెరిసై క్లిక్</w>
కా ంతి</w>
ర సాయ
రసాయ న
రసాయన శాస్త్రం</w>
అంశ ాల
అంశాల నూ</w>
సం శ
సంశ ్ల
సంశ్ల ి
సంశ్లి ష్ట</w>
అన లిటికల్</w>
బయ ో</w>
కర్ బ
కర్బ న</w>
లో హ</w>
మె టల్</w>
క్ల స్ట
క్లస్ట ర్స్</w>
అను వర్
అనువర్ త
అనువర్త ిత</w>
విశ్లేష ణా
విశ్లేషణా త్మ
విశ్లేషణాత్మ కంగా</w>
చదవ ాలి</w>
నాగ ేశ్వ
నాగేశ్వ ర
నాగేశ్వర రావు</w>
0 1</w>
4 75</w>
ఇక్క డి</w>
ఆహార ాన్ని</w>
పాడ వ
పాడవ కుండా</w>
ఉంచ ేందుకు</w>
శ ీ
శీ త
శీత లీకరణ</w>
పద్ధ తులు</w>
పాటి స్తారు</w>
ఎస్ పీకి</w>
ము గ్
ముగ్ గురు</w>
వీల ుందని</w>
ఉంట ున్నారని</w>
గార్ డెన్</w>
పెద్ద దిగా</w>
ప్రభుత్వ మే</w>
తో ట
తోట మ
తోటమ ాలి</w>
నియమ ించింద
నియమించింద న్నారు</w>
పని చేయడం</w>
అసా ధ్య
అసాధ్య మని</w>
వాస్త వ
వాస్తవ ానికి</w>
బంగ్ల ాల్లో</w>
సేవ క
సేవక ుల</w>
సిద్ధ రామ
సిద్ధరామ య్య</w>
స్ వస్త
స్వస్త ి</w>
201 6</w>
3 000</w>
బంగ్ల ాల</w>
తొలగ ించింది</w>
అలాంట ప్పుడు</w>
ఉంట ోన్న</w>
ఊ డి
ఊడి గం</w>
చేసే ది</w>
ఆమె కే</w>
తెలియ ాలి</w>
చి రు</w>
ముఖ ్య</w>
అతి ధ
అతిధ ిగా</w>
రంగ స్థ
రంగస్థ లం</w>
ప్రీ రిలీజ్</w>
నర్ సింహ
నర్సింహ రెడ్డి</w>
అన ార
అనార ోగ
అనారోగ ్య</w>
సమస్య లతో</w>
ఆస్పత్ర ిలో</w>
బుధ వారం</w>
అర్ధ రాత్రి</w>
తు ది
తుది శ్
తుదిశ్ వా
తుదిశ్వా స</w>
వి డిచ
విడిచ ారు</w>
అనే క
అనేక మంది</w>
ప్ర ముఖ
ప్రముఖ ులు</w>
ప్ర టించారు</w>
టీపీ సీసీ</w>
నర్ సిం
నర్సిం హార
నర్సింహార ెడ్డి</w>
నిఖ ార్
నిఖార్ సి
నిఖార్సి యిన</w>
ఆ క
ఆక స్
ఆకస్ మిక</w>
మృతి పట్ల</w>
ప్ర గా
ప్రగా ఢ
ప్రగాఢ </w>
స ాను
సాను భూ
సానుభూ తిని</w>
19 6
196 9</w>
దశాబ్ద ాలు</w>
ఆరంభ ంలోని</w>
ఈయ న</w>
రె మ్య
రెమ్య ున
రెమ్యున రేషన్</w>
199 7</w>
న టు
నటు డిగా</w>
అయ ్యాడు</w>
గు ణ
గుణ శేఖర్</w>
కథ న
కథన ంభ
కథనంభ ర్త</w>
బీ రు</w>
తాగ ని
తాగని వ్వ
తాగనివ్వ ట్ల
తాగనివ్వట్ల ేదు</w>
వి డా
విడా కులు</w>
కోరి న</w>
న శేష
నశేష ా</w>
న్ వి
న్వి హిత
న్విహిత ాన్</w>
హ రే</w>
వీ ట్</w>
పో ల
పోల వర
పోలవర ం</w>
ఆప ాలని</w>
మావ ో
మావో ల</w>
విధ్వ ంసం</w>
ఇండ క్షన్</w>
కుక్క ర్లు</w>
గా జు</w>
కంటై నర్</w>
అ సం
అసం భవం</w>
వేయ ించడానికి</w>
ఆహార ాలు</w>
కంటై న
కంటైన ర్లు</w>
వ్యా సం</w>
ఫె ర్ర
ఫెర్ర ో</w>
అయ స్కా
అయస్కా ంత</w>
లక్ష ణ
లక్షణ ాలను</w>
ఇంత కు
ఇంతకు ముందే</w>
చెప్ప ినట్టు</w>
F </w>
O </w>
పరి గణ
పరిగణ లోకి</w>
బ రువు</w>
కుక్క ర్</w>
ప్రతి దీ</w>
మిల ీ
మిలీ నియ
మిలీనియ ల్ల
మిలీనియల్ల </w>
తర ానికి</w>
ప్రాము ఖ్య
ప్రాముఖ్య త</w>
ట్యా గ
ట్యాగ ్ల</w>
అర్ధ వంత
అర్ధవంత ం</w>
వ్యాపార </w>
నమూ నా</w>
చూప ిస్తుందని</w>
నిర్ధార ించుకోండి</w>
సమతుల ్య</w>
చూడ ాలన
చూడాలన ుకుంటున్న
చూడాలనుకుంటున్న ాను</w>
జ ంత
జంత ు</w>
సంఘ ర్ష
సంఘర్ష ణ
సంఘర్షణ ల</w>
నివార ణ</w>
కర్ నాట
కర్నాట కలో</w>
అన ర్
అనర్ హ
అనర్హ త</w>
వే ట
వేట ుకు</w>
గు రైన</w>
జే డీ</w>
ఎమ్మెల్యే ల్లో</w>
బీజేపీ లో</w>
చేరి పోయారు</w>
వీ రిలో</w>
టిక ్
టిక్ కె
టిక్కె ట్లు</w>
లభ ించాయి</w>
సీ ట్లను</w>
గెలుచ ుకోవ
గెలుచుకోవ డమే</w>
లక్ష ్య
లక్ష్య ంగా</w>
పావ ులు</w>
క దుప
కదుప ుతోంది</w>
అభ్యర్థ ుల</w>
అడుగ ుల
అడుగుల కి</w>
మ డు
మడు గులు</w>
ఒ త్త
ఒత్త ేలా</w>
చూడ డంతో</w>
గ ండి</w>
కొట్ట ేందుకు</w>
వ్యూహ ాలతో</w>
గ డ్డ</w>
పెట్ట బోతున్న
పెట్టబోతున్న ట్టు</w>
త ట్ట
తట్ట ుకోవ
తట్టుకోవ ాలంటే</w>
ఇక్క డే</w>
వ్యూహ ాల
వ్యూహాల కి</w>
ప దును</w>
అర్ ధం</w>
అయి వు
అయివు ంటుంది</w>
హ రిక
హరిక ృష్ణ</w>
దశ ద
దశద ిన</w>
కర్ మ</w>
కార్య క్ర
కార్యక్ర మా
కార్యక్రమా న్న</w>
జల వి
జలవి హార్</w>
సం ధర్
సంధర్ బ
సంధర్బ ంగా</w>
సన్నివేశ ం</w>
చోటు చేసుకుంది</w>
పిలిప ించ
పిలిపించ ుకుని</w>
త ాన
తాన ున్న
తానున్న ానంటూ</w>
చే తిలో</w>
చేయ ి</w>
ముచ్చ టిస్త
ముచ్చటిస్త ుండ
ముచ్చటిస్తుండ టం</w>
ఆకట్ట ుకుంది</w>
తల్ల ికి</w>
పాలి వ్వ
పాలివ్వ డం</w>
ఆ పే
ఆపే య్య
ఆపేయ్య ాలా</w>
అభి మ
అభిమ న్య
అభిమన్య ు</w>
ధ ై
ధై ర్యంగా</w>
చే సా
చేసా డు</w>
పెద్ద వారి</w>
ప్రశంస లను</w>
సై న్య
సైన్య ం
సైన్యం నకు</w>
భ యాన్ని</w>
కలిగ ించాడు</w>
పద మూడవ</w>
అర్ జున</w>
యుద్ధ భూమి
యుద్ధభూమి లో</w>
ద్రోణాచార ్య</w>
క మా
కమా ండర్</w>
సై న్య
సైన్య ంతో</w>
చక్ర వ్యూ
చక్రవ్యూ హం</w>
చేయ మని</w>
ఆదేశించ ేను</w>
వి చ్చ
విచ్చ ి
విచ్చి న్న
విచ్చిన్న ం</w>
చేయ గల</w>
సామ ర్
సామర్ ధ్యం</w>
అర్జు ను
అర్జును డికి</w>
ద్రోణాచార ్య
ద్రోణాచార్య ున
ద్రోణాచార్యున ికి</w>
నెల రోజుల</w>
ఎ ట్ట
ఎట్ట కే
ఎట్టకే లకు</w>
క్ర ూ
క్రూ యి
క్రూయి జ్</w>
న ౌ
నౌ కలో</w>
కోర్ట ుల
కోర్టుల న్నీ</w>
మ ంజ
మంజ ూరు</w>
నెల రోజులుగా</w>
ల ాయ
లాయ ర్లు</w>
ప్రయత్నిస్త ూనే</w>
ఏ వే
ఏవే వో</w>
అడ్డ ుకుంటోంది</w>
క్రా క్</w>
ప్ర ీ</w>
ఎర్ర చంద
ఎర్రచంద నం</w>
స్ మగ
స్మగ ్ల
స్మగ్ల ింగ్</w>
కనిప ించనున్న
కనిపించనున్న ాడని</w>
అడ ువ
అడువ ుల్లోనే</w>
తీయ న
తీయన ున్న
తీయనున్న ార
తీయనున్నార ట</w>
ఈ చిత్రానికి</w>
ఓ కే</w>
జరుగుత ొ
జరుగుతొ ంది</w>
కొట్ట ి
కొట్టి పడ
కొట్టిపడ ే
కొట్టిపడే సింది</w>
మూవీ కి</w>
అవ్వ గానే</w>
అధికార ికంగా</w>
ప్రక టిస్త
ప్రకటిస్త ామని</w>
మూడ ో</w>
హి ట్ల</w>
సినిమా పైన</w>
సెల క్టివ్</w>
ఎంచ ుకుంటుంది</w>
రాయ ాలో</w>
ఇన్ ఫ
ఇన్ఫ ో</w>
విద్యార్థ ులకు</w>
ఇవ్వ డం</w>
ఇ మెయిల్</w>
రక్ష ించ
రక్షించ బడింది</w>
అభ్యర్థ నలు</w>
సల హాలను</w>
వ్ర ాయ
వ్రాయ ాలో</w>
చేర వచ్చు</w>
పంచ ుకోవచ్చు</w>
ప్రకట న</w>
కోర ుకుంటే</w>
0 5
05 43</w>
9 50</w>
9 7</w>
8 7</w>
మొక్క ల</w>
హత్య కేసులో</w>
నిందిత ుడు</w>
బెదిరించ ాడ
బెదిరించాడ ంటూ</w>
అని శెట్టి</w>
నిందిత ు
నిందితు డైన</w>
బొ మ్మ
బొమ్మ తి</w>
ఆ వర
ఆవర ణ
ఆవరణ లోనే</w>
బెదిరించ ాడని</w>
సు బే
సుబే దారి</w>
ప్రా ణ
ప్రాణ హాని</w>
ఫిర్యాదు లో</w>
ఫిర్యా దును</w>
స్వీకర ించిన</w>
సె క్ష
సెక్ష న్ల</w>
న ో</w>
మరొక రిన
మరొకరిన ో</w>
తెచ్చ ుకుంట
తెచ్చుకుంట ారని</w>
నా దీ</w>
పూ చీ</w>
ఓట ేయ
ఓటేయ ండి</w>
అంట ారని</w>
మార ాలని</w>
ఇవ్వ డంపై</w>
భగ వంత
భగవంత ుడ
భగవంతుడ నే</w>
ఉన్న ాడో</w>
లే డ
లేడ ో</w>
ఉన్న ాడు</w>
సందే హాలను</w>
పెంచ ుకొని</w>
కా ంత
కాంత ిని</w>
రావ డానికి</w>
వీల ులే
వీలులే కుండా</w>
చేసుకొ ంటున్నారు</w>
ఇ టువ
ఇటువ ంట
ఇటువంట ి
ఇటువంటి వి</w>
జీవిత పు</w>
దళిత ులకు</w>
స్వర్ ణ
స్వర్ణ య
స్వర్ణయ ుగ
స్వర్ణయుగ ం</w>
రా బోత
రాబోత ోన్న
రాబోతోన్న ది</w>
ఆర్థ ిక
ఆర్థిక సాయం</w>
అంద ిస్తున్న</w>
చరిత్ర </w>
నియోజకవర్గ ంలోని</w>
మండ లాన్ని</w>
ఎంపిక చేయటం</w>
పథ కమ
పథకమ నే</w>
ప్రతి పక్ష
ప్రతిపక్ష ాల</w>
మాట లను</w>
దళిత ులు</w>
గుర్త ించాలి</w>
మండల మైన</w>
చార కొండ
చారకొండ ను</w>
సహకార ంతో</w>
అభివృద్ధ ిలో</w>
ఆ దర్శ
ఆదర్శ ంగా</w>
తీర్ చి
తీర్చి ది
తీర్చిది ద్ద
తీర్చిదిద్ద ుత
తీర్చిదిద్దుత ా</w>
రా త</w>
స్క ిల్</w>
ప్రొ ఫి
ప్రొఫి ష
ప్రొఫిష ియ
ప్రొఫిషియ న్సీ</w>
ప్ర క్రి
ప్రక్రి య</w>
నిర్వహ ిస్తారు</w>
లై ఫ్</w>
బ ాయ్</w>
సబ్బ ుల</w>
హింద ు
హిందు స్త
హిందుస్త ాన్</w>
యూ నీ</w>
లి వర్</w>
లి మి
లిమి టె
లిమిటె డ్</w>
వ్యతిరే క</w>
పోరాట ంలో</w>
వంత ుగా</w>
సాయ ాన్ని</w>
వ్యా ప్తి</w>
నిరోధ ించే</w>
శా నిటైజ
శానిటైజ ర్లు</w>
సబ్బ ులను</w>
ధర కే</w>
అందిస్తున్న ట్లు</w>
గ ృ
గృ హ</w>
పరిశ ు
పరిశు భ
పరిశుభ ్ర
పరిశుభ్ర తకు</w>
ఉపయోగ ించే</w>
ఉత్పత్త ులను</w>
ధర లకే</w>
అంద ించనున్న
అందించనున్న ామని</w>
వెల్లడ ించింది</w>
గార ు
గారు నేను</w>
విశ ్వ</w>
ప్ర సిద్ధ
ప్రసిద్ధ </w>
ఆ గతా</w>
క్రి స్టీ</w>
న వల
నవల ల్లో</w>
క్ల ి
క్లి ష్ట
క్లిష్ట మైన</w>
కాన్ స్పి
కాన్స్పి ర
కాన్స్పిర సీ</w>
థియ రీ</w>
చదవ లేదు</w>
అర్ జె
అర్జె ంట
అర్జెంట ుగా</w>
డై వర్
డైవర్ ట్</w>
చెయ్య డానికి</w>
భర త్</w>
తగ్గించ డ
తగ్గించడ ానిక
తగ్గించడానిక ని</w>
నే నూ</w>
అన గలను</w>
అన ను</w>
మీ టింగ
మీటింగ ్లు</w>
బ ద
బద ులు</w>
వెళ్ళ మని</w>
శ్రీ రెడ్డి</w>
సల హా</w>
ఇ ఛ
ఇఛ ్చిన</w>
మీ రె
మీరె ందుకు</w>
చేస్తున్న ట్టు</w>
అద లా</w>
లీ గ
లీగ లైజేషన్</w>
ప్రా స్టిట
ప్రాస్టిట ్యూ
ప్రాస్టిట్యూ షన్</w>
ముఖ్య మ
ముఖ్యమ య్య
ముఖ్యమయ్య ింద
ముఖ్యమయ్యింద ా</w>
అడిగ ినప్పుడు</w>
చంద్రబాబ ుగ
చంద్రబాబుగ ారు</w>
చేస్త ుంటే</w>
మాట ే
మాటే మి
మాటేమి టి</w>
ఆఫ ్ట
ఆఫ్ట ్ర
ఆఫ్ట్ర ాల్</w>
తిట్ట ార
తిట్టార న్న</w>
విషయ మే</w>
సమస్ యా</w>
విషయ ాల్ల
విషయాల్ల ో
విషయాల్లో ఒక</w>
మూ కు
మూకు మ్ము
మూకుమ్ము డి</w>
ము ఠ
ముఠ ా</w>
అయ్య ుండ
అయ్యుండ చ్ఛ
అయ్యుండచ్ఛ ే
అయ్యుండచ్ఛే మో</w>
తెలియ దు</w>
సంబంధ మ
సంబంధమ ూ</w>
మీ రన్న</w>
పాయి ంట్లు</w>
ఇస్త ాను</w>
బో రుబా
బోరుబా వుల</w>
డైరె క్షన్</w>
నటి స్తున్న</w>
నా న్న
నాన్న కు</w>
ప్రేమ తో</w>
విడుదలై ంది</w>
ఆ ల్
ఆల్ బ
ఆల్బ మ్</w>
పాట లు</w>
రా క్</w>
దేవి శ్రీప్రసాద్</w>
అ దిరి
అదిరి పోయే</w>
ఇచ్చ ారని</w>
థియేట ర్</w>
స్ట ై
స్టై లి
స్టైలి ష్</w>
ఉండ ట
ఉండట ంతోపాటు</w>
వె రై
వెరై టీ</w>
గ ె
గె ట
గెట ప్</w>
అభిమానించ ే</w>
క మె
కమె డియ
కమెడియ న్లు</w>
యా ంకర
యాంకర ్ల
యాంకర్ల కు</w>
అభిమాన ులను</w>
ఆందోళ నకు</w>
అ మర
అమర ుల
అమరుల య్యారు</w>
ఏ లూరు</w>
డీ ఐ
డీఐ జీ</w>
ఏ ఎస్</w>
ఢ ీ
ఢీ కొట్ట
ఢీకొట్ట బోయే</w>
కథ ా
కథా ంశ
కథాంశ ం</w>
ఆఖ రులో</w>
యా వత్</w>
కలవర పెడ
కలవరపెడ ుతోంది</w>
నిబంధ నల</w>
కల ం</w>
వెళ్ల దీయ
వెళ్లదీయ ాల్సి</w>
టీపీ సీఆర్</w>
తరచ ూ</w>
చే తుల
చేతుల ్ని</w>
శుభ ్ర
శుభ్ర పర
శుభ్రపర చ
శుభ్రపరచ ుకోవడం</w>
మాస్ కులు</w>
ధర ించడం</w>
సాధారణ మై
సాధారణమై పోయాయి</w>
పాటి స్తున్నాం</w>
దర్శకు డుకి</w>
రాజశేఖ ర్</w>
నె క్
నెక్ స్ట్</w>
ఎ న
ఎన ౌన్స్</w>
అ మ్మ</w>
రాజ ్యంలో</w>
ఆ పాల</w>
జా శాంతి</w>
అధ ్య</w>
కే ఏ</w>
వై ఖ</w>
ట్ట ారు</w>
జీవి త</w>
ఇచ్చ ాన</w>
ఇవ్వ </w>
లే ద</w>
మాత్ర </w>
ఉత్త ర</w>
కొరియ ాలో</w>
J </w>
పొ లిటికల్</w>
ఎంట్రీ పై</w>
హ ల్చ
హల్చ ల్</w>
టీడీ పీలోకి</w>
కార్యకర్ తలు</w>
అభిప్ర ాయాలను</w>
తర పు
తరపు న</w>
అంశ ంపై</w>
ఇంటర్వ్యూ లో</w>
చల్ల ుకుని</w>
పడ ుకో</w>
తో డా</w>
ప్రా బ్ల
ప్రాబ్ల మ్</w>
అని త</w>
ది మ్మ</w>
తిరిగ ే</w>
చేయూ తకు</w>
అర్హ ులైన</w>
చొ ప్ప
చొప్ప ున</w>
నాలుగే ళ్లలో</w>
సహ ాయం</w>
అందజే స్త
అందజేస్త ామన్నారు</w>
విడ తలో</w>
చెల్ల ించింది</w>
4 4</w>
పూర్తయ ి</w>
పథ కానికి</w>
అర్హ త</w>
పొంద లేకపోయిన</w>
గుర్తి స్తున్నారు</w>
సన్ని వే
సన్నివే శా
సన్నివేశా న్ని</w>
కెమెర ాలో</w>
నెట్ట ి
నెట్టి ంట
నెట్టింట ్లో</w>
వదిల ాడు</w>
ఏ వి</w>
మన ల్ని</w>
బయట పడ
బయటపడ ేయ
బయటపడేయ లేవు</w>
యా ంటీ
యాంటీ ఆక్సిడెంట్</w>
పునర ుత
పునరుత ్ప
పునరుత్ప త్తి</w>
అవ య
అవయ వ
అవయవ ాలతో</w>
శరీర ంలో</w>
ఆ క్
ఆక్ సీ
ఆక్సీ కరణ</w>
ఒత్తి డిని</w>
కలిగ ిస్తుంది</w>
వృ ష
వృష ణ</w>
మెరుగుప రు
మెరుగుపరు స్తుంది</w>
స్పె ర్
స్పెర్ మ్</w>
లెక్కి ంప
లెక్కింప ుకు</w>
చి ట్
చిట్ కాను</w>
ఫ ాలో</w>
అవ ుతుంటే</w>
తల నొప్పి</w>
మై గ్ర
మైగ్ర ే
మైగ్రే న్</w>
ప ంటి</w>
ఫొటో స్</w>
భయంకర ంగా</w>
గత ంలోనే</w>
మీ డి
మీడి యా
మీడియా ని</w>
ఊ పే
ఊపే శాయి</w>
ఇం స్టా
ఇంస్టా గ్రామ
ఇంస్టాగ్రామ ్</w>
సెల బ్రిటీల</w>
మార ాయి</w>
ఎవర ైనా</w>
వా మ్మ
వామ్మ ో</w>
అన ాల్
అనాల్ సిందే</w>
ఇ మేజ్</w>
ర్ జాతీయ</w>
తీస ుకెళ్ల
తీసుకెళ్ల ేందుకు</w>
త్తి పాటి</w>
ప ుల్ల
పుల్ల ారావు</w>
ఆరోగ్య ంగా</w>
రో మంత్రి</w>
కా మి
కామి నేని</w>
విష ్య</w>
రి న్ని</w>
బీ సీ
బీసీ సీ
బీసీసీ ఐ</w>
మి టీ</w>
చై ర్మ</w>
ఎ మ్
ఎమ్ మె
ఎమ్మె స్
ఎమ్మెస్ కే</w>
సా ద్</w>
దేవి నేని</w>
ఉ మామ</w>
హ ేశ
హేశ ్వ</w>
నిర్మా ణం</w>
మొ ద</w>
వ ుతు
వుతు ంద</w>
డీ జీ
డీజీ పీ</w>
న ండ
నండ ూరి</w>
సా ంబ</w>
మి ష</w>
గౌ త</w>
వా ంగ్</w>
ఇథ ి
ఇథి యో
ఇథియో ఫ
ఇథియోఫ ియా</w>
దేశ ానికి</w>
క్ర ీ
క్రీ డా
క్రీడా కార
క్రీడాకార ులు</w>
పాల్గొ న</w>
అన ంత</w>
వి జే
విజే త</w>
హు మ</w>
అంద </w>
అ కౌ
అకౌ ంట్</w>
ఉంద ా</w>
తెలుస ుకోవాలి</w>
సవర ించాలని</w>
భావి స్తోంది</w>
మార్ప ులను</w>
వ ోకి</w>
స్క్ర ై
స్క్రై బ
స్క్రైబ ర్లు</w>
తొలగించ బడింది</w>
త త్వ
తత్వ శాస్త్రం</w>
స్వా భావ
స్వాభావ ిక</w>
కల్ప న</w>
నివేదిక లు</w>
పోయింద ో</w>
జీ వి</w>
రూపొంద ిస్తున్న
రూపొందిస్తున్న ప్పుడు</w>
బల మైన</w>
వ్యక్ తీ
వ్యక్తీ కరణలు</w>
ప్రక ృతి</w>
అడ్డ ుకోవ
అడ్డుకోవ టానికి</w>
స్పీ ల్
స్పీల్ బర్
స్పీల్బర్ గ్</w>
క్ర ిచ
క్రిచ ్ట
క్రిచ్ట న్</w>
నొ క్కి</w>
ఈ యాని
ఈయాని మ
ఈయానిమ ేషన్</w>
ట్ర ిప
ట్రిప ుల్</w>
ఎక్ స్ప
ఎక్స్ప న్షన్</w>
ఆవి రి</w>
యంత్ర ాన్ని</w>
మొద ట్లో</w>
ఉష్ణ ం</w>
చల్ల ద
చల్లద నం</w>
గ తి
గతి స్తూ</w>
చల్ల బడుతూ</w>
గ మనం</w>
యంత్ర ాలను</w>
తిప్ప ుతూ</w>
భ ౌ
భౌ తిక
భౌతిక శాస్త్రం</w>
విభ ిన్న</w>
ఉ ష్ణ</w>
కదలిక ను</w>
పరి మా
పరిమా ణమ
పరిమాణమ ులలో</w>
మార్ప ును</w>
గణాంక శాస్త్రం</w>
సంఖ ్యా
సంఖ్యా శాస్త్రం</w>
స్టాటిస్ట ిక
స్టాటిస్టిక ్స్</w>
గణ ితం</w>
క ణాల</w>
గమన ము
గమనము ను</w>
పరిశీల ించుటకు</w>
ఉష్ణగతిక శాస్త్ర
ఉష్ణగతికశాస్త్ర ంలో</w>
ఉపయోగ ించ
ఉపయోగించ బడుతుంది</w>
ఉపయోగ కర
ఉపయోగకర మైన
ఉపయోగకరమైన ది</w>
ఎందుక న
ఎందుకన గా</w>
ప్రతి రోజు</w>
సు వి
సువి శాల</w>
ప్రపంచ ంతో</w>
అణ ువుల</w>
ప్రపంచ ం</w>
ఏ లాంట
ఏలాంట ి
ఏలాంటి దో</w>
క్లాస ికల్</w>
స్టాటిస్ట ికల్</w>
విభాగ ాలుగా</w>
పిలవ బడుతుంది</w>
థర్మోడై నమ
థర్మోడైనమ ిక్</w>
ఉష్ణగత ిక</w>
నియమ ాలు</w>
ఉష్ణ రూపంలో</w>
కదలిక లు</w>
జరుగుత ాయో</w>
వి వరి
వివరి స్తుంది</w>
ఏ వై
ఏవై నా</w>
వ్యవస్థ తో</w>
సమతుల ్యంలో</w>
దాని తో</w>
దీని ని</w>
వివర ించేందుకు</w>
ఉప కరించ
ఉపకరించ ేను</w>
ని త్య
నిత్య త్వ</w>
సూత్ర ం</w>
ప్ర కార
ప్రకార ముగా</w>
బయ టి</w>
లో నికి</w>
ప్ర వహ
ప్రవహ ించిన
ప్రవహించిన చో</w>
అంతర్ గత</w>
శక్ తి
శక్తి నంద
శక్తినంద ు</w>
మార్ప ునకు</w>
పరిక రం</w>
సూత్ర ాన్ని</w>
ఉల్ల ంగి
ఉల్లంగి ండ
ఉల్లంగిండ మ
ఉల్లంగిండమ నేది</w>
సమతుల్య తలో</w>
లే నట
లేనట ువ
లేనటువ ంటి</w>
వి వ
వివ క్త</w>
ఎల్ల ప్పుడూ</w>
పెరుగ ుతుంది</w>
క్లో జ్
క్లోజ్ డ్</w>
అంత ట</w>
సమతుల్య ము
సమతుల్యము నకు</w>
చేరు ను</w>
అంద ు</w>
గ రి
గరి ష్ఠ
గరిష్ఠ </w>
దీని నే</w>
థ ర్మ
థర్మ లైజేషన్</w>
ధర్ మాన్ని</w>
ఉల్ల ంగ
ఉల్లంగ ించ
ఉల్లంగించ ు</w>
శు ద్ధ
శుద్ధ మైన</w>
పదార్థ ము</w>
శూన్య ానికి</w>
చేర ుతున్న
చేరుతున్న ప్పుడు</w>
శూన్య ము</w>
అ గు
అగు ను</w>
ఖ చ్చ
ఖచ్చ ిత</w>
శూ న్యం</w>
స ున్న</w>
అన్న ీ
అన్నీ సందర్భ
అన్నీసందర్భ ాలలో</w>
స్థిత ుల</w>
తెలుస ుకొ
తెలుసుకొ న
తెలుసుకొన వచ్చ
తెలుసుకొనవచ్చ ును</w>
భీ మా</w>
గుర్త ించ
గుర్తించ లేని</w>
చట్ట పర
చట్టపర మైన</w>
సంస్థ లను</w>
వే ట్</w>
సంఖ్య ను</w>
మహిళ తో</w>
సంబంధ ంలో</w>
పురుష ులు</w>
వు ంటారు</w>
తి ర
తిర స్
తిరస్ కరించ
తిరస్కరించ బడ
తిరస్కరించబడ ితే</w>
మ ించిన</w>
అవ మానం</w>
ఓ డి
ఓడి పోయ
ఓడిపోయ ినట్లు</w>
కోల్పోయ ినట్లు</w>
బాధ పడ
బాధపడ తారు</w>
దెబ్బ తింటే</w>
పురుష ుడు</w>
మహిళ వల
మహిళవల ే</w>
అవ మాన
అవమాన ాన్ని</w>
వే రొ
వేరొ కర
వేరొకర ికి</w>
తే లిక
తేలిక గా</w>
చెప్ప ుకో
చెప్పుకో లేడు</w>
మహిళ లకే</w>
రో ద
రోద న</w>
అధిక మని</w>
పురుష ులకు</w>
వుండ దని</w>
చెప టం</w>
స రిక
సరిక ా
సరికా దు</w>
అంశ ంలో</w>
పరిశోధ ించిన</w>
రీ సె
రీసె ర్చ
రీసెర్చ ర్లు</w>
చ ది
చది వి
చదివి తే</w>
వార్తా ంశ
వార్తాంశ ంలోని</w>
స్ పూర్తి</w>
అంత ులే
అంతులే నంత</w>
రాష్ట్ర ా</w>
సిక్కి ం</w>
స్థాన ాన్ని</w>
ఆ క్ర
ఆక్ర మి
ఆక్రమి స్తోంది</w>
యువ తలో</w>
ప్రే రే
ప్రేరే పి
ప్రేరేపి స్తున్న</w>
కారణ ాల్లో</w>
హెచ్చ రికను</w>
అ ంది</w>
సిక్కి ంలో</w>
యువ త</w>
2 7</w>
చేసుకొ ంట
చేసుకొంట ున్న
చేసుకొంటున్న ట్లు</w>
స్పష్ట </w>
డా బ
డాబ ాలో</w>
గ ాల
గాల ిప
గాలిప టం</w>
ఎగ రే
ఎగరే స్తుండగా</w>
హై టె
హైటె న్షన్</w>
వై ర్</w>
చని పోత
చనిపోత ారని</w>
హెచ్చర ిక</w>
రి పీ
రిపీ ట్</w>
న న్</w>
ఉద్యోగ ుల</w>
డి మా
డిమా ండ్లను</w>
వెలువ డుతుందని</w>
ఓ ప
ఓప ిక</w>
పట్ట ాలని</w>
పె న్
పెన్ షన
పెన్షన ర్లు</w>
డీ ఏ
డీఏ లను</w>
ఉద్యోగ ులకు</w>
సాహ స
సాహస ికులు</w>
మిస్ట రీ
మిస్టరీ గా</w>
బా వి</w>
రహ స్యం</w>
బయటపెట్ట ారు</w>
వెళ్ళ ి</w>
శ వ
శవ ాల</w>
గు ట్ట
గుట్ట లు</w>
అ స్థ
అస్థ ి</w>
పంజ రాలు</w>
క ంపు</w>
రాల ేదని</w>
లో య
లోయ లాంటి</w>
బా వి
బావి లో</w>
అడుగు న</w>
జల పాతం</w>
రా ళ్లు</w>
మే లి
మేలి మి</w>
ముత ్య
ముత్య ాలు</w>
దొరిక ాయి</w>
చా వు
చావు ను</w>
కళ్ల ారా</w>
చూస్త ాడు</w>
బ సి
బసి రెడ్డి</w>
ఇత ను</w>
దొ ంగ</w>
దెబ్బ తీసి</w>
చ ంపే
చంపే స్త
చంపేస్త ాడు</w>
కి చ్చిన</w>
సిద్ధమవ ుతుంది</w>
చ ంపిన</w>
జైల ుకెళ
జైలుకెళ త
జైలుకెళత ాడు</w>
అన్న కూతురు</w>
ఆధ ్య</w>
రె జీ
రెజీ నా</w>
ఫ్యా క్షన్</w>
గొడ వ
గొడవ లకు</w>
పద కొండే
పదకొండే ళ్ల</w>
స త్
సత్ ప్ర
సత్ప్ర వర్
సత్ప్రవర్ తన</w>
జై లు</w>
విడుద లవుతున్న
విడుదలవుతున్న ాడని</w>
తెలుస ుకున్న</w>
ఆధ్య ని</w>
కాపాడ ేందుకు</w>
రో హిత
రోహిత ్</w>
గార్ డ్</w>
ఆధ్య ను</w>
కాపాడ ాడు</w>
ఆధ్య లు</w>
దగ్గ ర
దగ్గర య్యారు</w>
అతి ప్రేమ</w>
మ లు
మలు ప
మలుప ులు</w>
తిరుగు ంది</w>
అన్న దే</w>
ఈ క్రమంలోనే</w>
తన కి</w>
బే బీ
బేబీ ని</w>
దత్త త</w>
తీస ుకోవడానికి</w>
సెంట ్ర
సెంట్ర ల్</w>
అ డా
అడా ప్
అడాప్ షన్</w>
రి సో
రిసో ర్స్</w>
అథ ారిటీ
అథారిటీ లో</w>
అప్ల ై</w>
చేసుకున్న ానని</w>
వె యి
వెయి టింగ్</w>
లి స్ట
లిస్ట ులో</w>
మి థ
మిథ ు
మిథు బె
మిథుబె న్</w>
పే టీ
పేటీ ట్</w>
189 2</w>
19 7
197 3</w>
స్వా త
స్వాత ంత్ర
స్వాతంత్ర ్య</w>
సమ ర
సమర యోధ
సమరయోధ ురాలు</w>
గాంధీ జీ</w>
సాగ ించిన</w>
ఉ ప్పు</w>
స త
సత ్యా
సత్యా గ్రహం</w>
కీల క
కీలక పాత్ర</w>
పోష ించింది</w>
ఏ ళ్ల
ఏళ్ల లోపు</w>
వి త
విత ంత
వితంత ువుల</w>
జాబిత ాను</w>
తమ కి
తమకి వ్వ
తమకివ్వ ాలని</w>
జూ లై
జూలై లోనే</w>
నాయక ులను</w>
తాలిబ న్</w>
ఫై టర్ల
ఫైటర్ల ను</w>
అవసర మని</w>
ఆర్ డర్</w>
అమల య్య
అమలయ్య ాయ
అమలయ్యాయ ా</w>
మహిళ ల</w>
వాటి పై</w>
ఇంత వరకు</w>
కట్ట డ
కట్టడ ాల</w>
పున ః</w>
స్థాప న</w>
స్టె వి
స్టెవి యా</w>
నల్ గొండ
నల్గొండ తో</w>
రంగ ారెడ్డి</w>
మహ బూ
మహబూ బ్</w>
నియోజకవర్గ ాల</w>
సభ్య ుల</w>
పద వీ
పదవీ కాలం</w>
ముగి సే
ముగిసే లోప
ముగిసేలోప ే</w>
నిర్వహించ ాల్సి</w>
ఓట రు</w>
టెస్ట ులకు</w>
రాజ ేష్</w>
ప్రశ్నించ ిన</w>
బెదిరింప ులకు</w>
నె గి
నెగి టివ్</w>
ఇచ్చే ది</w>
తే ల్చ
తేల్చ ి</w>
అధికార ుకు</w>
వా పోయారు</w>
అడిగ ిన</w>
క్రా ంతి</w>
ఇ ష
ఇష ్యూ
ఇష్యూ పై</w>
వీ డియో
వీడియో పై</w>
దర్యాప్త ుకు</w>
ఆదేశించ ామన్నారు</w>
నిరూప ిత
నిరూపిత మై
నిరూపితమై తే</w>
శా ఖా
శాఖా పర
శాఖాపర ంగా</w>
తీస ుకుంట
తీసుకుంట ామన్నారు</w>
వై ద్యా
వైద్యా ధ
వైద్యాధ ిక
వైద్యాధిక ారి</w>
చ లం</w>
జరిగ ే</w>
కాపాడ ుకోవ
కాపాడుకోవ ాల్సిన</w>
తరుణ ంలో</w>
రచ్చ కెక్కాయి</w>
లోక ల్</w>
పట్ట ించుకో
పట్టించుకో లే
పట్టించుకోలే ది</w>
అన ుకు
అనుకు ంద
అనుకుంద ో</w>
విడ తల</w>
వార ీగా</w>
పేర్ల తో</w>
వివా దా
వివాదా స్ప
వివాదాస్ప ద</w>
న టి</w>
మొ న్నే
మొన్నే మో</w>
ల ారె
లారె న్స్</w>
మధ్య లోకి</w>
విశ ాల్</w>
మీ దా</w>
కాన్ సన్</w>
ట్రే ట్</w>
చెబ ితే</w>
జన ాలు</w>
జన ాల</w>
తెర పైకి</w>
తె స్తున్న
తెస్తున్న ట్టుగా</w>
టి ంకు</w>
బంట ీ</w>
నీ కు</w>
ఇ డ
ఇడ ్లీ</w>
నువ్వ ే
నువ్వే ంటి</w>
మ మ్
మమ్ మీ
మమ్మీ ని</w>
వడ లు</w>
చేసి వ్వ
చేసివ్వ ు</w>
అడుగ ుతున్న
అడుగుతున్న ావ్</w>
రోజ ు
రోజు రోజూ
రోజురోజూ కూ</w>
పెరిగ ిపోత
పెరిగిపోత ూనే</w>
సడ లింప
సడలింప ుల</w>
విజృంభ ిస్తోంది</w>
బాధ ిత
బాధిత ుల</w>
చేరు వ
చేరువ లో</w>
కొ త్త
కొత్త గా</w>
17 1</w>
తేల ారు</w>
లక్ష ా</w>
7 06</w>
చేర ుకుంది</w>
ట వర్లలో</w>
కొ న్న</w>
వార ందరికీ</w>
వ డ్
వడ్ డీతో</w>
స ర్వ
సర్వ ోన్నత</w>
కూ ల్చ
కూల్చ వేత</w>
బ ిల
బిల ్
బిల్ డి
బిల్డి ంగ్స్</w>
డ్యా మేజ్</w>
జరగ కుండా</w>
కంపెనీ కి</w>
సూచ ించింది</w>
ఎన్న ార
ఎన్నార ై
ఎన్నారై లు</w>
ష డ్ర
షడ్ర ుచ
షడ్రుచ ల</w>
ఉ గా
ఉగా ది</w>
పచ్చ డి</w>
సేవ ించారు</w>
తెలుగు ద
తెలుగుద నాన్ని</w>
త ని
తని వి
తనివి తీ
తనివితీ రా</w>
అనుభవ ించారు</w>
స్వ దేశ
స్వదేశ ీ</w>
పరి జ్ఞాన
పరిజ్ఞాన ంతో</w>
రూపొంద ించిన</w>
జీ ఎస్</w>
వాహ కన
వాహకన ౌక</w>
ప్రయోగ ాన్ని</w>
నిర్వహ ించడానికి</w>
చంద్రగ్రహ ం
చంద్రగ్రహం పైకి</w>
ప్రవేశ </w>
ప్ర గ్య
ప్రగ్య ాన్</w>
నామ కర
నామకర ణం</w>
ప్రొ ప</w>
ల్ షన్</w>
మా డ్యూ
మాడ్యూ ల్</w>
చంద్ర య
చంద్రయ ాన్</w>
శా టిల
శాటిల ైట్</w>
చంద్రు డి</w>
ఆర్బి ట్</w>
ప్రవేశ పెడ
ప్రవేశపెడ తారు</w>
ర్ వాత</w>
వే రు
వేరు ప</w>
డ ుతుంది</w>
చంద్రు డి
చంద్రుడి పై</w>
క్షి ణ</w>
ధ్రువ ంలో</w>
దిగ ుతుంది</w>
రీక్ష ల</w>
చంద్రగ్రహ ంపై</w>
రో వ</w>
సంచ </w>
రి స్తుంది</w>
వ ణ
వణ ిక
వణిక ిస్త
వణికిస్త ోన్న</w>
పేర ుత
పేరుత ోనే</w>
పిలవ ాల్సి</w>
పిల ి
పిలి చే
పిలిచే వారు</w>
పిల వాల
పిలవాల ంట</w>
అ స్త
అస్త మానం</w>
మాస్ కు</w>
భాగ ాన్ని</w>
చే త్
చేత్ తో</w>
తా కొ
తాకొ ద్దు</w>
జన ాలతో</w>
ఆ ట</w>
జరగ ాలని</w>
మాస్ క్స్</w>
సా నిటైజ
సానిటైజ ర్స్</w>
వాడ ుతూ</w>
డి స్టె
డిస్టె న్స్</w>
పాట ించాలని</w>
అమ్మ ుకునే</w>
చద ువు
చదువు రా
చదువురా ని</w>
సొ ంత</w>
డబ్బ ుతో</w>
స్ కూ
స్కూ లు</w>
కట్ట ించారు</w>
సృష్ట ే
సృష్టే నని</w>
జరుగ ుతుందని</w>
క్ర ిత
క్రిత మే</w>
సాక్ష ిగా</w>
చేర్చ లేదని</w>
గరు డ
గరుడ పై</w>
వెల ికి</w>
తీయ ాలని</w>
అల స
అలస త్వం</w>
వహించ ిందని</w>
విచార ించి</w>
నిజా నిజాలు</w>
కేశ ాలకు</w>
హె యిర్</w>
క ండీ
కండీ ష
కండీష నర్</w>
అవ ో
అవో కా
అవోకా డ
అవోకాడ ోను</w>
ఉ డిక
ఉడిక ించి</w>
గు జ్
గుజ్ జుల
గుజ్జుల ా</w>
చుక్క ల</w>
ష ీ</w>
బ ట్టర్</w>
ఆప ిల్</w>
సై డర్</w>
వె ని
వెని గర్</w>
పట్ట ించాలి</w>
చల్ల టి</w>
శుభ ్రం</w>
చేసుకోవ ాలి</w>
వై కా
వైకా పాల
వైకాపాల ోకి</w>
జ ంప్</w>
రి ష
రిష బ్</w>
ప ంత్</w>
బె ంజ్</w>
వంద కు</w>
వేగ ంతో</w>
వెన క</w>
సాయ ిక
సాయిక ృష్ణ</w>
బై క్</w>
స్నేహిత ులు</w>
గో గ
గోగ ుల</w>
గాయ ాలతో</w>
తప్పించ ుకున్నారు</w>
సాయ ిని</w>
ఈ డ
ఈడ ్చ
ఈడ్చ ుకుంటూ</w>
వెళ్ల ిపోయ
వెళ్లిపోయ ిన</w>
ఖై ర
ఖైర తా
ఖైరతా బాద్</w>
హ ను
హను మాన్</w>
టె ంపుల్</w>
ఆగ గా</w>
చిక్క ుకుని</w>
ర క్త
రక్త మోడ
రక్తమోడ ుతూ</w>
కనిప ించాడు</w>
ఉ స్
ఉస్ మా
ఉస్మా నియా</w>
కోల్పోయ ాడు</w>
గాలి స్తున్నారు</w>
దేవాలయ ాలు</w>
విగ్రహ ాలపై</w>
దా డులు</w>
దారు ణ
దారుణ మని</w>
చ ెల
చెల గా
చెలగా టం</w>
ఆడ ొద్దని</w>
శిక్ష ిస్త
శిక్షిస్త ాడని</w>
పాల్ప డే</w>
పరి ణ
పరిణ ామ
పరిణామ ాలు</w>
ఉంట ాయని</w>
హెచ్చర ించారు</w>
దు ండ
దుండ గ
దుండగ ులపై</w>
పున రా
పునరా వృ
పునరావృ తం</w>
తేదీ ల</w>
వెల్ల డి</w>
రిక ్ర
రిక్ర ూ
రిక్రూ ట్</w>
ఎన్ టీపీ
ఎన్టీపీ సీ</w>
అప్ల ిక
అప్లిక ేషన్</w>
ఉంచ నుంది</w>
దరఖా స్త
దరఖాస్త ును</w>
స్వీకరించ ారా</w>
చేశ ారా</w>
అభ్యర్థ ులను</w>
రాయ డానికి</w>
అనుమతి స్తారు</w>
అభ్య ంత
అభ్యంత రాలు</w>
తెలి పేందుకు</w>
కల్ప ిస్తారు</w>
తర్వా తే</w>
అడ్మి ట్</w>
కార్డ ులను</w>
వె నే
వెనే లి
వెనేలి యస్</w>
శరీర ాలని</w>
ధై ర్యంగా</w>
పరి చ్
పరిచ్ చే
పరిచ్చే దం</w>
చెయ్య డం</w>
మొదలె ట
మొదలెట ూరు</w>
అంగ ాల</w>
వివర ంగా</w>
తెలుస ుకో
తెలుసుకో సాగారు</w>
శరీర శాస్త్ర
శరీరశాస్త్ర వేత్తలు</w>
నా డ
నాడ ుల</w>
గత ుల
గతుల ని</w>
అను సరి
అనుసరి స్
అనుసరిస్ నూ</w>
ఎక్క డె
ఎక్కడె క్క
ఎక్కడెక్క డికి</w>
పోత ున్న
పోతున్న ాయో</w>
పరిశీల ించారు</w>
ఆరంభ ం</w>
అత్య ుత
అత్యుత ్
అత్యుత్ తమ</w>
ఫ ామ
ఫామ ్</w>
కనిపి స్తున్నాడు</w>
అడుగు పెట్ట
అడుగుపెట్ట డానికి</w>
ప్రమా ద</w>
ఘ ంట
ఘంట ిక
ఘంటిక లు</w>
మో గ
మోగ ించాడు</w>
వరు స
వరుస గా</w>
ఎంత టి</w>
ఆటగ ాడ
ఆటగాడ ిక
ఆటగాడిక ైనా</w>
లంక లో</w>
లంకే య
లంకేయ ులపై</w>
సుల ువు</w>
అలాంట ిది</w>
గ ాలె</w>
టెస్ట ుల్లో</w>
2 28</w>
18 6</w>
ఇన్ని ంగ్స్</w>
1 06</w>
స గ
సగ టు</w>
6 3</w>
స్ట్రై క్</w>
4 26</w>
వేస ుకున్నాడు</w>
స్వీ ప్</w>
షా ట్</w>
చె పాక్</w>
మ్యా చ
మ్యాచ ు</w>
అలాంట ే
అలాంటే దేమీ</w>
ద్ విశ
ద్విశ త
ద్విశత కం</w>
2 18</w>
3 7
37 7</w>
బంత ుల్లో</w>
9 9</w>
ఏక ై
ఏకై క</w>
ఆవి ర్భ
ఆవిర్భ వ
ఆవిర్భవ ించాడు</w>
కల్యా ణ
కల్యాణ ో
కల్యాణో త్స
కల్యాణోత్స వ
కల్యాణోత్సవ ాలు</w>
ఆహార </w>
అతిథ ుల</w>
నగ రం</w>
రె స్ట
రెస్ట ారె
రెస్టారె ంట్లు</w>
ఎంచ ుకోవడానికి</w>
జమ్మ ూ</w>
క్యా ంప
క్యాంప ుపై</w>
ఉగ్ర మూ
ఉగ్రమూ క
ఉగ్రమూక లు</w>
దా డికి</w>
తృ టి
తృటి లో</w>
బు ద్
బుద్ గా
బుద్గా ంలోని</w>
ఛ త్త
ఛత్త ర్</w>
గ మ్</w>
రాష్ట ్రీయ</w>
రై ఫిల
రైఫిల ్స్</w>
శిబిర ంపై</w>
ము ష్
ముష్ కర
ముష్కర ులు</w>
యూ జీ
యూజీ బీ
యూజీబీ ఎల్</w>
గ్రె నే
గ్రెనే డ్</w>
లా ంఛ
లాంఛ ర్లు</w>
వదిల ినట్లు</w>
ఉన్నతాధికార ులు</w>
తప్ప ి</w>
శిబిర ానికి</w>
పే లి
పేలి ందని</w>
ఘట నా</w>
తప్పించ ుకు</w>
పోయ ారని</w>
పట్ట ుకునేందుకు</w>
గాలి ంపు</w>
చేపట్ట ినట్లు</w>
మెరుగ ైన</w>
వై ద్య
వైద్య ులు</w>
తరల ించేందుకు</w>
పెద్ద నో
పెద్దనో ట్ల</w>
ఏర్ పడిన</w>
మరి న్ని</w>
వె సులు
వెసులు బాట్లు</w>
డె బి
డెబి ట్</w>
కార్డ ుల</w>
వినియోగ ంపై</w>
రు సుమ
రుసుమ ులు</w>
ఎత్తి వే
ఎత్తివే స్తున్న
ఎత్తివేస్తున్న ట్లు</w>
వ్యవహార ాల</w>
శక్ తిక
శక్తిక ా
శక్తికా ంత</w>
ఎందుక ా</w>
సృష్ట ించడం</w>
నువ్వ లా</w>
పర పర
పరపర ా</w>
చి ంపే
చింపే శా
చింపేశా వ
చింపేశావ న
చింపేశావన ుకో</w>
ఏ క</w>
బి గిన</w>
చి ంపిన</w>
భార ్య
భార్య గా</w>
సృష్ట ించి</w>
నువ్వ ు</w>
రికార్ డ్
రికార్డ్ స
రికార్డ్స ులోకి</w>
ఎక్క ుత
ఎక్కుత ావు</w>
మార ుతున్న
మారుతున్న ాడు</w>
బా ద్
బాద్ షా</w>
రచ నా</w>
అంద ిచ
అందిచ ాడు</w>
తన యుడు</w>
సిద్ద ం</w>
రచయిత ల్లో</w>
ఒకర ైన</w>
గో పీ
గోపీ మోహన్</w>
దగ్గ రి
దగ్గరి వా
దగ్గరివా డైన</w>
దాదా ప
దాదాప ుగా</w>
ఏ ళ్లుగా</w>
ఉంట ున్నారు</w>
పూర్తయ ినట్లు</w>
రా బోతోంది</w>
మహిళ లు</w>
వృ ద్ద
వృద్ద ులు</w>
సీ ట్లకు</w>
రా బోతున్న
రాబోతున్న ాయని</w>
మద్ద త
మద్దత ుగా</w>
నిలి చి</w>
వేశ ారని</w>
ఆర్థ ికంగా</w>
రాజకీయ ంగా</w>
దెబ్బ కొట్ట
దెబ్బకొట్ట ాలని</w>
చూ శారు</w>
సంఘ ాన్ని</w>
వాడ ుకొని</w>
చేస ారంటూ</w>
అడ గ
అడగ డం</w>
న చ్చ
నచ్చ దు</w>
యా ంకర్</w>
ర ష్
రష్ మీ</w>
వ్యా ప్త
వ్యాప్త ించడం</w>
సాధారణ మవ
సాధారణమవ ుతోందని</w>
ఫ్రా న్
ఫ్రాన్ సె
ఫ్రాన్సె స్కో</w>
జా న్స్</w>
హా ప్
హాప్ కి
హాప్కి న్స్</w>
పా శ్చ
పాశ్చ ా
పాశ్చా త్య</w>
జుల ై</w>
మధ్య కాలంలో</w>
6 7</w>
దృ క్
దృక్ పథ
దృక్పథ ం</w>
తగ్గ ినట్టు</w>
నాల ు
నాలు గో
నాలుగో వంతు</w>
ఉంద న్నారు</w>
జ పాన్</w>
7 0</w>
ఫ్రా న్స్</w>
5 1</w>
3 8</w>
పడి పోయింద
పడిపోయింద న్నారు</w>
శాఖ ామ
శాఖామ ంత
శాఖామంత ్రి</w>
పెళ్లిక ూ
పెళ్లికూ తు
పెళ్లికూతు రు</w>
చిర కాల</w>
భ ార్
భార్ గ
భార్గ వ్</w>
సన్నిహిత ుల</w>
నిశ్చితార్ధ </w>
అఖ ిల
అఖిల ప్రియ</w>
సోద రి</w>
మౌ న
మౌన ికార
మౌనికార ెడ్డి</w>
తమ్ము డు</w>
జగ త్</w>
వి ఖ్యా
విఖ్యా త్</w>
ఆ కె
ఆకె ళ్ళ</w>
దర్శకు ని
దర్శకుని గా</w>
సే ఫ్</w>
వెళ్ళ డానికి</w>
ప్రయత్నించ ాడు</w>
చెప్ప ుకోవడానికి</w>
కథ ేమి</w>
అ సో
అసో సి
అసోసి య
అసోసియ ేషన్</w>
సీ ఏ</w>
రాజ ్య
రాజ్య మే
రాజ్యమే ల
రాజ్యమేల ుత
రాజ్యమేలుత ోంద
రాజ్యమేలుతోంద ంటూ</w>
వివాద ానికి</w>
తీ శాయి</w>
సీ ఏ
సీఏ లో</w>
అవినీ తిని</w>
కే టీఆర్</w>
తెలియజే స్తూ</w>
అ జార
అజార ు
అజారు ద్ద
అజారుద్ద ీ
అజారుద్దీ న్</w>
మండిప డ్డ
మండిపడ్డ ాడు</w>
భూ ముల
భూముల ి
భూములి చ్చిన</w>
మే డమ్</w>
ఏమి టో</w>
తెలుస ా</w>
ఎం ఐ</w>
టీ వీ
టీవీ లపై</w>
తగ్గ ి
తగ్గి ంపు</w>
జ ి</w>
శ్రీ కాంత్</w>
బ ూడి</w>
చెవి రెడ్డి</w>
భాస్ కర</w>
ఉదయ భ
ఉదయభ ాను</w>
రామ చంద్ర
రామచంద్ర ారెడ్డి</w>
శ్రీనివా సులు</w>
రామకృష్ణ ారె
రామకృష్ణారె డ్
రామకృష్ణారెడ్ డి
రామకృష్ణారెడ్డి లకు</w>
ఉ మ్మార
ఉమ్మార ెడ్డి</w>
వెంక టేశ్వ
వెంకటేశ్వ ర్లు</w>
గ ంగుల</w>
ప్రభా కర్</w>
కన్నీ రు</w>
ఇ ంక</w>
ఎ ప్పటికీ</w>
లోక ంలోనే</w>
కూతు రికి</w>
నా న్నే</w>
తిరిగ ిరా
తిరిగిరా డు</w>
ఓదార ్చిన</w>
కంట ికి</w>
ధార గా</w>
ఏడుస్త ూనే</w>
ఘట న</w>
కన్నీ టి</w>
పర్య ంతం</w>
వింట ేనే</w>
ఒక్క రి</w>
బ రు
బరు వె
బరువె క్క
బరువెక్క ుతోంది</w>
అయ్య ో</w>
జరిగ ి</w>
జ్ ణా
జ్ణా ప
జ్ణాప కాల</w>
బయట పడలేదు</w>
వెళ్ల ింది</w>
నా న్నా</w>
కూతు రిని</w>
వచ్చ ాను</w>
ఒక టే</w>
ఏడు స్తుంది</w>
తి ండీ
తిండీ తిప్ప
తిండీతిప్ప లు</w>
తొ మ్
తొమ్ మి
తొమ్మి దే
తొమ్మిదే ళ్ల</w>
వల్ల ా</w>
రాడ మ్మ
రాడమ్మ ా</w>
మ ర్
మర్ చిప
మర్చిప ో</w>
ఎన్నా ళ్లు</w>
చేస ుకుని</w>
ఏడుస్త ావు</w>
ఇంట ్ల
ఇంట్ల ోని</w>
చుట్ట ాలు</w>
ఊ రి</w>
వెళ్ల టం</w>
వెళ్ల ేట
వెళ్లేట ప్పుడు</w>
తీస ుకెళ
తీసుకెళ ుతుంది</w>
చని పోయారు</w>
యా క్సి
యాక్సి డెంట్</w>
కొ డి
కొడి మ్య
కొడిమ్య ల</w>
రా ం
రాం సాగర్</w>
ద్యా గాల</w>
చనిపోయ ాడు</w>
య జమా
యజమా నిని</w>
కోల్పోయ ిన</w>
కో ల
కోల ుకో
కోలుకో లేదు</w>
అన టానికి</w>
వేద నే</w>
చెబ ుతోంది</w>
దొరిక ింది</w>
రూప ాయి</w>
తీసుకో లేదు</w>
నిజాయిత ీ
నిజాయితీ కే</w>
పట్ట ం</w>
భా వం</w>
క్ష ీ
క్షీ ణ
క్షీణ ించింది</w>
క్యా ష్</w>
చేస ుకో
చేసుకో లేకపోయ
చేసుకోలేకపోయ ింద
చేసుకోలేకపోయింద ీ</w>
డి స్కో</w>
వెంక ీ</w>
చిత్ర ాల్లో</w>
నట ించిన
నటించిన ప్పటికీ</w>
ఇంత లోనే</w>
అ ప్పటిక
అప్పటిక ే</w>
సన్న గ
సన్నగ ిల్ల
సన్నగిల్ల ిన</w>
అవకాశ ాలను</w>
పల ుచ
పలుచ న</w>
చేసి ంద
చేసింద నే</w>
పిలవ కపోవ
పిలవకపోవ డంపై</w>
రోజ ా</w>
దుకా ణ
దుకాణ ాలకు</w>
జో న్
జోన్ లలో</w>
ఉన్న ారని</w>
పార్టీ లతో</w>
ఓ టు</w>
వే స్త
వేస్త ామని</w>
క్ల ారిటీ</w>
ఇచ్ చేస్తున్నారు</w>
ఉన్న ార
ఉన్నార ో</w>
క్ల ారిటీ
క్లారిటీ తో</w>
గ ులా
గులా బీ</w>
ప్ర లోభ
ప్రలోభ ాలు</w>
మొ గ్గ
మొగ్గ ు</w>
చూ పే
చూపే లా</w>
పుల ులు</w>
ఆ వాసానికి</w>
హద్ద ులు</w>
చేసుకుంట ాయి</w>
అందుకో సం</w>
పద్ధ తులను</w>
పా టిస్త
పాటిస్త ాయి</w>
ఉద్యోగ ులంద</w>
రావ ాల్సిందే
రావాల్సిందే న
రావాల్సిందేన ంటూ</w>
నీ యంగా</w>
గ్గ డంతో</w>
జో న్ల</w>
మి న
మిన హ
మినహ ాయి
మినహాయి ంపు</w>
అ ండ</w>
ఆ పై</w>
కార </w>
మే లో</w>
ఉద్యోగ ుల్లో</w>
రావ ాల్సింద
రావాల్సింద ిగా</w>
చక్క గా</w>
గాన ా
గానా బ
గానాబ జాన
గానాబజాన ా</w>
సాగ ించ
సాగించ ావ
సాగించావ ే</w>
హు షార
హుషార ుగా</w>
క టువ
కటువ ుగా</w>
బాల య్య</w>
సరస న</w>
రూ లర్</w>
నట ించారు</w>
చివర ్లో</w>
ఘో ర</w>
ప రాజ
పరాజ యం</w>
పాల ైంది</w>
స్ మిత
స్మిత ్</w>
మహ ాను
మహాను భావ
మహానుభావ ులైన</w>
పండిత ులకు</w>
చెప్ప గిల
చెప్పగిల ిగ
చెప్పగిలిగ ే
చెప్పగిలిగే ంత</w>
విజ ్
విజ్ ఞ
విజ్ఞ త</w>
సంస్ కారం</w>
తెలి వితే
తెలివితే టలు</w>
గాన ీ</w>
మాల ా
మాలా ంటి</w>
అ జ్ఞాన
అజ్ఞాన ులైన</w>
హై ంద
హైంద వ
హైందవ ంలో</w>
హింద ూ</w>
మే మంతా</w>
కన్ఫ ్యూ
కన్ఫ్యూ జన్</w>
చ స్తున్నాం</w>
పండ గొ
పండగొ స్తే</w>
ఇవ ్వా
ఇవ్వా ళ</w>
అన ుకునే</w>
ఉన్న ాం</w>
చ ౌ
చౌ టు
చౌటు ప్ప
చౌటుప్ప ల్</w>
రిజర్ వ్</w>
ఫ ారె
ఫారె స్ట్</w>
క బ్
కబ్ జా</w>
న్యాయ మే</w>
ప్ర హ
ప్రహ ్లా
ప్రహ్లా ద్</w>
సర్ పంచ
సర్పంచ ్</w>
అన్న ారం</w>
ఐదే ళ్లలో</w>
రు ణాల</w>
ఎగ వేత</w>
నియంత్ర ణలో</w>
ద ితో</w>
హి ట్టు</w>
స్ఫూర్ తితో</w>
పెంచ ుకుంటూ</w>
స్టార ్లు</w>
తో డైన</w>
అంద ుకుంది</w>
చుట్ట </w>
బోత ున్నాడు</w>
టిక ే</w>
స్క్రిప ్ట
స్క్రిప్ట ు</w>
కొల ిక్కి
కొలిక్కి వ</w>
ఇంద ుల
ఇందుల ోనూ</w>
థ ాన
థాన ాయ</w>
కనిప ిస్తార</w>
థ ానాయ
థానాయ ిక</w>
అ వ</w>
కాశ ాల
కాశాల ున్నాయి</w>
మన్ మ</w>
ము మ్మ</w>
సాగ ుతున్నాయి</w>
బ్ర </w>
హ్ మా
హ్మా స్త్ర
హ్మాస్త్ర </w>
నా గ్</w>
చే త
చేత ుల్లో</w>
ఇద ొక్క</w>
న్ మ</w>
పూర్ త</w>
వా తే</w>
బోత ో
బోతో ంద</w>
నిప ించిన</w>
టీ న</w>
ట ులంతా</w>
పార్ట ్</w>
నిప ిస్తార</w>
వి వ</w>
వ ుతాయి</w>
రాజ లింగ
రాజలింగ ం</w>
సు ష్
సుష్ మా</w>
విజయ కృష్ణ</w>
అప్ప యి
అప్పయి ంట
అప్పయింట ్
అప్పయింట్ మెంట్</w>
ఆల స్యం</w>
స్పీ డు</w>
కొంచె ం
కొంచెం పెంచ
కొంచెంపెంచ ా</w>
ఆఫీ స్</w>
అనుకో ని</w>
చంద్రు డిని</w>
ప్ర సన్న
ప్రసన్న ం</w>
చేసుకోవ ాలంటే</w>
ఓటమ ులను</w>
ఎదుర్కొ న్న</w>
ఉద్య మాన్ని</w>
అణిచి వేసింది</w>
తిరుగుబాటు ను</w>
అణిచి వేసే
అణిచివేసే ందుకు</w>
అంత టా</w>
సంచ ర
సంచర ించే</w>
శక్ తిని</w>
నిర్వహించ వలసిన</w>
ఏర్ పడింది</w>
మృ తుని</w>
సదాన ంద
సదానంద ద
సదానందద ంకు</w>
అంద ించడంతో</w>
హు టా
హుటా హు
హుటాహు ట
హుటాహుట ిన</w>
ముంబై కి</w>
వెళ్ల ి</w>
తమ్మ ున్న
తమ్మున్న ి</w>
హత్య చేయ
హత్యచేయ ించి</w>
తమ్ము డిని</w>
మృత ికి</w>
కారణ మని</w>
తమ్ము డి</w>
ముంబ ై</w>
పోలీ సుల</w>
సహాయ ంతో</w>
రే గొండ
రేగొండ కు</w>
తీసుకు వచ్చి</w>
అంత ్య
అంత్య క్ర
అంత్యక్ర ియ
అంత్యక్రియ లు</w>
మృ తు
మృతు నికి</w>
ఒక్క టి
ఒక్కటి గానే</w>
ఉంట ాం</w>
ఇ యు</w>
ఫ్యా క్ట్</w>
ఫ ేక్</w>
పడ ేశ
పడేశ ాయి</w>
చై నీ
చైనీ స్</w>
ఇండ ియన్</w>
పిల్ల ల</w>
పంప డానికి</w>
శి శ
శిశ ువ
శిశువ ై
శిశువై ద్య
శిశువైద్య ుడు</w>
సి స్టి
సిస్టి టిస్</w>
మూత్ర పిండ
మూత్రపిండ ాల</w>
కంట ెంట్</w>
అన్న ివిధ
అన్నివిధ ాల</w>
విశ్లేష ణ</w>
సంస్ కృతి</w>
మూత్ర </w>
బా క్
బాక్ టీ
బాక్టీ రియ
బాక్టీరియ ా</w>
దా డి
దాడి వలన</w>
కి డ్
కిడ్ నీ</w>
వృ క్క
వృక్క ద్రో
వృక్కద్రో ణ
వృక్కద్రోణ ి</w>
శో థ
శోథ ము</w>
మూత్ర పి
మూత్రపి ండ</w>
వై ఫల
వైఫల ్యం</w>
మధు మే
మధుమే హం</w>
మొదలె ౖన
మొదలైన వి</w>
తీవ్ర మైన</w>
వ్యా ధ
వ్యాధ ుల</w>
లక్ష ణంగా</w>
పిల్ల లలో</w>
మూత్ర వి
మూత్రవి సర్
మూత్రవిసర్ జన</w>
స్వీకరించ వచ్చు</w>
ఇంట ెన్
ఇంటెన్ సి
ఇంటెన్సి వ్</w>
పర్యవే క్ష
పర్యవేక్ష ణలో</w>
9 1</w>
ఓట ర్లు</w>
ప సు
పసు పు</w>
కు ంకు
కుంకు మ</w>
ఇచ్చ ామని</w>
మహిళ ల
మహిళల ంతా</w>
ఏక పక్ష
ఏకపక్ష ంగా</w>
అర్హ ులకు</w>
పి ంఛ
పింఛ న్లు</w>
నిరుద్య ోగ
నిరుద్యోగ భ
నిరుద్యోగభ ృతి</w>
ఇస్తున్న ామని</w>
అన్న దాత</w>
సు ఖ
సుఖ ీ
సుఖీ భ
సుఖీభ వ</w>
పథ కాన్ని</w>
వర్తి ంప
వర్తింప జే
వర్తింపజే స్తున్న
వర్తింపజేస్తున్న ామని</w>
అభివృద్ధ ిని</w>
ఓ ర్
ఓర్ వ</w>
పన్న ుతున్నారని</w>
కొడ ుతున్నారని</w>
ఎ ద్
ఎద్ దేవ
ఎద్దేవ ా</w>
సా ధ్యం</w>
కావ ని</w>
మ భ్య</w>
పెడ ుతున్నారని</w>
బల హీ
బలహీ న</w>
మో దీయ
మోదీయ ే</w>
ల ాల
లాల ూ</w>
చుర క</w>
ర్యా ంకొ
ర్యాంకొ చ్చ
ర్యాంకొచ్చ ింద
ర్యాంకొచ్చింద నే</w>
పి చ్చ
పిచ్చ ా</w>
స త్యం</w>
ప్రశ్ నలకు</w>
వే లా
వేలా ది</w>
స్కా ంకు</w>
కొనసాగ ిస్తున్న</w>
సీ ఐ
సీఐ డీ</w>
రూపొంద ించారు</w>
కస్ట డీ
కస్టడీ లో</w>
సమా ధానాలు</w>
తెలుస ుకునే</w>
రే గొండ</w>
8 18</w>
2 9
29 46</w>
7 30</w>
1 4
14 45</w>
1 50
150 1</w>
4 9
49 4</w>
57 8
578 0
5780 6
57806 2</w>
50 6
506 3
5063 4
50634 8</w>
షా జ
షాజ హాన్</w>
జిల్ల ాలోని</w>
సద ర్</w>
199 4</w>
బంధ ువుల</w>
వు ంటూ</w>
చదువ ుకునే
చదువుకునే ది</w>
బాల ిక
బాలిక పై</w>
కన్న ే
కన్నే సిన</w>
యువ కులు</w>
ఒ ంట
ఒంట రిగా</w>
వ ున్న</w>
పల ు
పలు మార్లు</w>
బల త్
బలత్ కారానికి</w>
వయ సుల
వయసుల ోనే</w>
గ ర్భ
గర్భ ం</w>
దాల్చ ి</w>
మగ బిడ్డకు</w>
జన్మ ని
జన్మని చ్చింది</w>
క్లో తి
క్లోతి ంగ్</w>
చిన్న ప్ప
చిన్నప్ప టి</w>
అవ డం</w>
వాస్త వరూప
వాస్తవరూప ం</w>
తీసుకు రా
తీసుకురా గలి
తీసుకురాగలి గాను</w>
పుల ్
పుల్ కు
పుల్కు ర్
పుల్కుర్ తి</w>
మాన ూరు</w>
దుద్ధగొండ లోను</w>
దుద్ధగొండ లోనూ</w>
ఇంజ నీ
ఇంజనీ రింగ్</w>
బీ ద
బీద ర్ల
బీదర్ల ోను</w>
బ్ల ూ
బ్లూ టూ
బ్లూటూ త్</w>
స్వి చ్</w>
చేసి న
చేసిన పుడు</w>
ఇన్ విజ
ఇన్విజ బుల్</w>
సినిమ ాలకు</w>
ఇ పుడు</w>
పన ికి</w>
అక్క డు</w>
లె క్కలు</w>
చిన్న గా</w>
అనిప ించినా</w>
డబ్బ ింగ్</w>
మా మ
మామ ులు</w>
కాద ంటున్నారు</w>
ట్రే డ్</w>
పండిత ులు</w>
కలెక్ష న్లు</w>
ఉంట ాయో</w>
వృద్ధ ిని</w>
సాధించ ాం</w>
ఉప వా
ఉపవా సం</w>
విష్ణ ున
విష్ణున ామ</w>
సం కీ
సంకీ ర్
సంకీర్ తన
సంకీర్తన తో</w>
జాగ ర
జాగర ణ</w>
మరు నాడు</w>
ఉద యా
ఉదయా న్నే</w>
పున ః
పునః పూజ</w>
నై వే
నైవే ద్యం</w>
సమర్ ప
సమర్ప ించడంతో</w>
ఏ కాద
ఏకాద శి</w>
వ్ర తం</w>
పూర్ వం</w>
వ్ర తాన్ని</w>
వై ఖా
వైఖా స
వైఖాస ను
వైఖాసను డనే</w>
ఆ చ
ఆచ రించి</w>
మో క్ష
మోక్ష ాన్ని</w>
పొంద ినట్టుగా</w>
పురా ణాలు</w>
సుమ త
సుమత ికి</w>
చంద్ర ావ
చంద్రావ తితో</w>
నియ మ</w>
ని ష్ట
నిష్ట లను</w>
పాటి స్తూ</w>
అ న్
అన్ యో
అన్యో న్య
అన్యోన్య ంగా</w>
గడప సాగారు</w>
ర ుతు
రుతు ద
రుతుద ోష
రుతుదోష ానికి</w>
కుక్క గా</w>
జయ శ్రీ</w>
అడ్ డు</w>
చెప్ప న
చెప్పన ందుకు</w>
సు మిత్రుడు</w>
ఎ ద్ద
ఎద్ద ుగా</w>
జన్మ ించారు</w>
తీర ని</w>
ప్రే మాన
ప్రేమాన ు
ప్రేమాను రా
ప్రేమానురా గాల</w>
సు మతి</w>
చేర ుకున్నారు</w>
ప్రి ముల
ప్రిముల ా</w>
సమ ృ
సమృ ద్ధ
సమృద్ధ ిగా</w>
త్రా గు
త్రాగు ట
త్రాగుట కు</w>
వ్యవ ధి</w>
తీవ్ర త</w>
ఆధార పడి</w>
ముగి సిన</w>
ప్రి ం
ప్రిం రోజ్</w>
చేయ రా
చేయరా దు</w>
ఇండియా కు</w>
గమ ని
గమని స్తే</w>
20 20</w>
క్రా స్</w>
డీ లర్</w>
ష ిప్</w>
చేర ుకుంటోంది</w>
ఆగ స్ట్</w>
లి ంకు
లింకు పై</w>
చేయ ండి</w>
పొ మ్మ
పొమ్మ న
పొమ్మన లేక</w>
పొ గ
పొగ బెట్ట
పొగబెట్ట ినట్లు</w>
వ్యవహ రించ
వ్యవహరించ డంతో</w>
తప్ప ని</w>
గు డ్</w>
బ ై</w>
తప్ప లేదని</w>
బీజేపీ పై</w>
ఎగి రి</w>
గోడ కు</w>
కొట్ట ుకుని</w>
కింద ు
కిందు పడింది</w>
అ ట్ల
అట్ల ా</w>
మొద లయ
మొదలయ ింది</w>
పెంప కం</w>
ప్రా ధ
ప్రాధ మిక</w>
కీ ళ్ళ</w>
ఇస్తున్న ట్లే</w>
వున్న ది</w>
రైత ుల</w>
మద్ద తి
మద్దతి చ్చారు</w>
పడ ుతున్న</w>
ఇబ్బంద ులపై</w>
కేంద్ర ంపై</w>
దండ యాత్ర
దండయాత్ర కు</w>
ఇచ్చే వరకు</w>
రై తు
రైతు పక్ష
రైతుపక్ష ాన</w>
ఆగ వని</w>
మొ ండ
మొండ ిగా</w>
వ్యవహ రి
వ్యవహరి స్తే</w>
ఉ ధ
ఉధ ృ
ఉధృ తంగా</w>
లేక పో
లేకపో లేదు</w>
వరి ధాన్యం</w>
ఇవ్వ లేదు</w>
రై తా
రైతా ంగం</w>
నష్టపో కుండా</w>
చూస ుకునే</w>
ప్రభుత్వా ని
ప్రభుత్వాని దే
ప్రభుత్వానిదే నని</w>
కల్ప ించారు</w>
ధా న్య
ధాన్య ంలో</w>
గింజ వరకు</w>
కొ ంట
కొంట ామని</w>
సు నీ
సునీ ల్</w>
కన బ
కనబ డు
కనబడు ట
కనబడుట లేదు</w>
సంస్థ ాప
సంస్థాప న</w>
తప్ప క</w>
గోడ లు</w>
గడ్డ లు</w>
చిప ్స్</w>
లోప ాలు</w>
పత్ర ాలపై</w>
p </w>
గో డ</w>
లా త్</w>
తగ ిన
తగిన ంత</w>
మృదువ ె
మృదువె ౖన</w>
వాస్త వం</w>
ను ను
నును పె
నునుపె ౖన</w>
అంద మైన</w>
ఉ పరి
ఉపరి తల</w>
కుటుంబ ాల</w>
ఊ రిక
ఊరిక ే</w>
పో దు</w>
వాహ ినీ</w>
ప్రొ డ
ప్రొడ క్ష
ప్రొడక్ష న్స్</w>
అధ ిప
అధిప తులు</w>
న ారాయ
నారాయ ణ
నారాయణ స్వామి</w>
రామ నాథ్</w>
మొదలైన వారు</w>
పేరుగ ా
పేరుగా ంచ
పేరుగాంచ ిన</w>
ఆ కాలంలో</w>
ఆసి య
ఆసియ ాలో</w>
సంస్థ లలో</w>
ఒక టి
ఒకటి గా</w>
పేర ొంద
పేరొంద ింది</w>
తరు వా
తరువా తి</w>
సంవత్సర ాల్లో</w>
నా గి
నాగి రెడ్డి</w>
చేస ుకొని</w>
స్టూ డియో
స్టూడియో స్</w>
ద సర
దసర ా</w>
మరు స
మరుస టి
మరుసటి రోజు</w>
నూ నెల</w>
ధ ర్మ
ధర్మ ాలను</w>
నిర్ణయ ించుటకు</w>
చేయ ు</w>
సింహ రాశి</w>
తెలి వి
తెలివి గా
తెలివిగా చేసిన</w>
మ దుప
మదుప ులే</w>
లాభ ాలుగా</w>
వస్త ాయి</w>
కష్ట ార్
కష్టార్ జ
కష్టార్జ ిత
కష్టార్జిత మైన</w>
డబ్బ ును</w>
ఎంద ులో</w>
మ దుపు</w>
చెయ్య ాలో</w>
చూస ుకొ
చూసుకొ ండి</w>
కొంత మందికి</w>
కుటుంబ ంలోకి</w>
రావ డమ్</w>
సం బ
సంబ ర
సంబర ాలకు</w>
వేడుక లకు</w>
కారణ మవుతుంది</w>
వ్యక్త ుల</w>
నై తిక
నైతిక ంగా</w>
ప్రోత్ సా
ప్రోత్సా హం</w>
ఏ విధమైన</w>
తొందర పాటు</w>
తెలి వైన</w>
మీ కోసం</w>
తీస ుకుంటారు</w>
చెప్ప లే
చెప్పలే నంత</w>
సంగతే మో</w>
షూ ట్స్</w>
ఆప డం</w>
బ క్క
బక్క గా</w>
కనిప ించినా</w>
బోలెడ న్ని</w>
అంద ాలను</w>
తన లో</w>
దా చ
దాచ ుకున్న</w>
తన ది</w>
పర్ ఫెక్ట్</w>
చెప్ప ుకుంటుంది</w>
ఫోటో లను</w>
చూప ించే</w>
అంట ోంది</w>
అ లా</w>
అన్న ంత</w>
మాత్ర ాన</w>
ఎక్క డిక
ఎక్కడిక ో</w>
వెళ్లి పోవ
వెళ్లిపోవ ాల్సిన</w>
జ స్ట్</w>
షూ ట్</w>
పీ స్</w>
అమ్మ డు</w>
అంద ాలు</w>
దా గ
దాగ లేక</w>
బోలెడ ంత</w>
పడి పోత
పడిపోత ుంటే</w>
పెట్ట లే
పెట్టలే నని</w>
చెబ ుతున్న
చెబుతున్న ట్లుగా</w>
వాల కం</w>
సాహిత ్య</w>
పరిష త్తు</w>
పీ ఎస్</w>
మిత్ర న్</w>
నాలుగై దు</w>
చిత్ర బృందం</w>
సర్ ద
సర్ద ార్</w>
కర్ టన్</w>
రై జర్</w>
ఆవిష్కర ించింది</w>
మాధ్యమ ాల</w>
దర్శ క
దర్శక నిర్మాతలు</w>
పొడ వాటి</w>
గు బు
గుబు రు</w>
తెల ్ల</w>
గడ్ డంతో</w>
దర్శ న
దర్శన మి
దర్శనమి చ్చ
దర్శనమిచ్చ ి</w>
పెంచ ాడు</w>
జీ వీ</w>
నేపథ ్య</w>
ఆకట్ట ుకుంటోంది</w>
పరిస్థిత ుల</w>
తెరకెక్క ుతోన్న</w>
అనిప ిస్తోంది</w>
జ ియ
జియ ాల
జియాల జీ</w>
ఖ నిజ
ఖనిజ సం
ఖనిజసం పద</w>
మాట ల్లో</w>
అ చ్చ
అచ్చ ం</w>
మా మ్మ</w>
గొంత ే</w>
వినిప ించింది</w>
ఉ ల
ఉల ిక్కి
ఉలిక్కి పడ్డ
ఉలిక్కిపడ్డ ాను</w>
దాని వ
దానివ ంకే</w>
చూ స్తూ</w>
నో ట్లో</w>
వే లు
వేలు సుకుని</w>
హాయ ిగా</w>
జారి పోయింది</w>
అప్రమత్త మయ
అప్రమత్తమయ ిన</w>
ఎస్ సై
ఎస్సై </w>
తప్పించ ుకున్నాడు</w>
కార ులో</w>
అవ ుతుందనే</w>
సమాచార ంత
సమాచారంత ోనే</w>
చేపట్ట ామని</w>
గో పి
గోపి నాథ్</w>
కార ును</w>
ప్రయత్నించ గా</w>
ఢ ీ</w>
తప్పించ ుకునే</w>
చేశా డని</w>
చా క
చాక చ
చాకచ క్య
చాకచక్య ంగా</w>
ఫి ర్</w>
ప్రభా వి
ప్రభావి త</w>
వర్తి ంప</w>
సాధ నం</w>
మ ంట</w>
చే ంజ్</w>
పూర్తవ ుతుంది</w>
ఘట న
ఘటన లో</w>
బా జీ</w>
ఆధ ిప
ఆధిప త్యం</w>
కోసమ ే
కోసమే నా</w>
శాసన మండలి</w>
ప్రశ్ నో
ప్రశ్నో త్త
ప్రశ్నోత్త రాల</w>
టూ రిజ
టూరిజ ం</w>
అభివృద్ధ ిపై</w>
పర్యాట క
పర్యాటక శాఖ</w>
నడిచ ింది</w>
బ ుడ
బుడ గల</w>
పండుగ </w>
పెడ ుతోందని</w>
