"
"</w>
%
%</w>
'
'</w>
(
(</w>
)
)</w>
*
*</w>
,
,</w>
-
-</w>
/
/</w>
0
000</w>
00</w>
01</w>
05
0543</w>
06</w>
0</w>
1
100</w>
106</w>
10</w>
110</w>
11</w>
120</w>
126</w>
12</w>
138
1381</w>
13</w>
14
142</w>
143</w>
1445</w>
14</w>
15
150
1501</w>
150</w>
152</w>
153
1539</w>
15</w>
164</w>
16</w>
17
171</w>
179</w>
17</w>
18
186</w>
189
1892</w>
1893</w>
18</w>
19
1918</w>
1950</w>
1957</w>
196
1969</w>
197
1973</w>
199
1994</w>
1997</w>
19</w>
1</w>
2
20
200
2007</w>
2008</w>
2009</w>
200</w>
201
2010</w>
2011</w>
2014</w>
2016</w>
2017</w>
2019</w>
2020</w>
2021</w>
2023</w>
20</w>
210</w>
218</w>
21</w>
228</w>
22</w>
234</w>
23</w>
24
245</w>
249</w>
24</w>
25
258</w>
25</w>
26</w>
27</w>
28
281</w>
288</w>
28</w>
29
2946</w>
29</w>
2</w>
2౦
2౦11</w>
2౦16</w>
3
30
3000</w>
300</w>
308</w>
30</w>
33</w>
34</w>
350</w>
35</w>
364</w>
36</w>
37
377</w>
38
38</w>
3</w>
4
400</w>
40</w>
41</w>
426</w>
42</w>
43</w>
44</w>
45</w>
46</w>
475</w>
49
494</w>
4</w>
5
50
500</w>
502
5023
502313</w>
505</w>
506
5063
50634
506348</w>
507</w>
50</w>
514</w>
51</w>
55</w>
57
570</w>
572</w>
5738
573812</w>
574
5742
57426
574266</w>
578
5780
57806
578062</w>
57</w>
59
596</w>
5</w>
6
60</w>
63</w>
64</w>
65</w>
67</w>
6</w>
7
706</w>
70</w>
710</w>
714</w>
73
730</w>
732</w>
750</w>
75</w>
78</w>
7</w>
8
800</w>
80</w>
818</w>
84</w>
87</w>
8</w>
9
90</w>
91</w>
950</w>
95</w>
97</w>
98</w>
99</w>
9</w>
:
:</w>
;
;</w>
</w>
B
B</w>
C
C</w>
E
E</w>
F
F</w>
G
G</w>
H
H</w>
I
I</w>
J
J</w>
K
K</w>
M
M</w>
N
N</w>
O
O</w>
P
P</w>
R
R</w>
S
S</w>
T
T</w>
U
U</w>
V
V</w>
W
W</w>
Y
Y</w>
[
[</w>
]
]</w>
`
`</w>
a
a</w>
b
b</w>
c
c</w>
d
d</w>
e
e</w>
g
g</w>
h
h</w>
i
i</w>
k
k</w>
l
l</w>
m
m</w>
n
n</w>
o
o</w>
p
p</w>
r
r</w>
s
s</w>
t
t</w>
u
u</w>
v
v</w>
w
w</w>
y
y</w>
z
z</w>
|
|</w>
»
»</w>
×
×</w>
ం
ం</w>
ంక
ంక</w>
ంకర
ంకర్</w>
ంకా
ంకు
ంకు</w>
ంకే</w>
ంకొ
ంగ
ంగ</w>
ంగం</w>
ంగా
ంగా</w>
ంగి
ంగుల</w>
ంగ్</w>
ంగ్స్</w>
ంచ
ంచి</w>
ంచె
ంఛ
ంజ
ంజలో</w>
ంజ్</w>
ంట
ంట</w>
ంటాయి</w>
ంటారు</w>
ంటి</w>
ంటికి</w>
ంటీ
ంటుంది</w>
ంటున్నారు</w>
ంటూ</w>
ంటే</w>
ంట్</w>
ంట్లు</w>
ంట్స్</w>
ండ
ండ</w>
ండగా</w>
ండర్</w>
ండా</w>
ండి</w>
ండిల్</w>
ండీ
ండీ</w>
ండ్</w>
ండ్ల
ండ్ల</w>
ండ్లను</w>
ంత
ంత</w>
ంతం</w>
ంతగా</w>
ంతపురం</w>
ంతరం</w>
ంతా</w>
ంతి</w>
ంతో
ంతో</w>
ంతోపాటు</w>
ంత్</w>
ంత్ర
ంద
ంద</w>
ందం</w>
ందని</w>
ందర
ందరికీ</w>
ందర్</w>
ందాన్ని</w>
ంది</w>
ందుకు</w>
ందుకుంది</w>
ందో
ందోళ
ంద్ర
ంద్ర</w>
ంధ
ంప
ంప</w>
ంపిన</w>
ంపు</w>
ంపులు</w>
ంపుల్</w>
ంపే
ంపేట</w>
ంపై</w>
ంప్</w>
ంబ
ంబ</w>
ంబరంగా</w>
ంబర్</w>
ంభ
ంలో
ంలో</w>
ంలోకి</w>
ంలోని</w>
ంలోనూ</w>
ంలోనే</w>
ంశ
ంస
ంసం</w>
ః
ః</w>
అ
అ</w>
అం
అంక
అంకిత
అంకితమై</w>
అంగ
అంగన్</w>
అంగరంగ
అంగరంగ</w>
అంగాల</w>
అంగీ
అంగీకర
అంగీకరించే</w>
అంచ
అంచ</w>
అంచన
అంచనా</w>
అంచనాలతో</w>
అంచనాలను</w>
అంచనాలు</w>
అంజ
అంజయ్య
అంజయ్య</w>
అంజయ్యను</w>
అంజయ్యయా
అంజయ్యయాద
అంజయ్యయాదవ్</w>
అంట
అంటారని</w>
అంటారు</w>
అంటు
అంటు</w>
అంటుంట
అంటుంటాము</w>
అంటుకుని</w>
అంటుకొ
అంటుకొంద</w>
అంటున్న
అంటున్నరు</w>
అంటున్నాడు</w>
అంటున్నారు</w>
అంటూ</w>
అంటే</w>
అంటోంది</w>
అండ</w>
అండగా</w>
అండ్</w>
అంత
అంత</w>
అంతకు
అంతకు</w>
అంతకుముంద
అంతకుముందు</w>
అంతకుముందె
అంతకుముందెప్పుడూ</w>
అంతట</w>
అంతటా</w>
అంతటి</w>
అంతమైపోయింది</w>
అంతరించ
అంతరించిపోయింది</w>
అంతరిక
అంతరిక్
అంతరిక్ష
అంతరిక్ష</w>
అంతరిక్షంలో</w>
అంతర్
అంతర్గత</w>
అంతర్జాతీయ</w>
అంతా</w>
అంతులే
అంతులేనంత</w>
అంతే
అంతే</w>
అంతేకాకుండా</w>
అంతేకాదు</w>
అంతేకానీ</w>
అంతేగా
అంతేగాక</w>
అంత్య
అంత్యక్ర
అంత్యక్రియ
అంత్యక్రియలు</w>
అంద
అంద</w>
అందం</w>
అందంగా</w>
అందగా
అందగాడిని</w>
అందజే
అందజేయ
అందజేయనున్నారు</w>
అందజేస్త
అందజేస్తామన్నారు</w>
అందజేస్తుందని</w>
అందమైన</w>
అందరి
అందరి</w>
అందరికి</w>
అందరికీ</w>
అందరిని</w>
అందరినీ</w>
అందరూ</w>
అందర్
అందర్నీ</w>
అందాలను</w>
అందాలు</w>
అంది</w>
అందించ
అందించక</w>
అందించడంతో</w>
అందించడమే</w>
అందించనున్న
అందించనున్నామని</w>
అందించారు</w>
అందించాల్సిన</w>
అందించి</w>
అందించిందట</w>
అందించింది</w>
అందించే</w>
అందిందని</w>
అందింది</w>
అందిచ
అందిచాడు</w>
అందిన</w>
అందిస్తుందని</w>
అందిస్తున్న
అందిస్తున్న</w>
అందిస్తున్నట్లు</w>
అందిస్తున్నారని</w>
అందిస్తే</w>
అందిస్తోంది</w>
అందు
అందు</w>
అందుకు</w>
అందుకుంటారు</w>
అందుకుంటూ</w>
అందుకుంది</w>
అందుకున్నాడు</w>
అందుకే</w>
అందుకో
అందుకోలే
అందుకోలేకపోయ
అందుకోలేకపోయాయి</w>
అందుకోలేదనే</w>
అందుకోసం</w>
అందుచేత</w>
అందుతుంది</w>
అందుతున్నాయ
అందుతున్నాయన్నారు</w>
అందునా</w>
అందుబాట
అందుబాటు
అందుబాటులో</w>
అందుబాటులోకి</w>
అందులో</w>
అందులోని</w>
అందువ
అందువల్ల
అందువల్ల</w>
అందువల్లనే</w>
అంపై
అంపైర్</w>
అంబ
అంబటి</w>
అంబాన
అంబానీ</w>
అంబుల
అంబులెన్సు
అంబులెన్సుపై</w>
అంశ
అంశం</w>
అంశంపై</w>
అంశంలో</w>
అంశాల
అంశాలను</w>
అంశాలనూ</w>
అంశాలే</w>
అంస
అంసతృ
అంసతృప్తి</w>
అకాల</w>
అకౌ
అకౌంట
అకౌంట్</w>
అకౌంట్లు</w>
అక్క
అక్క</w>
అక్కడ
అక్కడ</w>
అక్కడక్క
అక్కడక్కక్
అక్కడక్కక్స</w>
అక్కడి
అక్కడి</w>
అక్కడినుంచి</w>
అక్కడు</w>
అక్కడే</w>
అక్కా</w>
అక్ట
అక్టో
అక్టోబ
అక్టోబర్</w>
అక్ర
అక్రమ
అక్రమ</w>
అక్రమచొర
అక్రమచొరబాట్లు</w>
అఖ
అఖి
అఖిల
అఖిల</w>
అఖిలప్రియ</w>
అఖిల్</w>
అగర్వ
అగర్వాల్</w>
అగు
అగును</w>
అగుప
అగుపిస్తుంది</w>
అగ్ని
అగ్నిమా
అగ్నిమాప
అగ్నిమాపక</w>
అగ్ర
అగ్రరాజ
అగ్రరాజ్యం</w>
అచ్చ
అచ్చం</w>
అజ
అజయ
అజయ్</w>
అజార
అజారు
అజారుద్ద
అజారుద్దీ
అజారుద్దీన్</w>
అజిత్</w>
అజ్ఞాన
అజ్ఞానులైన</w>
అట
అటవి</w>
అటాక్</w>
అటు
అటు</w>
అటుంచ
అటుంచితే</w>
అటుక
అటుకులతో</w>
అటువంటి</w>
అట్ల
అట్లా</w>
అడ
అడగ
అడగడం</w>
అడవి</w>
అడా
అడాప్
అడాప్షన్</w>
అడి
అడిగ
అడిగాడు</w>
అడిగారు</w>
అడిగింది</w>
అడిగితే</w>
అడిగిన</w>
అడిగినప్పుడు</w>
అడిగే</w>
అడు
అడుగ
అడుగు
అడుగు</w>
అడుగుతున్న
అడుగుతున్నావ్</w>
అడుగుద
అడుగుదామని</w>
అడుగున</w>
అడుగుపెట్ట
అడుగుపెట్టడానికి</w>
అడుగుల
అడుగులకి</w>
అడుగులు</w>
అడువ
అడువుల్లోనే</w>
అడ్
అడ్డ
అడ్డం</w>
అడ్డు</w>
అడ్డుక
అడ్డుకట్ట</w>
అడ్డుకుంట
అడ్డుకుంటున్న</w>
అడ్డుకుంటోంది</w>
అడ్డుకోవ
అడ్డుకోవటానికి</w>
అడ్డుకోవడం</w>
అడ్డూ</w>
అడ్మి
అడ్మిట్</w>
అడ్మిని
అడ్మినిస్ట్ర
అడ్మినిస్ట్రేషన్</w>
అణ
అణగ
అణగదొక్క
అణగదొక్కుతున్నారని</w>
అణి
అణిచి
అణిచివేసింది</w>
అణిచివేసే
అణిచివేసేందుకు</w>
అణువుల</w>
అత
అత</w>
అతడి</w>
అతడిని</w>
అతడు</w>
అతన
అతని</w>
అతనిక
అతనికి</w>
అతనికున్న
అతనికున్నదే
అతనికున్నదేదో</w>
అతనిని</w>
అతను</w>
అతన్ని</w>
అతలా
అతలాక
అతలాకుత
అతలాకుతలం</w>
అతి
అతి</w>
అతిథ
అతిథిగ
అతిథిగృ
అతిథిగృహ
అతిథిగృహంలో</w>
అతిథుల</w>
అతిథులు</w>
అతిధ
అతిధిగా</w>
అతిపెద్ద</w>
అతిప్రేమ</w>
అత్త
అత్తారి
అత్తారింటికి</w>
అత్య
అత్య</w>
అత్యంత</w>
అత్యధ
అత్యధిక
అత్యధిక</w>
అత్యధికంగా</w>
అత్యధికశాతం</w>
అత్యా
అత్యాచార
అత్యాచారానికి</w>
అత్యుత
అత్యుత్
అత్యుత్తమ</w>
అథ
అథారిటీ
అథారిటీ</w>
అథారిటీలో</w>
అద
అద</w>
అదన
అదనంగా</w>
అదనపు</w>
అదర
అదరగొ
అదరగొట్ట
అదరగొట్టేశ
అదరగొట్టేశాడు</w>
అదరగొడ
అదరగొడుతోంది</w>
అదలా</w>
అది</w>
అదిరి
అదిరిపోయే</w>
అదు
అదుప
అదుపు
అదుపు</w>
అదుపుత
అదుపుతప్ప
అదుపుతప్పి</w>
అదుపులో</w>
అదుపులోకి</w>
అదుపూ</w>
అదృ
అదృశ్య
అదృశ్యమై</w>
అదృష్ట
అదృష్టం</w>
అదృష్టంగా</w>
అదే
అదే</w>
అదేవిధంగా</w>
అద్
అద్ద
అద్దాడు</w>
అద్బ
అద్బుత</w>
అద్భుత
అద్భుత</w>
అద్భుతంగా</w>
అద్భుతమైన</w>
అద్భుతమైన</w>
అద్య
అద్యక్షుడు</w>
అధ
అధి
అధిక
అధిక</w>
అధికంగా</w>
అధికమని</w>
అధికార
అధికార</w>
అధికారం</w>
అధికారంలో</w>
అధికారంలోకి</w>
అధికారాన్ని</w>
అధికారి</w>
అధికారిక</w>
అధికారికంగా</w>
అధికారికి</w>
అధికారిగా</w>
అధికారుకు</w>
అధికారుల</w>
అధికారులకు</w>
అధికారులపై</w>
అధికారులు</w>
అధినేత</w>
అధిప
అధిపతులు</w>
అధీ
అధీనం</w>
అధీనాన్ని</w>
అధ్య
అధ్య</w>
అధ్యక్ష
అధ్యక్ష</w>
అధ్యక్షు
అధ్యక్షుడిని</w>
అధ్యక్షుడు</w>
అధ్యక్షుని</w>
అధ్యక్షుర
అధ్యక్షురాలిగా</w>
అధ్యక్షురాలుగా</w>
అధ్యయ
అధ్యయన</w>
అధ్యయనం</w>
అధ్యయనంలో</w>
అన
అనంత</w>
అనంతపురం</w>
అనంతరం</w>
అనకా
అనకాపల్లి</w>
అనగలను</w>
అనటానికి</w>
అనడం</w>
అనధికార
అనధికారికంగా</w>
అనను</w>
అనర్
అనర్హ
అనర్హత</w>
అనలిటికల్</w>
అనాటి</w>
అనార
అనారోగ
అనారోగ్య</w>
అనాలి
అనాలిసిస్</w>
అనాల్
అనాల్సిందే</w>
అని
అని</w>
అనిత</w>
అనిప
అనిపించింది</w>
అనిపించినా</w>
అనిపిస్తారు</w>
అనిపిస్తుంది</w>
అనిపిస్తోంది</w>
అనియ
అనియత</w>
అనిల్</w>
అనిశెట్టి</w>
అనీ
అనీల్</w>
అనీష్</w>
అను
అనుకు
అనుకుంట
అనుకుంటారు</w>
అనుకుంటుండగా</w>
అనుకుంటున్న</w>
అనుకుంటున్నారు</w>
అనుకుంద
అనుకుందో</w>
అనుకునే</w>
అనుకున్న
అనుకున్న</w>
అనుకున్నట్టుగా</w>
అనుకూ
అనుకూలీకరణ</w>
అనుకో
అనుకోక
అనుకోకండి</w>
అనుకోని</w>
అనునది</w>
అనుప
అనుపమ</w>
అనుబంధ
అనుబంధాన్ని</w>
అనుభవ
అనుభవం</w>
అనుభవాలు</w>
అనుభవించారు</w>
అనుమ
అనుమత
అనుమతి
అనుమతి</w>
అనుమతించ
అనుమతించకపోవ
అనుమతించకపోవడం</w>
అనుమతిస్తారు</w>
అనుమతిస్తున్నారని</w>
అనుమతులు</w>
అనుమాన
అనుమానాలు</w>
అనురా
అనురాధ
అనురాధ</w>
అనువర్
అనువర్త
అనువర్తిత</w>
అనువాద</w>
అనువై
అనువైన
అనువైనభా
అనువైనభాష
అనువైనభాషగా</w>
అనుష్
అనుష్క</w>
అనుసర
అనుసరి
అనుసరించ
అనుసరించండి</w>
అనుసరిస్
అనుసరిస్నూ</w>
అనే
అనే</w>
అనేక
అనేక</w>
అనేకమంది</w>
అనేది</w>
అనౌన్స్</w>
అన్
అన్</w>
అన్న
అన్న</w>
అన్నం</w>
అన్నంత</w>
అన్నకూతురు</w>
అన్నట్టుగా</w>
అన్నట్లు</w>
అన్నదా
అన్నదాత</w>
అన్నదాతలను</w>
అన్నది</w>
అన్నదే</w>
అన్నాడు</w>
అన్నారం</w>
అన్నారు</w>
అన్ని
అన్ని</w>
అన్నిటిక
అన్నిటికన్నా</w>
అన్నివిధ
అన్నివిధాల</w>
అన్నీ
అన్నీసందర్భ
అన్నీసందర్భాలలో</w>
అన్య
అన్యధా</w>
అన్యాయం</w>
అన్యో
అన్యోన్య
అన్యోన్యంగా</w>
అపో
అపోలో</w>
అప్</w>
అప్ప
అప్పటి</w>
అప్పటిక
అప్పటికీ</w>
అప్పటికే</w>
అప్పట్ల
అప్పట్లో</w>
అప్పట్లోనే</w>
అప్పయి
అప్పయింట
అప్పయింట్
అప్పయింట్మెంట్</w>
అప్పుడ
అప్పుడప్పుడు</w>
అప్పుడు</w>
అప్పుడే</w>
అప్ర
అప్రమ
అప్రమత్త
అప్రమత్తం</w>
అప్రమత్తంగా</w>
అప్రమత్తమయ
అప్రమత్తమయిన</w>
అప్ల
అప్లిక
అప్లికేషన్</w>
అప్లై</w>
అఫ్ఘ
అఫ్ఘన్</w>
అబ్
అబ్ఖ
అబ్ఖజ
అబ్ఖజియా</w>
అబ్బ
అబ్బా
అబ్బా</w>
అబ్బాస్</w>
అబ్బే</w>
అభ
అభయ
అభయ్</w>
అభి
అభిన
అభినంద
అభినందించారు</w>
అభినయ
అభినయంతో</w>
అభిప్ర
అభిప్రాయ
అభిప్రాయ</w>
అభిప్రాయం</w>
అభిప్రాయపడుతున్నారు</w>
అభిప్రాయాన్ని</w>
అభిప్రాయాలను</w>
అభిమ
అభిమన్య
అభిమన్యు</w>
అభిమా
అభిమాన
అభిమానంతో</w>
అభిమానించ
అభిమానించే
అభిమానించే</w>
అభిమానించేవారిలో</w>
అభిమానులకు</w>
అభిమానులను</w>
అభిమానులు</w>
అభివృద్
అభివృద్ది</w>
అభివృద్ధ
అభివృద్ధి</w>
అభివృద్ధికి</w>
అభివృద్ధిని</w>
అభివృద్ధిపై</w>
అభివృద్ధిలో</w>
అభిషే
అభిషేక</w>
అభిషేక్</w>
అభ్య
అభ్యంత
అభ్యంతం</w>
అభ్యంతరం</w>
అభ్యంతరాలు</w>
అభ్యర్థ
అభ్యర్థనలు</w>
అభ్యర్థి</w>
అభ్యర్థిస్తోంది</w>
అభ్యర్థుల</w>
అభ్యర్థులను</w>
అభ్యర్థులు</w>
అమ
అమ</w>
అమని
అమనిలా</w>
అమర
అమరావ
అమరావతి</w>
అమరుల
అమరులయ్యారు</w>
అమర్చ
అమర్చవచ్చు</w>
అమల
అమలయ్య
అమలయ్యాయ
అమలయ్యాయా</w>
అమలు</w>
అమలులో</w>
అమల్ల
అమల్లోకి</w>
అమిత్</w>
అమీ</w>
అమృ
అమృత
అమృతసర్</w>
అమె
అమెరిక
అమెరికన్
అమెరికన్లతో</w>
అమెరికా
అమెరికా</w>
అమెరికాతో</w>
అమెరికాలో</w>
అమెరికాలోని</w>
అమ్మ
అమ్మ</w>
అమ్మకాని</w>
అమ్మకానికి</w>
అమ్మగార
అమ్మగారి</w>
అమ్మగారితో</w>
అమ్మగారిని</w>
అమ్మగారు</w>
అమ్మడు</w>
అమ్మాయి</w>
అమ్మిన</w>
అమ్ముకునే</w>
అమ్ముకో
అమ్ముకోనున్న</w>
అయ
అయన</w>
అయస్కా
అయస్కాంత</w>
అయి
అయి</w>
అయిందని</w>
అయింది</w>
అయితే</w>
అయిన
అయిన</w>
అయిననూ</w>
అయినప్పటికీ</w>
అయినా</w>
అయిపోయ
అయిపోయారు</w>
అయిపోయి</w>
అయిపోయింద
అయిపోయిందన్నారు</w>
అయిపోయింది</w>
అయివు
అయివుంటుంది</w>
అయో
అయోధ్య
అయోధ్యలో</w>
అయోధ్యలోని</w>
అయ్య
అయ్యా</w>
అయ్యాక</w>
అయ్యాడు</w>
అయ్యాయి</w>
అయ్యారు</w>
అయ్యి</w>
అయ్యింది</w>
అయ్యుండ
అయ్యుండచ్ఛ
అయ్యుండచ్ఛే
అయ్యుండచ్ఛేమో</w>
అయ్యే
అయ్యేకే</w>
అయ్యేలా</w>
అయ్యో</w>
అర
అరగ
అరగంట</w>
అరటి
అరటిపండ
అరటిపండుని</w>
అరా
అరాచ
అరాచక</w>
అరాచకాలను</w>
అరిక
అరికట్ట
అరికట్టాలి</w>
అరు
అరుంధ
అరుంధతి</w>
అరుద
అరుదుగా</w>
అరె
అరెస్టు</w>
అరెస్ట్</w>
అర్
అర్జు
అర్జున</w>
అర్జును
అర్జునుడికి</w>
అర్జున్</w>
అర్జె
అర్జెంట
అర్జెంటుగా</w>
అర్థ
అర్థ</w>
అర్థం</w>
అర్ధ
అర్ధం</w>
అర్ధమయ
అర్ధమయేలా</w>
అర్ధరాత్రి</w>
అర్ధవంత
అర్ధవంతం</w>
అర్ప
అర్పిస్తే</w>
అర్ర
అర్రులు</w>
అర్హ
అర్హత</w>
అర్హులకు</w>
అర్హులైన</w>
అల
అలజ
అలజడులు</w>
అలబ
అలబామ
అలబామాలో</w>
అలర
అలరించ
అలరించలేకపోయిన</w>
అలరించేందుకు</w>
అలర్ట్</w>
అలవడ
అలవడలేదని</w>
అలవా
అలవాటు</w>
అలస
అలసత్వం</w>
అలహా
అలహాబాద్</w>
అలా
అలా</w>
అలాంట
అలాంటప్పుడు</w>
అలాంటి
అలాంటి</w>
అలాంటిది</w>
అలాంటిదేమీ</w>
అలాంటే
అలాంటేదేమీ</w>
అలాగే</w>
అలానే</w>
అలీ</w>
అల్ట
అల్ట్రా</w>
అల్ప
అల్పపీడ
అల్పపీడనం</w>
అల్ల
అల్లకల్ల
అల్లకల్లలో
అల్లకల్లలోలం</w>
అల్లు</w>
అవ
అవ</w>
అవకాశ
అవకాశం</w>
అవకాశమే</w>
అవకాశాల
అవకాశాలను</w>
అవకాశాలు</w>
అవకాశాలుతో</w>
అవగా
అవగాహ
అవగాహన</w>
అవటంతో</w>
అవడం</w>
అవతర
అవతరించారని</w>
అవదు</w>
అవధ
అవధ్</w>
అవన్నీ</w>
అవమనం</w>
అవమాన
అవమానం</w>
అవమానాన్ని</w>
అవయ
అవయవ
అవయవాలతో</w>
అవయువ
అవయువాల్ని</w>
అవలేదు</w>
అవసర
అవసరం</w>
అవసరమని</w>
అవసరమవ
అవసరమవుతోంది</w>
అవార్
అవార్డు</w>
అవార్డులు</w>
అవి
అవి</w>
అవినీ
అవినీతి</w>
అవినీతిని</w>
అవు
అవుట్లు</w>
అవుత
అవుతాయి</w>
అవుతుంటే</w>
అవుతుండగా</w>
అవుతుంద
అవుతుందనే</w>
అవుతుంది</w>
అవుతుందో</w>
అవుతున్న</w>
అవుతున్నాయి</w>
అవుతో
అవుతోండగా</w>
అవుతోందని</w>
అవుతోంది</w>
అవే
అవే</w>
అవేవీ</w>
అవో
అవోకా
అవోకాడ
అవోకాడోను</w>
అవ్వ
అవ్వగానే</w>
అవ్వడం</w>
అశో
అశోక్</w>
అశ్
అశ్వి
అశ్విన్</w>
అస
అస</w>
అసం
అసంభవం</w>
అసత
అసతాయి</w>
అసమాన</w>
అసలు</w>
అసలే</w>
అసా
అసాంజ
అసాంజిపై</w>
అసాధ్య
అసాధ్యం</w>
అసాధ్యమని</w>
అసి
అసింప
అసింప్ట
అసింప్టమా
అసింప్టమాటిక్</w>
అసిడ
అసిడిక్</w>
అసెంబ
అసెంబ్ల
అసెంబ్లీ
అసెంబ్లీ</w>
అసెంబ్లీని</w>
అసెంబ్లీలో</w>
అసో
అసోసి
అసోసియ
అసోసియేషన్</w>
అస్
అస్త
అస్తమానం</w>
అస్తున్నాయి</w>
అస్థ
అస్థి</w>
అస్స
అస్సలు</w>
అస్సా
అస్సాం</w>
అహి
అహింస
అహింసా</w>
ఆ
ఆ</w>
ఆం
ఆంక్ష
ఆంక్షల</w>
ఆంక్షలు</w>
ఆంజ
ఆంజనే
ఆంజనేయ
ఆంజనేయ</w>
ఆంజనేయస్వామి</w>
ఆంజనేయు
ఆంజనేయుని</w>
ఆంథ
ఆంథో
ఆంథోనీ</w>
ఆందోళ
ఆందోళన
ఆందోళన</w>
ఆందోళనకర</w>
ఆందోళనకార
ఆందోళనకారులకు</w>
ఆందోళనకు</w>
ఆందోళనలు</w>
ఆంధ
ఆంధ్ర
ఆంధ్ర</w>
ఆంధ్రప్రదేశ్</w>
ఆక
ఆకట్ట
ఆకట్టుకుంట
ఆకట్టుకుంటాయి</w>
ఆకట్టుకుంటోంది</w>
ఆకట్టుకుంది</w>
ఆకట్టుకునే</w>
ఆకట్టుకో
ఆకట్టుకోలేక</w>
ఆకర్
ఆకర్ష
ఆకర్షణ
ఆకర్షణగా</w>
ఆకర్షించింది</w>
ఆకర్షించేందుకు</w>
ఆకల
ఆకలి</w>
ఆకస్
ఆకస్మిక</w>
ఆకాలంలో</w>
ఆకులు</w>
ఆకృ
ఆకృతిలో</w>
ఆకె
ఆకెళ్ళ</w>
ఆక్
ఆక్ర
ఆక్రమి
ఆక్రమిస్తోంది</w>
ఆక్సి
ఆక్సిజన్</w>
ఆక్సిడెంట్</w>
ఆక్సీ
ఆక్సీకరణ</w>
ఆఖ
ఆఖరిగా</w>
ఆఖరులో</w>
ఆగ
ఆగ</w>
ఆగగా</w>
ఆగతా</w>
ఆగదని</w>
ఆగమా
ఆగమాగం</w>
ఆగలేదు</w>
ఆగవని</w>
ఆగస్ట్</w>
ఆగి
ఆగింది</w>
ఆగిన</w>
ఆగిపోత
ఆగిపోతోందని</w>
ఆగిపోయింది</w>
ఆగ్
ఆగ్నేయ</w>
ఆగ్రహ
ఆగ్రహం</w>
ఆగ్రహాన్ని</w>
ఆచ
ఆచరించి</w>
ఆచిన్నార
ఆచిన్నారికి</w>
ఆట
ఆట</w>
ఆటంక
ఆటంకంగా</w>
ఆటగ
ఆటగాడ
ఆటగాడిక
ఆటగాడికైనా</w>
ఆటగాడు</w>
ఆటగాళ్లు</w>
ఆటల</w>
ఆటో
ఆటో</w>
ఆటోమే
ఆటోమేటిక్</w>
ఆడ
ఆడంబరంగా</w>
ఆడటం</w>
ఆడనుంది</w>
ఆడవారి</w>
ఆడాలో</w>
ఆడి
ఆడిటో
ఆడిటోరి
ఆడిటోరియం</w>
ఆడియ
ఆడియన్స్</w>
ఆడియె
ఆడియెన్స్</w>
ఆడియో</w>
ఆడుతున్న</w>
ఆడొద్దని</w>
ఆత్
ఆత్మ
ఆత్మక
ఆత్మకథ
ఆత్మకథను</w>
ఆత్మకూరు</w>
ఆత్మహ
ఆత్మహత్య
ఆత్మహత్య</w>
ఆత్మహత్యలు</w>
ఆత్మహత్యాయ
ఆత్మహత్యాయత్
ఆత్మహత్యాయత్నం</w>
ఆత్మాన
ఆత్మానంద
ఆత్మానందమయ
ఆత్మానందమయి</w>
ఆద
ఆదర్శ
ఆదర్శంగా</w>
ఆదా</w>
ఆదాయ
ఆదాయం</w>
ఆదాయంలో</w>
ఆదాయాన్ని</w>
ఆది
ఆదిత
ఆదిత్య</w>
ఆదిన
ఆదినారాయణ</w>
ఆదిపురు
ఆదిపురుష్</w>
ఆదివారం</w>
ఆదివారానికి</w>
ఆదుకున్నారు</w>
ఆదేశ
ఆదేశాలి
ఆదేశాలిచ్చింది</w>
ఆదేశాలు</w>
ఆదేశించ
ఆదేశించగా</w>
ఆదేశించామన్నారు</w>
ఆదేశించారని</w>
ఆదేశించారు</w>
ఆదేశించింది</w>
ఆదేశించేను</w>
ఆధ
ఆధార
ఆధారం</w>
ఆధారంగా</w>
ఆధారపడి</w>
ఆధారముంద
ఆధారముందా</w>
ఆధారాలతో</w>
ఆధారాలు</w>
ఆధారిత</w>
ఆధారితంగా</w>
ఆధార్</w>
ఆధిక
ఆధిక్యత</w>
ఆధిప
ఆధిపత్యం</w>
ఆధున
ఆధునిక</w>
ఆధ్య
ఆధ్య</w>
ఆధ్యని</w>
ఆధ్యను</w>
ఆధ్యలు</w>
ఆధ్యా
ఆధ్యాత్
ఆధ్యాత్మిక</w>
ఆధ్వ
ఆధ్వర్య
ఆధ్వర్యంలో</w>
ఆనంద
ఆనందం</w>
ఆనందపడ
ఆనందపడుతున్నానని</w>
ఆనందపడుతోంది</w>
ఆన్</w>
ఆప
ఆపడం</w>
ఆపర
ఆపరేట్</w>
ఆపరేషన్</w>
ఆపరేషన్ల</w>
ఆపార్టీలో</w>
ఆపాల</w>
ఆపాలని</w>
ఆపి
ఆపి</w>
ఆపిల్</w>
ఆపివేసి</w>
ఆపే
ఆపేందుకు</w>
ఆపేయ్య
ఆపేయ్యాలా</w>
ఆపై</w>
ఆప్</w>
ఆఫ
ఆఫర్స్</w>
ఆఫీ
ఆఫీసర
ఆఫీసర్</w>
ఆఫీసర్లు</w>
ఆఫీసు</w>
ఆఫీసుల</w>
ఆఫీస్</w>
ఆఫ్</w>
ఆఫ్ఘ
ఆఫ్ఘనిస్త
ఆఫ్ఘనిస్తాన్</w>
ఆఫ్ట
ఆఫ్ట్ర
ఆఫ్ట్రాల్</w>
ఆఫ్ర
ఆఫ్రిక
ఆఫ్రికా</w>
ఆభర
ఆభరణ
ఆభరణాలతో</w>
ఆమె
ఆమె</w>
ఆమెకి</w>
ఆమెకు</w>
ఆమెకే</w>
ఆమెను</w>
ఆమో
ఆమోద</w>
ఆమోదం</w>
ఆమోదించ
ఆమోదించటం</w>
ఆయ
ఆయ</w>
ఆయన</w>
ఆయనకు</w>
ఆయనపై</w>
ఆయనే
ఆయనే</w>
ఆయనేనా</w>
ఆయన్ని</w>
ఆయా</w>
ఆయు
ఆయుధ
ఆయుధం</w>
ఆయుధాలు</w>
ఆర
ఆరంభ
ఆరంభం</w>
ఆరంభంలోని</w>
ఆరబో
ఆరబోశారు</w>
ఆరి
ఆరితే
ఆరితేరిన</w>
ఆరు</w>
ఆరే
ఆరేళ్ల</w>
ఆరో
ఆరోగ
ఆరోగ్య
ఆరోగ్య</w>
ఆరోగ్యం</w>
ఆరోగ్యంగా</w>
ఆరోగ్యకర</w>
ఆరోగ్యాన్ని</w>
ఆరోజు</w>
ఆరోప
ఆరోపణలు</w>
ఆరోపించడంతో</w>
ఆరోపించారు</w>
ఆరోపిస్తూ</w>
ఆర్
ఆర్</w>
ఆర్ఆర్
ఆర్ఆర్ఆర్</w>
ఆర్ఎస్</w>
ఆర్గానిక్</w>
ఆర్ట్స్</w>
ఆర్డర్</w>
ఆర్థ
ఆర్థిక
ఆర్థిక</w>
ఆర్థికంగా</w>
ఆర్థికసాయం</w>
ఆర్న
ఆర్నమెంట్</w>
ఆర్పేందుకు</w>
ఆర్బి
ఆర్బిటార్</w>
ఆర్బిట్</w>
ఆర్బిట్ర
ఆర్బిట్రేషన్</w>
ఆర్మీ</w>
ఆర్య
ఆర్య</w>
ఆర్యన్</w>
ఆల
ఆలప
ఆలపించి</w>
ఆలయ</w>
ఆలయం</w>
ఆలస్యం</w>
ఆలియా</w>
ఆలో
ఆలోచ
ఆలోచ</w>
ఆలోచన</w>
ఆలోచనను</w>
ఆలోచించ
ఆలోచించడానికి</w>
ఆలోచించి</w>
ఆలోచించుకుంటే</w>
ఆల్
ఆల్ట
ఆల్టో</w>
ఆల్బ
ఆల్బమ్</w>
ఆవ
ఆవర
ఆవరణ
ఆవరణలోనే</w>
ఆవశ్య
ఆవశ్యక
ఆవశ్యకతను</w>
ఆవాసానికి</w>
ఆవి
ఆవిధంగా</w>
ఆవిరి</w>
ఆవిర్భ
ఆవిర్భవ
ఆవిర్భవించాడు</w>
ఆవిష్
ఆవిష్కర
ఆవిష్కరణను</w>
ఆవిష్కరించింది</w>
ఆవు
ఆవుపే
ఆవుపేడ</w>
ఆవేద
ఆవేదన</w>
ఆవేశ
ఆవేశం</w>
ఆశ
ఆశగా</w>
ఆశా</w>
ఆశించిన</w>
ఆశీ
ఆశీస్
ఆశీస్సు</w>
ఆశీస్సులు</w>
ఆశ్చ
ఆశ్చర్య
ఆశ్చర్యకర
ఆశ్చర్యకరం</w>
ఆశ్చర్యప
ఆశ్చర్యపర్చ
ఆశ్చర్యపర్చింది</w>
ఆశ్చర్యపో
ఆశ్చర్యపోతా
ఆశ్చర్యపోతాం</w>
ఆశ్ర
ఆశ్రయ
ఆశ్రయించాడు</w>
ఆసక్
ఆసక్తి</w>
ఆసక్తిక
ఆసక్తికర
ఆసక్తికర</w>
ఆసక్తికరమే</w>
ఆసక్తికరమైన</w>
ఆసి
ఆసియ
ఆసియా</w>
ఆసియాలో</w>
ఆసీస్</w>
ఆసు
ఆసుపత్ర
ఆసుపత్రికి</w>
ఆసుపత్రిలో</w>
ఆసుపత్రుల్లో</w>
ఆస్
ఆస్కార్</w>
ఆస్ట్ర
ఆస్ట్రే
ఆస్ట్రేలి
ఆస్ట్రేలియన్</w>
ఆస్ప
ఆస్పత్ర
ఆస్పత్రికి</w>
ఆస్పత్రిలో</w>
ఆహ
ఆహార
ఆహార</w>
ఆహారం</w>
ఆహారంలో</w>
ఆహారాన్ని</w>
ఆహారాలు</w>
ఆహ్వ
ఆహ్వానం</w>
ఇ
ఇం
ఇంక
ఇంక</w>
ఇంకా
ఇంకా</w>
ఇంకాసేప
ఇంకాసేపట్లో</w>
ఇంకాస్త
ఇంకాస్త</w>
ఇంకె
ఇంకెవర్
ఇంకెవర్న
ఇంకెవర్నయి
ఇంకెవర్నయినా</w>
ఇంకో</w>
ఇంగ
ఇంగ్లా
ఇంగ్లాండ్</w>
ఇంజ
ఇంజనీ
ఇంజనీరింగ్</w>
ఇంజినీ
ఇంజినీరింగ్</w>
ఇంట
ఇంటర్
ఇంటర్</w>
ఇంటర్నెట్</w>
ఇంటర్నే
ఇంటర్నేషనల్</w>
ఇంటర్వ
ఇంటర్వెల్</w>
ఇంటర్వ్యూ
ఇంటర్వ్యూలో</w>
ఇంటర్వ్యూల్లో</w>
ఇంటి</w>
ఇంటికి</w>
ఇంటెన్
ఇంటెన్సి
ఇంటెన్సివ్</w>
ఇంట్ల
ఇంట్లో</w>
ఇంట్లోని</w>
ఇండ
ఇండ</w>
ఇండక్షన్</w>
ఇండస్ట్రీ
ఇండస్ట్రీ</w>
ఇండస్ట్రీకి</w>
ఇండస్ట్రీలో</w>
ఇండస్ట్రీలోని</w>
ఇండి
ఇండియ
ఇండియన్</w>
ఇండియా
ఇండియా</w>
ఇండియాకు</w>
ఇండియాతో</w>
ఇండియాలో</w>
ఇంత
ఇంత</w>
ఇంతకంటే</w>
ఇంతకు
ఇంతకుముందే</w>
ఇంతటి</w>
ఇంతపెద్ద</w>
ఇంతలోనే</w>
ఇంతవరకు</w>
ఇంతవరకూ</w>
ఇంద
ఇందిరా
ఇందిరాగాంధీ</w>
ఇందుకు</w>
ఇందుల
ఇందులో</w>
ఇందులోనూ</w>
ఇంధ
ఇంధన</w>
ఇంస్టా
ఇంస్టాగ్రామ
ఇంస్టాగ్రామ్</w>
ఇక
ఇక</w>
ఇకపై</w>
ఇకపోతే</w>
ఇక్క
ఇక్కడ</w>
ఇక్కడి</w>
ఇక్కడికి</w>
ఇక్కడే</w>
ఇగ్ని
ఇగ్నిస్</w>
ఇచ్
ఇచ్చ
ఇచ్చా
ఇచ్చాడో</w>
ఇచ్చాన</w>
ఇచ్చాపురంలో</w>
ఇచ్చామని</w>
ఇచ్చారని</w>
ఇచ్చారు</w>
ఇచ్చి
ఇచ్చి</w>
ఇచ్చింద</w>
ఇచ్చిందని</w>
ఇచ్చింది</w>
ఇచ్చిన</w>
ఇచ్చినట్లు</w>
ఇచ్చే
ఇచ్చేందుకు</w>
ఇచ్చేది</w>
ఇచ్చేవరకు</w>
ఇచ్చేశాడు</w>
ఇచ్చేస్తున్నారు</w>
ఇఛ
ఇఛ్చిన</w>
ఇటీ
ఇటీవ
ఇటీవల
ఇటీవల</w>
ఇటీవలి</w>
ఇటీవలే</w>
ఇటు</w>
ఇటువ
ఇటువంట
ఇటువంటి
ఇటువంటి</w>
ఇటువంటివి</w>
ఇడ
ఇడ్లీ</w>
ఇత
ఇతను</w>
ఇతర
ఇతర</w>
ఇతరులు</w>
ఇథ
ఇథనాల
ఇథనాల్</w>
ఇథి
ఇథియో
ఇథియోఫ
ఇథియోఫియా</w>
ఇద
ఇదంతా</w>
ఇది</w>
ఇదిల
ఇదిలా</w>
ఇదు
ఇదుగో</w>
ఇదే
ఇదే</w>
ఇదేం</w>
ఇదొ
ఇదొక</w>
ఇదొక్క</w>
ఇద్ద
ఇద్దరి</w>
ఇద్దరు</w>
ఇద్దరూ</w>
ఇన
ఇనార్
ఇనార్గానిక్</w>
ఇను
ఇనుప</w>
ఇన్
ఇన్</w>
ఇన్ని
ఇన్నింగ్స్</w>
ఇన్నిరోజ
ఇన్నిరోజుల
ఇన్నిరోజులూ</w>
ఇన్నే
ఇన్నేండ
ఇన్నేండ్లు</w>
ఇన్నేళ్లు</w>
ఇన్ఫ
ఇన్ఫో</w>
ఇన్విజ
ఇన్విజబుల్</w>
ఇన్వె
ఇన్వెస్ట
ఇన్వెస్టర్ల</w>
ఇపుడు</w>
ఇప్ప
ఇప్ప</w>
ఇప్పటి
ఇప్పటి</w>
ఇప్పటిక
ఇప్పటికీ</w>
ఇప్పటికే</w>
ఇప్పటివరకు</w>
ఇప్పటివరకూ</w>
ఇప్పుడ
ఇప్పుడు</w>
ఇప్పుడున్న</w>
ఇబ్బంద
ఇబ్బంది</w>
ఇబ్బందులను</w>
ఇబ్బందులపై</w>
ఇబ్బందులు</w>
ఇబ్బందుల్లో</w>
ఇమెయిల్</w>
ఇమేజ్</w>
ఇయు</w>
ఇరగ
ఇరగదీ
ఇరగదీస్త
ఇరగదీస్తాం</w>
ఇరా
ఇరాం</w>
ఇరాక్</w>
ఇరిగ
ఇరిగేషన్</w>
ఇరు</w>
ఇలా
ఇలా</w>
ఇలాంటి</w>
ఇలాగే</w>
ఇల్లు</w>
ఇళ్ల
ఇళ్లకు</w>
ఇళ్లతో</w>
ఇవ
ఇవన్నీ</w>
ఇవా
ఇవాళ</w>
ఇవి</w>
ఇవే</w>
ఇవ్వ
ఇవ్వ</w>
ఇవ్వండి</w>
ఇవ్వకుండా</w>
ఇవ్వగల</w>
ఇవ్వడం</w>
ఇవ్వడంపై</w>
ఇవ్వనున్నారు</w>
ఇవ్వబడ
ఇవ్వబడింది</w>
ఇవ్వబడుతుందని</w>
ఇవ్వర
ఇవ్వరని</w>
ఇవ్వలేదు</w>
ఇవ్వా
ఇవ్వాలని</w>
ఇవ్వాలి</w>
ఇవ్వాల్సి</w>
ఇవ్వాళ</w>
ఇష
ఇష్ట
ఇష్టం</w>
ఇష్టపడలేదు</w>
ఇష్టమైన</w>
ఇష్యూ
ఇష్యూపై</w>
ఇస
ఇసుక</w>
ఇస్త
ఇస్తానంటూ</w>
ఇస్తాను</w>
ఇస్తామని</w>
ఇస్తాయి</w>
ఇస్తున్న
ఇస్తున్నట్లే</w>
ఇస్తున్నామని</w>
ఇస్తూ</w>
ఈ
ఈ</w>
ఈక్రమంలోనే</w>
ఈచిత్రానికి</w>
ఈట
ఈటల</w>
ఈడ
ఈడ్చ
ఈడ్చుకుంటూ</w>
ఈనాడు</w>
ఈనెల</w>
ఈపీఎఫ్</w>
ఈమె
ఈమె</w>
ఈయ
ఈయ</w>
ఈయన</w>
ఈయనే</w>
ఈయాని
ఈయానిమ
ఈయానిమేషన్</w>
ఈరోజు</w>
ఈవె
ఈవెంట్</w>
ఈసారి</w>
ఉ
ఉంచ
ఉంచండి</w>
ఉంచడానికి</w>
ఉంచనుంది</w>
ఉంచారు</w>
ఉంచితే</w>
ఉంచుతున్నాయ
ఉంచుతున్నాయనడ
ఉంచుతున్నాయనడంలో</w>
ఉంచేందుకు</w>
ఉంట
ఉంటాం</w>
ఉంటాడు</w>
ఉంటామని</w>
ఉంటాయని</w>
ఉంటాయి</w>
ఉంటాయో</w>
ఉంటారని</w>
ఉంటుందని</w>
ఉంటుంది</w>
ఉంటున్నారని</w>
ఉంటున్నారు</w>
ఉంటూ</w>
ఉంటే</w>
ఉంటేనే</w>
ఉంటోంది</w>
ఉంటోన్న</w>
ఉండ
ఉండ</w>
ఉండండి</w>
ఉండకుండా</w>
ఉండగా</w>
ఉండట
ఉండటం</w>
ఉండటంతో</w>
ఉండటంతోపాటు</w>
ఉండట్ల
ఉండట్లేద
ఉండట్లేదట</w>
ఉండడం</w>
ఉండడు</w>
ఉండదని</w>
ఉండదు</w>
ఉండబోత
ఉండబోతాయో</w>
ఉండాలన
ఉండాలని</w>
ఉండాలనుకుంటున్న
ఉండాలనుకుంటున్నట్లుగా</w>
ఉండాలనుకునే</w>
ఉండాలనే</w>
ఉండాలి</w>
ఉండి</w>
ఉండిన</w>
ఉండే
ఉండే</w>
ఉండేది</w>
ఉండేలా</w>
ఉండేవ
ఉండేవని</w>
ఉండేవన్నారు</w>
ఉండేవాడు</w>
ఉండేవార
ఉండేవారు</w>
ఉండేవారో</w>
ఉండేవి</w>
ఉండ్ర
ఉండ్రుకు
ఉండ్రుకుడియ
ఉండ్రుకుడియాలో</w>
ఉంద
ఉందట</w>
ఉందని</w>
ఉందనే</w>
ఉందనేది</w>
ఉందన్నారు</w>
ఉందా</w>
ఉంది</w>
ఉగా
ఉగాది</w>
ఉగ్ర
ఉగ్రమూ
ఉగ్రమూక
ఉగ్రమూకలు</w>
ఉగ్రవాద
ఉగ్రవాద</w>
ఉగ్రవాదులు</w>
ఉగ్రవాదులుగా</w>
ఉచిత
ఉచితంగా</w>
ఉజ
ఉజ్వ
ఉజ్వలంగా</w>
ఉడిక
ఉడికించి</w>
ఉత
ఉత్త
ఉత్త</w>
ఉత్తమ</w>
ఉత్తమ్</w>
ఉత్తర
ఉత్తర</w>
ఉత్తరప్రదేశ్</w>
ఉత్తర్</w>
ఉత్తర్వులు</w>
ఉత్తే
ఉత్తేజం</w>
ఉత్ప
ఉత్పత్త
ఉత్పత్తి</w>
ఉత్పత్తులను</w>
ఉత్పత్తులపై</w>
ఉత్స
ఉత్సవ
ఉత్సవం</w>
ఉత్సవము</w>
ఉత్సవాలు</w>
ఉత్సవాల్లో</w>
ఉద
ఉదయ
ఉదయం</w>
ఉదయపు</w>
ఉదయభ
ఉదయభాను</w>
ఉదయా
ఉదయాన్నే</w>
ఉదయ్</w>
ఉద్
ఉద్దేశ
ఉద్దేశించి</w>
ఉద్య
ఉద్య</w>
ఉద్యమ
ఉద్యమ</w>
ఉద్యమంలో</w>
ఉద్యమకార
ఉద్యమకారులపై</w>
ఉద్యమానికి</w>
ఉద్యమాన్ని</w>
ఉద్యమాల
ఉద్యమాల</w>
ఉద్యమాలతోనే</w>
ఉద్యమి
ఉద్యమిస్తున్నారు</w>
ఉద్యోగ
ఉద్యోగుల</w>
ఉద్యోగులంద</w>
ఉద్యోగులకు</w>
ఉద్యోగులు</w>
ఉద్యోగుల్లో</w>
ఉద్ర
ఉద్రిక్
ఉద్రిక్త
ఉద్రిక్త</w>
ఉద్రిక్తతలు</w>
ఉద్వ
ఉద్వే
ఉద్వేగ
ఉద్వేగంగా</w>
ఉద్వేగానికి</w>
ఉధ
ఉధృ
ఉధృతంగా</w>
ఉన
ఉనద్
ఉనద్క
ఉనద్కత్</w>
ఉన్న
ఉన్న</w>
ఉన్నట్టు</w>
ఉన్నట్ల
ఉన్నట్లు
ఉన్నట్లు</w>
ఉన్నట్లుండి</w>
ఉన్నతా
ఉన్నతాధికార
ఉన్నతాధికారులకు</w>
ఉన్నతాధికారులను</w>
ఉన్నతాధికారులు</w>
ఉన్నదని</w>
ఉన్నదనే</w>
ఉన్నది</w>
ఉన్నప్పుడు</w>
ఉన్నవారి</w>
ఉన్నవారు</w>
ఉన్నా</w>
ఉన్నాం</w>
ఉన్నాడు</w>
ఉన్నాడో</w>
ఉన్నానని</w>
ఉన్నాయి</w>
ఉన్నార
ఉన్నారని</w>
ఉన్నారు</w>
ఉన్నారో</w>
ఉప
ఉప</w>
ఉపందుకుంది</w>
ఉపకరించ
ఉపకరించేను</w>
ఉపక్రమ
ఉపక్రమించ
ఉపక్రమించవచ్చు</w>
ఉపముఖ్యమంత్రి</w>
ఉపయోగ
ఉపయోగకర
ఉపయోగకరమైన
ఉపయోగకరమైనది</w>
ఉపయోగపడుతుందని</w>
ఉపయోగపడుతుంది</w>
ఉపయోగించ
ఉపయోగించడం</w>
ఉపయోగించబడుతుంది</w>
ఉపయోగించి</w>
ఉపయోగించే</w>
ఉపయోగిస్తుంది</w>
ఉపరి
ఉపరితల</w>
ఉపవా
ఉపవాసం</w>
ఉపే
ఉపేంద్ర</w>
ఉప్ప
ఉప్పటి</w>
ఉప్పు
ఉప్పు</w>
ఉప్పువేసి</w>
ఉమామ</w>
ఉమ్మ
ఉమ్మడి</w>
ఉమ్మార
ఉమ్మారెడ్డి</w>
ఉర్
ఉర్దూ
ఉర్దూకు</w>
ఉల
ఉలి
ఉలిక్కి
ఉలిక్కిపడ్డ
ఉలిక్కిపడ్డాను</w>
ఉలిప
ఉలిపిక
ఉలిపికట్ట
ఉలిపికట్టె</w>
ఉల్ల
ఉల్లం
ఉల్లంగ
ఉల్లంగి
ఉల్లంగించ
ఉల్లంగించు</w>
ఉల్లంగిండ
ఉల్లంగిండమ
ఉల్లంగిండమనేది</w>
ఉల్లంఘ
ఉల్లంఘించ
ఉల్లంఘించారంటూ</w>
ఉల్లంఘించారని</w>
ఉల్లంఘించి</w>
ఉల్లి</w>
ఉల్లిప
ఉల్లిపాయ
ఉల్లిపాయల
ఉల్లిపాయలతోపాటు</w>
ఉష్ణ
ఉష్ణ</w>
ఉష్ణం</w>
ఉష్ణగత
ఉష్ణగతిక
ఉష్ణగతిక</w>
ఉష్ణగతికశాస్త్ర
ఉష్ణగతికశాస్త్రం</w>
ఉష్ణగతికశాస్త్రంలో</w>
ఉష్ణరూపంలో</w>
ఉష్ణో
ఉష్ణోగ్ర
ఉష్ణోగ్రత</w>
ఉస్
ఉస్మా
ఉస్మానియా</w>
ఊ
ఊ</w>
ఊగి
ఊగిస
ఊగిసలా
ఊగిసలాట</w>
ఊడి
ఊడిగం</w>
ఊద
ఊదుతున్న
ఊదుతున్నదె
ఊదుతున్నదెవర
ఊదుతున్నదెవరు</w>
ఊపు
ఊపుమీద</w>
ఊపే
ఊపేశాయి</w>
ఊర
ఊరంతా</w>
ఊరి</w>
ఊరిక
ఊరికే</w>
ఊర్వ
ఊర్వశ
ఊర్వశి</w>
ఊర్వశికి</w>
ఊస
ఊసే</w>
ఊహ
ఊహించ
ఊహించగల
ఊహించగలరా</w>
ఊహించడం</w>
ఊహించని</w>
ఋ
ఋత
ఋతువ
ఋతువులో</w>
ఎ
ఎ</w>
ఎం
ఎం</w>
ఎంఐ</w>
ఎంకే</w>
ఎంచ
ఎంచుకుంటుంది</w>
ఎంచుకున్నారు</w>
ఎంచుకోవడానికి</w>
ఎంజ
ఎంజాయ్</w>
ఎంట
ఎంట్ర
ఎంట్రీ
ఎంట్రీ</w>
ఎంట్రీకి</w>
ఎంట్రీపై</w>
ఎంట్రో
ఎంట్రోఫీ</w>
ఎండ
ఎండీ</w>
ఎండు</w>
ఎంత
ఎంత</w>
ఎంతగానో</w>
ఎంతటి</w>
ఎంతో
ఎంతో</w>
ఎంతోసి
ఎంతోసియాని
ఎంతోసియానిన్స్</w>
ఎంద
ఎందుక
ఎందుకంటే</w>
ఎందుకన
ఎందుకనగా</w>
ఎందుకా</w>
ఎందుకు</w>
ఎందులో</w>
ఎంప
ఎంపి
ఎంపి</w>
ఎంపిక
ఎంపిక</w>
ఎంపికచేయటం</w>
ఎంపికను</w>
ఎంపికలు</w>
ఎంపిలు</w>
ఎంపీ</w>
ఎంపీగా</w>
ఎంపీపై</w>
ఎక్
ఎక్క
ఎక్కడ</w>
ఎక్కడా</w>
ఎక్కడిక
ఎక్కడికో</w>
ఎక్కడె
ఎక్కడెక్క
ఎక్కడెక్కడికి</w>
ఎక్కింది</w>
ఎక్కు
ఎక్కుత
ఎక్కుతావు</w>
ఎక్కువ</w>
ఎక్కువగా</w>
ఎక్కువసే
ఎక్కువసేపు</w>
ఎక్కువై
ఎక్కువైంది</w>
ఎక్కువైపోయాయి</w>
ఎక్సై
ఎక్సైజ్</w>
ఎక్స్
ఎక్స్</w>
ఎక్స్ఛ
ఎక్స్ఛే
ఎక్స్ఛేంజ్</w>
ఎక్స్ప
ఎక్స్పన్షన్</w>
ఎక్స్పై
ఎక్స్పైరీ</w>
ఎగ
ఎగరే
ఎగరేస్తుండగా</w>
ఎగవేత</w>
ఎగి
ఎగిరి</w>
ఎగిరిగ
ఎగిరిగంత
ఎగిరిగంతేస
ఎగిరిగంతేసే</w>
ఎజె
ఎజెండా</w>
ఎటువంటి</w>
ఎట్ట
ఎట్ట</w>
ఎట్టకే
ఎట్టకేలకు</w>
ఎట్టి</w>
ఎడ
ఎడప్ప
ఎడప్పా
ఎడప్పాడిలో</w>
ఎడ్య
ఎడ్యుక
ఎడ్యుకేషన్</w>
ఎత్త
ఎత్తి
ఎత్తి</w>
ఎత్తిచూపుతున్నారు</w>
ఎత్తివే
ఎత్తివేశారు</w>
ఎత్తివేస్తున్న
ఎత్తివేస్తున్నట్లు</w>
ఎత్తున</w>
ఎద
ఎదగ
ఎదగగలి
ఎదగగలిగారు</w>
ఎదిగ
ఎదిగింది</w>
ఎదు
ఎదురవ
ఎదురవుతున్న</w>
ఎదురవుతోంది</w>
ఎదురు
ఎదురు</w>
ఎదురుచూస్తున్న</w>
ఎదురైంది</w>
ఎదుర్
ఎదుర్కొ
ఎదుర్కొంట
ఎదుర్కొంటున్న</w>
ఎదుర్కొంటున్నారు</w>
ఎదుర్కొన్న</w>
ఎదుర్కో
ఎదుర్కోగల
ఎదుర్కోగలమా</w>
ఎదుర్కోలేని</w>
ఎద్
ఎద్ద
ఎద్దుగా</w>
ఎద్దేవ
ఎద్దేవా</w>
ఎన
ఎనర్
ఎనర్జి
ఎనర్జిటిక్</w>
ఎనర్జీ</w>
ఎనిమి
ఎనిమిది</w>
ఎనే
ఎనేబుల్</w>
ఎనౌన్స్</w>
ఎన్
ఎన్</w>
ఎన్టీఆర్</w>
ఎన్టీపీ
ఎన్టీపీసీ</w>
ఎన్న
ఎన్నడు</w>
ఎన్నా
ఎన్నార
ఎన్నారై
ఎన్నారైలు</w>
ఎన్నాళ్లు</w>
ఎన్నాళ్ళ
ఎన్నాళ్ళైనా</w>
ఎన్ని</w>
ఎన్నిక
ఎన్నిక</w>
ఎన్నికల</w>
ఎన్నికలను</w>
ఎన్నికలలో</w>
ఎన్నికలు</w>
ఎన్నికల్లో</w>
ఎన్నికైన</w>
ఎన్నో</w>
ఎన్సీ
ఎన్సీబీ</w>
ఎపి
ఎపిసో
ఎపిసోడ్</w>
ఎప్ప
ఎప్ప</w>
ఎప్పటిక
ఎప్పటికప్పుడు</w>
ఎప్పటికీ</w>
ఎప్పు
ఎప్పుడ
ఎప్పుడిస్త
ఎప్పుడిస్తరో</w>
ఎప్పుడు</w>
ఎప్పుడూ</w>
ఎప్పుడో</w>
ఎఫెక్ట్</w>
ఎఫ్</w>
ఎమో
ఎమోషనల్</w>
ఎమోషన్</w>
ఎమ్
ఎమ్మ
ఎమ్మె
ఎమ్మెల
ఎమ్మెల్
ఎమ్మెల్య
ఎమ్మెల్యే
ఎమ్మెల్యే</w>
ఎమ్మెల్యేను</w>
ఎమ్మెల్యేల</w>
ఎమ్మెల్యేల్లో</w>
ఎమ్మెల్సీ
ఎమ్మెల్సీ</w>
ఎమ్మెల్సీలు</w>
ఎమ్మెస్
ఎమ్మెస్కే</w>
ఎయిర్</w>
ఎరు
ఎరుడా</w>
ఎర్ర
ఎర్రచంద
ఎర్రచందనం</w>
ఎర్రటి</w>
ఎల
ఎలక్
ఎలక్ట
ఎలక్టోర
ఎలక్టోరల్</w>
ఎలక్ట్ర
ఎలక్ట్రాన
ఎలక్ట్రానిక్</w>
ఎలా
ఎలా</w>
ఎలాంటి</w>
ఎలాగ
ఎలాగైనా</w>
ఎల్</w>
ఎల్ల
ఎల్లప్పుడూ</w>
ఎల్లమ్మ
ఎల్లమ్మగూడ
ఎల్లమ్మగూడలోను</w>
ఎల్లమ్మగూడలోనూ</w>
ఎవ
ఎవర
ఎవరి
ఎవరి</w>
ఎవరికి</w>
ఎవరిదార
ఎవరిదారిన</w>
ఎవరినీ</w>
ఎవరు</w>
ఎవరూ</w>
ఎవరెవర
ఎవరెవరు</w>
ఎవరై
ఎవరైనా</w>
ఎవరైనా</w>
ఎవరో</w>
ఎవ్వ
ఎవ్వరూ</w>
ఎసె
ఎసెమి
ఎసెమిట్ర
ఎసెమిట్రిక్</w>
ఎస్
ఎస్</w>
ఎస్టీ</w>
ఎస్టే
ఎస్టేట్</w>
ఎస్పీ</w>
ఎస్పీకి</w>
ఎస్సి</w>
ఎస్సై
ఎస్సై</w>
ఏ
ఏ</w>
ఏం</w>
ఏంట
ఏంటంటే</w>
ఏంటి</w>
ఏంటో</w>
ఏఎస్</w>
ఏఐ
ఏఐఏ
ఏఐఏడీఎంకే</w>
ఏక
ఏక</w>
ఏకంగా</w>
ఏకఛ
ఏకఛత్రా
ఏకఛత్రాధ
ఏకఛత్రాధిప
ఏకఛత్రాధిపత్య
ఏకఛత్రాధిపత్యానికి</w>
ఏకపక్ష
ఏకపక్షంగా</w>
ఏకమై</w>
ఏకరువు</w>
ఏకాద
ఏకాదశి</w>
ఏకై
ఏకైక</w>
ఏటా</w>
ఏటీ
ఏటీఎ
ఏటీఎం
ఏటీఎం</w>
ఏటీఎంల</w>
ఏటీఎమ్</w>
ఏడాది</w>
ఏడిప
ఏడిపించిన</w>
ఏడు
ఏడు</w>
ఏడుస్త
ఏడుస్తావు</w>
ఏడుస్తుంది</w>
ఏడుస్తూనే</w>
ఏద
ఏది</w>
ఏదైనా</w>
ఏదో</w>
ఏను
ఏనుగు</w>
ఏపీ
ఏపీ</w>
ఏపీకి</w>
ఏపీలో</w>
ఏపీవైపు</w>
ఏప్ర
ఏప్రిల్</w>
ఏమ</w>
ఏమని</w>
ఏమాత్రం</w>
ఏమి
ఏమి</w>
ఏమిట
ఏమిటంటూ</w>
ఏమిటా</w>
ఏమిటి</w>
ఏమిటో</w>
ఏమీ</w>
ఏము
ఏముంటుంది</w>
ఏమై
ఏమైంది</w>
ఏమైనా</w>
ఏమో</w>
ఏరిక
ఏరికో
ఏరికోరి</w>
ఏరియ
ఏరియాలో</w>
ఏర్
ఏర్పడింది</w>
ఏర్పడిన</w>
ఏర్పడుతుందని</w>
ఏర్పా
ఏర్పాట
ఏర్పాటు</w>
ఏర్పాటుకు</w>
ఏర్పాటుతో</w>
ఏర్పాటును</w>
ఏర్పాట్లు</w>
ఏలాంట
ఏలాంటి
ఏలాంటిదో</w>
ఏలిక
ఏలికలో</w>
ఏలూరు</w>
ఏలేరు</w>
ఏళ్ల
ఏళ్ల</w>
ఏళ్లలోపు</w>
ఏళ్లుగా</w>
ఏళ్ళ
ఏళ్ళక్రితం</w>
ఏళ్ళు</w>
ఏవి
ఏవి</w>
ఏవిధంగా</w>
ఏవిధమైన</w>
ఏవియన్</w>
ఏవే
ఏవేవో</w>
ఏవై
ఏవైనా</w>
ఐ
ఐ</w>
ఐకమ
ఐకమత్య
ఐకమత్యంగా</w>
ఐచ్ఛ
ఐచ్ఛిక</w>
ఐటి
ఐటిపుర
ఐటిపురపాల
ఐటిపురపాలక</w>
ఐడీతో</w>
ఐదు</w>
ఐదే
ఐదేళ్లలో</w>
ఐదేళ్లు</w>
ఐపీ
ఐపీఎల్</w>
ఐప్యా
ఐప్యాడ్</w>
ఐఫోన్లు</w>
ఐరోప
ఐరోపా</w>
ఐసి
ఐసిసి</w>
ఒ
ఒంట
ఒంటరిగా</w>
ఒక
ఒక</w>
ఒకటి
ఒకటి</w>
ఒకటిగా</w>
ఒకటే</w>
ఒకదారి</w>
ఒకపక్క</w>
ఒకర
ఒకరని</w>
ఒకరి</w>
ఒకరికి</w>
ఒకరైన</w>
ఒకరోజు</w>
ఒకవేళ</w>
ఒకాయ
ఒకాయన్ని</w>
ఒకి
ఒకింత</w>
ఒకే
ఒకే</w>
ఒకేసారి</w>
ఒక్క
ఒక్క</w>
ఒక్కటి
ఒక్కటిగానే</w>
ఒక్కరి</w>
ఒక్కరికి</w>
ఒక్కరూ</w>
ఒక్కసార
ఒక్కసారిగా</w>
ఒక్కో</w>
ఒత్త
ఒత్తి
ఒత్తిడి</w>
ఒత్తిడిని</w>
ఒత్తిడిలో</w>
ఒత్తేలా</w>
ఒప్ప
ఒప్పంద
ఒప్పందం</w>
ఒప్పందానికి</w>
ఒప్పందాన్ని</w>
ఒప్పించి</w>
ఒప్పుకున్న
ఒప్పుకున్నాడు</w>
ఒప్పుకున్నారని</w>
ఒమై
ఒమైమా</w>
ఒరిగ
ఒరిగింద
ఒరిగిందేమి</w>
ఒళ్ళు</w>
ఓ
ఓ</w>
ఓం
ఓంకార్</w>
ఓకే</w>
ఓట
ఓటమ
ఓటమికి</w>
ఓటములను</w>
ఓటరు</w>
ఓటర్లు</w>
ఓటీ
ఓటీటీ
ఓటీటీ</w>
ఓటీటీలో</w>
ఓటు</w>
ఓటేయ
ఓటేయండి</w>
ఓట్ల</w>
ఓట్లు</w>
ఓడ
ఓడి
ఓడించినట్లు</w>
ఓడిపోయ
ఓడిపోయినట్లు</w>
ఓదార
ఓదార్చ
ఓదార్చటం</w>
ఓదార్చిన</w>
ఓప
ఓపిక</w>
ఓపె
ఓపెనర్</w>
ఓపెన్</w>
ఓర్
ఓర్వ</w>
ఓవర్
ఓవర్</w>
ఓవర్లలో</w>
ఓవర్సీస్</w>
క
క</w>
కం
కం</w>
కంకర</w>
కంగ
కంగనా</w>
కంగల్</w>
కంగా</w>
కంగార
కంగారూ
కంగారూలకు</w>
కంగ్రా
కంగ్రాట్స్</w>
కంచి</w>
కంట
కంటతడి</w>
కంటి
కంటింజ
కంటింజెన్
కంటింజెన్సీ</w>
కంటికి</w>
కంటె</w>
కంటెంట్</w>
కంటై
కంటైన
కంటైనర్</w>
కంటైనర్లు</w>
కంటే</w>
కంటై
కంటైన్
కంటైన్మెంట్</w>
కంట్రో
కంట్రోల్</w>
కండీ
కండీష
కండీషనర్</w>
కంది</w>
కంపు</w>
కంపె
కంపెనీ
కంపెనీ</w>
కంపెనీకి</w>
కంపెనీలతో</w>
కంబా
కంబాళ</w>
కక్ష్య
కక్ష్యలోకి</w>
కచే
కచేరి</w>
కచ్చితంగా</w>
కటువ
కటువుగా</w>
కట్ట
కట్టడ
కట్టడమే</w>
కట్టడాల</w>
కట్టడి</w>
కట్టించారు</w>
కట్టిస్త
కట్టిస్తామని</w>
కట్టుకుని</w>
కట్నం</w>
కఠ
కఠిన
కఠిన</w>
కఠినంగా</w>
కడ
కడత
కడతారని</w>
కడప</w>
కడిగ
కడిగి</w>
కడు
కడుగ
కడుగుతున్న</w>
కణమ
కణములు</w>
కణాల</w>
కతా</w>
కతాలో</w>
కత్తి
కత్తిరించి</w>
కత్ర
కత్రిన
కత్రిన</w>
కత్రినతో</w>
కత్వ
కథ
కథ</w>
కథతో</w>
కథన
కథనం</w>
కథనంభ
కథనంభర్త</w>
కథలు</w>
కథల్ని</w>
కథా
కథా</w>
కథాంశ
కథాంశం</w>
కథానాయ
కథానాయకుడిగా</w>
కథేమి</w>
కద
కదలిక
కదలికను</w>
కదలికలు</w>
కదా</w>
కదాని</w>
కదుప
కదుపుతోంది</w>
కన
కనకాల</w>
కనబ
కనబడి</w>
కనబడు
కనబడుట
కనబడుటలేదు</w>
కని
కనిప
కనిపి
కనిపించ
కనిపించడ
కనిపించడం
కనిపించడంతో</w>
కనిపించడంలేదు</w>
కనిపించన
కనిపించని</w>
కనిపించనున్న
కనిపించనున్నాడని</w>
కనిపించనున్నాడు</w>
కనిపించాడు</w>
కనిపించింది</w>
కనిపించిన</w>
కనిపించినా</w>
కనిపిస్త
కనిపిస్తార</w>
కనిపిస్తున్నాడు</w>
కనిపిస్తున్నాయి</w>
కనిపిస్తోంద
కనిపిస్తోందంటున్నారు</w>
కనిపిస్తోందని</w>
కనీ
కనీస</w>
కను
కనుక</w>
కనుమ
కనుమరుగ
కనుమరుగై
కనుమరుగైపోయారు</w>
కనె
కనెక్
కనెక్టి
కనెక్టివి
కనెక్టివిటీ</w>
కనెక్ట్</w>
కన్
కన్న
కన్నా</w>
కన్నీ
కన్నీటి</w>
కన్నీరు</w>
కన్నీళ్ల
కన్నీళ్లకే</w>
కన్నీళ్లు</w>
కన్ను</w>
కన్నే
కన్నేసిన</w>
కన్ప
కన్పిస్తోంది</w>
కన్ఫ
కన్ఫర్మ
కన్ఫర్మేష
కన్ఫర్మేషనల్</w>
కన్ఫ్యూ
కన్ఫ్యూజన్</w>
కన్యా
కన్యాకుమార
కన్యాకుమారికి</w>
కపూర్</w>
కపోతే</w>
కపోయ
కపోవ
కప్ప
కప్పుకోవడంతో</w>
కబ్
కబ్జా</w>
కమ
కమర్ష
కమర్షియ
కమర్షియల్</w>
కమలా
కమలాసన్</w>
కమా
కమాండర్</w>
కమాండ్</w>
కమి
కమిన్స్</w>
కమిషన
కమిషనరేట్</w>
కమె
కమెడియ
కమెడియన్లు</w>
కమైన</w>
కమ్మ</w>
కమ్యూ
కమ్యూని
కమ్యూనిటీ</w>
కయి</w>
కర
కర</w>
కరణ</w>
కరణలు</w>
కరా
కరాళ</w>
కరించ
కరిగ
కరిగిపోత
కరిగిపోతుండటంతో</w>
కరె
కరెంట్</w>
కరో
కరోనా
కరోనా</w>
కరోనాపై</w>
కర్
కర్</w>
కర్టన్</w>
కర్ణా
కర్ణాట
కర్ణాటక
కర్ణాటకలోనూ</w>
కర్త
కర్తవ్య
కర్తవ్య</w>
కర్తవ్యబోధ</w>
కర్నాట
కర్నాటకలో</w>
కర్నూ
కర్నూలు</w>
కర్బ
కర్బన</w>
కర్మ</w>
కల
కలం</w>
కలవర
కలవరపాట
కలవరపాటుకు</w>
కలవరపెడ
కలవరపెడుతోంది</w>
కలవరి
కలవరిస్తున్నాడు</w>
కలసి</w>
కలి
కలిగ
కలిగి
కలిగి</w>
కలిగించాడు</w>
కలిగిందని</w>
కలిగిన</w>
కలిగిస్త
కలిగిస్తాయి</w>
కలిగిస్తుంది</w>
కలిగే</w>
కలిచి</w>
కలిపి</w>
కలిపిన</w>
కలిశారు</w>
కలిసి</w>
కలిసిక
కలిసికట్టుగా</w>
కలె
కలెక్ట
కలెక్టరేట్</w>
కలెక్ష
కలెక్షన్లు</w>
కలెక్షన్స్</w>
కలో</w>
కల్ప
కల్పతరు
కల్పతరువు</w>
కల్పన</w>
కల్పించన
కల్పించనున్నారు</w>
కల్పించారు</w>
కల్పించి</w>
కల్పిస్తారు</w>
కల్పిస్తూ</w>
కల్యా
కల్యాణ
కల్యాణం</w>
కల్యాణో
కల్యాణోత్స
కల్యాణోత్సవ
కల్యాణోత్సవాలు</w>
కల్యాణ్</w>
కల్ల
కల్లంలో</w>
కళ
కళను</w>
కళా
కళాకార
కళాకారులతో</w>
కళాకారులను</w>
కళాకారులు</w>
కళాకారుల్లో</w>
కళాశాల</w>
కళ్యా</w>
కళ్యాణ్</w>
కళ్ల
కళ్లముందే</w>
కళ్లారా</w>
కళ్లె
కళ్లెం</w>
కవర్</w>
కవర్లు</w>
కవి
కవితా
కవితాసాహిత
కవితాసాహిత్య
కవితాసాహిత్యానికి</w>
కశ్
కశ్మీ
కశ్మీర్</w>
కష్ట
కష్టం</w>
కష్టకాలంలో</w>
కష్టపడి</w>
కష్టమేమీ</w>
కష్టార్
కష్టార్జ
కష్టార్జిత
కష్టార్జితమైన</w>
కష్టాల
కష్టాలపాలు</w>
కసర
కసరత్తు</w>
కస్ట
కస్టడీ
కస్టడీలో</w>
కస్టమర
కస్టమర్ల
కస్టమర్లకు</w>
కస్టమర్లకే</w>
కా
కాంగ
కాంగ్</w>
కాంగ్రె
కాంగ్రెస
కాంగ్రెసు
కాంగ్రెసు</w>
కాంగ్రెసుకు</w>
కాంగ్రెసుగా</w>
కాంగ్రెస్</w>
కాంట
కాంట్రా
కాంట్రాక్
కాంట్రాక్టును</w>
కాండ
కాండకు</w>
కాంత
కాంతి</w>
కాంతిని</w>
కాంత్</w>
కాంబ
కాంబినే
కాంబినేష</w>
కాంబినేషన్</w>
కాంబ్ల
కాంబ్లి</w>
కాకపోతే</w>
కాకర
కాకరకాయ
కాకరకాయలు</w>
కాకుంటే</w>
కాకుండా</w>
కాగా</w>
కాటన్</w>
కాత</w>
కాద
కాదంటున్నారు</w>
కాదని</w>
కాదన్నారు</w>
కాదు</w>
కాదే
కాదేమో</w>
కాన
కాని
కాని</w>
కానికి</w>
కానిస్టే
కానిస్టేబుల్</w>
కానీ</w>
కాను</w>
కానుంది</w>
కానుక
కానుక</w>
కానుకగా</w>
కానున్నారు</w>
కాన్
కాన్ని</w>
కాన్వాయ
కాన్వాయ్</w>
కాన్సన్</w>
కాన్స్పి
కాన్స్పిర
కాన్స్పిరసీ</w>
కాప
కాపడం</w>
కాపాడ
కాపాడాడు</w>
కాపాడుకోవ
కాపాడుకోవడానికి</w>
కాపాడుకోవాల్సిన</w>
కాపాడేందుకు</w>
కాపి
కాపిటల్</w>
కాపీ</w>
కాపు</w>
కాపులను</w>
కాఫీ
కాఫీలు</w>
కాబ
కాబట్టి</w>
కాబట్టే</w>
కాబడ్డ</w>
కాబుల్</w>
కాబూ
కాబూల్</w>
కాబోతోంది</w>
కామి
కామినేని</w>
కామెంట
కామెంట్</w>
కామెంట్లు</w>
కామెంట్స్</w>
కామ్ర
కామ్రే
కామ్రేడ
కామ్రేడ్ల</w>
కాయ
కాయకపోతే</w>
కాయకుంటే</w>
కాయాలి</w>
కార
కార</w>
కారం</w>
కారకుల
కారకులయిన</w>
కారణ
కారణం</w>
కారణంగా</w>
కారణమని</w>
కారణమవ
కారణమవుతాయి</w>
కారణమవుతుంది</w>
కారణమైన</w>
కారణాలు</w>
కారణాల్లో</w>
కారా</w>
కారానికి</w>
కారు</w>
కారును</w>
కారులో</w>
కార్
కార్</w>
కార్డ
కార్డు</w>
కార్డుల</w>
కార్డులను</w>
కార్తి</w>
కార్ప
కార్పొ
కార్పొరేషన్</w>
కార్మిక
కార్మిక</w>
కార్మికుల</w>
కార్య
కార్య</w>
కార్యకర్
కార్యకర్త</w>
కార్యకర్తలు</w>
కార్యక్ర
కార్యక్రమ
కార్యక్రమం</w>
కార్యక్రమంలో</w>
కార్యక్రమా
కార్యక్రమానికి</w>
కార్యక్రమాన్న</w>
కార్యక్రమాన్ని</w>
కార్యక్రమాలకు</w>
కార్యక్రమాలపై</w>
కార్యక్రమాలు</w>
కార్యదర్శ
కార్యదర్శి</w>
కార్యదర్శికి</w>
కార్యాలయ
కార్యాలయం</w>
కార్యాలయంలో</w>
కార్యాలే</w>
కార్ల
కార్ల</w>
కార్లను</w>
కాల
కాల</w>
కాలం</w>
కాలంగా</w>
కాలంలో</w>
కాలనీ
కాలనీల</w>
కాలను</w>
కాలమ్</w>
కాలి</w>
కాలు</w>
కాలువ
కాలువ</w>
కాలేదని</w>
కాల్</w>
కాల్చిన</w>
కాల్స్</w>
కాళ్లు</w>
కావ
కావచ్చు</w>
కావట
కావటం</w>
కావటంపై</w>
కావడం</w>
కావడంతో</w>
కావని</w>
కావాలంటే</w>
కావాలన
కావాలని</w>
కావాలనుకుంటే</w>
కావాలి</w>
కావు</w>
కాశ
కాశాల
కాశాలున్నాయి</w>
కాశి</w>
కాశీ</w>
కాష
కాషాయ
కాషాయ</w>
కాషాయా
కాషాయాంబ
కాషాయాంబర</w>
కాస
కాసల్లోనూ</w>
కాస్
కాస్తా</w>
కాస్మో
కాస్మోటిక
కాస్మోటిక్స్</w>
కి
కి</w>
కింద
కింద</w>
కిందట</w>
కింది</w>
కిందు
కిందుపడింది</w>
కిక్</w>
కిచ్చిన</w>
కిడ్
కిడ్నీ</w>
కిర
కిరణ్</w>
కిల
కిలో
కిలోమీటర్ల</w>
కిలోమీటర్లు</w>
కిలోల</w>
కిష</w>
కీ
కీ</w>
కీల
కీలక
కీలక</w>
కీలకపాత్ర</w>
కీలకమైన</w>
కీళ్ళ</w>
కు
కు</w>
కుంకు
కుంకుమ</w>
కుంగి
కుంగిపోవ
కుంగిపోవడమే</w>
కుంటే</w>
కుండ
కుండా</w>
కుంభ
కుంభవృ
కుంభవృష్ట
కుంభవృష్టి</w>
కుక్క
కుక్కగా</w>
కుక్కర్</w>
కుక్కర్లు</w>
కుజ
కుజుడు</w>
కుటు
కుటుం
కుటుంబ
కుటుంబ</w>
కుటుంబం</w>
కుటుంబంలోకి</w>
కుటుంబములో</w>
కుటుంబసభ్యులు</w>
కుటుంబా
కుటుంబానికి</w>
కుటుంబాన్ని</w>
కుటుంబాల</w>
కుటుంబాలకు</w>
కుట్టి</w>
కుట్ర
కుట్రలు</w>
కుడిగా</w>
కుడు</w>
కుదర
కుదరదు</w>
కుదించ
కుదించనున్న</w>
కుదిరి
కుదిరింది</w>
కుని
కునిగానే</w>
కుప్ప
కుప్పం</w>
కుమార
కుమారుడు</w>
కుమార్</w>
కుమిల
కుమిలి</w>
కురి
కురిప
కురిపించింద
కురిపించిందనే</w>
కురియ
కురియన్</w>
కురిసిన</w>
కుర్చ
కుర్చీలు</w>
కుల
కులాల</w>
కులు</w>
కుళ
కుళాయి
కుళాయిల</w>
కువై
కువైట్</w>
కుస్త
కుస్తీలు</w>
కుహ
కుహుల</w>
కూ
కూ</w>
కూడ
కూడ</w>
కూడదు</w>
కూడబెట్ట
కూడబెట్టుకున్న</w>
కూడా</w>
కూడుకున్నది</w>
కూతు
కూతురికి</w>
కూతురిని</w>
కూతురు</w>
కూర
కూరగాయ
కూరగాయలను</w>
కూర్
కూర్చ
కూర్చు
కూర్చుని</w>
కూర్చో
కూర్చోండి</w>
కూలి
కూలినట్లు</w>
కూలీ
కూలీలను</w>
కూల్చ
కూల్చవేత</w>
కృ
కృతి</w>
కృష్ణ
కృష్ణ</w>
కృష్ణవంశీ</w>
కృష్ణా</w>
కె
కె</w>
కెక్క
కెక్కాయి</w>
కెటిఆర్</w>
కెప్టె
కెప్టెన్</w>
కెఫె
కెఫె</w>
కెమి
కెమిక
కెమికల్</w>
కెమిస్ట్రీ
కెమిస్ట్రీ</w>
కెమిస్ట్రీలో</w>
కెమె
కెమెర
కెమెరా</w>
కెమెరాలో</w>
కెమెరాల్లో</w>
కెరియ
కెరియర్</w>
కెరీ
కెరీర్</w>
కే
కే</w>
కేంద్ర
కేంద్ర</w>
కేంద్రం</w>
కేంద్రంగా</w>
కేంద్రంపై</w>
కేంద్రంలో</w>
కేంద్రంలోని</w>
కేంద్రమైన</w>
కేంద్రాలను</w>
కేంద్రాలు</w>
కేంద్రాల్లో</w>
కేంద్రీ
కేంద్రీకృ
కేంద్రీకృత
కేంద్రీకృతమైంది</w>
కేఏ</w>
కేకులు</w>
కేక్</w>
కేటీఆర్</w>
కేటు
కేటుగాళ్లు</w>
కేడర్</w>
కేత
కేతువు</w>
కేన్స్</w>
కేబినెట్</w>
కేర
కేరళ
కేరళ</w>
కేరళలో</w>
కేర్</w>
కేల</w>
కేవల
కేవలం</w>
కేశ
కేశవ
కేశవదా
కేశవదాసు</w>
కేశాలకు</w>
కేసీఆర్</w>
కేసు</w>
కేసును</w>
కేసుల</w>
కేసులు</w>
కేసులో</w>
కై
కైవ</w>
కొ
కొంచె
కొంచెం
కొంచెం</w>
కొంచెంపెంచ
కొంచెంపెంచా</w>
కొంట
కొంటామని</w>
కొండ
కొండగ
కొండగట్టు</w>
కొండమీద
కొండమీదనుంచి</w>
కొండెక్క
కొండెక్కిన</w>
కొండే
కొండేటి</w>
కొంత
కొంత</w>
కొంతకాల
కొంతకాలానిక
కొంతకాలానికే</w>
కొంతమందికి</w>
కొంతమేర</w>
కొంద
కొందరిన
కొందరినైనా</w>
కొందరు</w>
కొంప</w>
కొట్ట
కొట్టి
కొట్టి</w>
కొట్టిపడ
కొట్టిపడే
కొట్టిపడేసింది</w>
కొట్టిస్తాడ
కొట్టిస్తాడనన్న
కొట్టిస్తాడనన్నాడు</w>
కొట్టుకుని</w>
కొట్టే
కొట్టేందుకు</w>
కొట్టేయ
కొట్టేయడం</w>
కొట్టేస్తున్నార
కొట్టేస్తున్నారని</w>
కొట్టేస్తున్నారన్న</w>
కొడ
కొడి
కొడిమ్య
కొడిమ్యల</w>
కొడుకు</w>
కొడుతున్నారని</w>
కొడుతోంది</w>
కొణి
కొణిద
కొణిదెల
కొణిదెల</w>
కొత్త
కొత్త</w>
కొత్తగా</w>
కొద్ద
కొద్ది
కొద్దిగా</w>
కొద్దిరోజులుగా</w>
కొద్దిసేప
కొద్దిసేపటి</w>
కొద్దీ</w>
కొన
కొనగో
కొనగోలు</w>
కొనసాగ
కొనసాగన
కొనసాగనున్నాయి</w>
కొనసాగాలని</w>
కొనసాగిస్తున్న</w>
కొనసాగుత
కొనసాగుతుండగా</w>
కొనసాగుతున్న
కొనసాగుతున్న</w>
కొనసాగుతున్నది</w>
కొనసాగుతున్నాయి</w>
కొనసాగుతోంది</w>
కొనసాగుతోన్న</w>
కొను
కొనుగో
కొనుగోలు
కొనుగోలు</w>
కొనుగోలుపై</w>
కొన్న</w>
కొన్ని</w>
కొన్నే
కొన్నేళ్లుగా</w>
కొబ్బ
కొబ్బరి</w>
కొమ్మ
కొమ్మకు</w>
కొర
కొరకు</w>
కొరడా</w>
కొరత</w>
కొరికి</w>
కొరియ
కొరియర్</w>
కొరియాలో</w>
కొల
కొలత్తూర్</w>
కొలిక్కి
కొలిక్కివ</w>
కొలు
కొలువ
కొలువు
కొలువుదీ
కొలువుదీరిన</w>
కొలువై</w>
కొవిడ్</w>
కో
కో</w>
కోచి
కోచింగ్</w>
కోచ్</w>
కోట
కోట</w>
కోటపై</w>
కోటలో</w>
కోటాలో</w>
కోట్ల
కోట్ల</w>
కోట్లకు</w>
కోట్లతో</w>
కోట్లను</w>
కోట్లు</w>
కోడి
కోడిగు
కోడిగుడ
కోడిగుడ్ల</w>
కోడిగుడ్లు</w>
కోడ్</w>
కోణాల్లో</w>
కోతలకు</w>
కోతిని</w>
కోతుల
కోతులూ</w>
కోదా
కోదాడ</w>
కోన</w>
కోప
కోపం</w>
కోపంతో</w>
కోయ
కోయంబ
కోయంబత్తూర్</w>
కోర
కోరల్లో</w>
కోరాడు</w>
కోరారు</w>
కోరి
కోరింది</w>
కోరిక</w>
కోరికను</w>
కోరిన</w>
కోరుకుంట
కోరుకుంటాను</w>
కోరుకుంటారు</w>
కోరుకుంటే</w>
కోరుకున్నారు</w>
కోరుతున్న
కోరుతున్నాం</w>
కోరుతున్నానని</w>
కోరుతోంది</w>
కోర్
కోర్ట
కోర్టు
కోర్టు</w>
కోర్టుమె
కోర్టుమెట్ల
కోర్టుమెట్లెక్క
కోర్టుమెట్లెక్కడం</w>
కోర్టుల
కోర్టుల</w>
కోర్టులన్నీ</w>
కోర్టులలో</w>
కోర్టులో</w>
కోల
కోలీ
కోలీవుడ్</w>
కోలుకో
కోలుకోలేదు</w>
కోల్</w>
కోల్ప
కోల్పో
కోల్పోతు
కోల్పోతుంద</w>
కోల్పోయ
కోల్పోయాడు</w>
కోల్పోయింది</w>
కోల్పోయిన</w>
కోల్పోయినట్లు</w>
కోవాలని</w>
కోవింద
కోవింద్</w>
కోవిడ్</w>
కోశా
కోశాగార
కోశాగారము</w>
కోసం</w>
కోసమ
కోసమే
కోసమే</w>
కోసమేనా</w>
కోహ
కోహ్లీ</w>
కౌ
కౌంట
కౌంటర్</w>
కౌన్
కౌన్సి
కౌన్సిలింగ్</w>
కౌర
కౌరవుల</w>
కౌశ
కౌశిక్</w>
క్
క్</w>
క్క
క్క</w>
క్కలు</w>
క్కి</w>
క్కు
క్కువ</w>
క్ట
క్టర్</w>
క్టివ్</w>
క్ట్</w>
క్త
క్త</w>
క్తి</w>
క్య
క్యా
క్యాంప
క్యాంపు</w>
క్యాంపుపై</w>
క్యాప్
క్యాప్షన్</w>
క్యాప్సిక
క్యాప్సికమ్</w>
క్యాబినెట్</w>
క్యారె
క్యారెక్టర్</w>
క్యారెట్లు</w>
క్యాష్</w>
క్యూ
క్యూ</w>
క్యూట్</w>
క్యూసె
క్యూసెక్క
క్యూసెక్కుల</w>
క్ర
క్రమ
క్రమంలో</w>
క్రమంలోనే</w>
క్రమాన్ని</w>
క్రా
క్రాంతి</w>
క్రాక్</w>
క్రాస్</w>
క్రి
క్రింది</w>
క్రిక
క్రికె
క్రికెటర్</w>
క్రికెట్</w>
క్రిచ
క్రిచ్ట
క్రిచ్టన్</w>
క్రిత
క్రితం</w>
క్రితమే</w>
క్రియా</w>
క్రిస్టీ</w>
క్రీ
క్రీడా
క్రీడాకార
క్రీడాకారులు</w>
క్రూ
క్రూయి
క్రూయిజ్</w>
క్రె
క్రెడి
క్రెడిట్</w>
క్రేజ్</w>
క్రై
క్రైమ్</w>
క్రోధ
క్రోధో</w>
క్ల
క్లస్ట
క్లస్టర్స్</w>
క్లా
క్లారిటీ
క్లారిటీ</w>
క్లారిటీతో</w>
క్లాస
క్లాసికల్</w>
క్లాసిక్</w>
క్లాస్</w>
క్లి
క్లిక్</w>
క్లిష్ట
క్లిష్టమైన</w>
క్లు
క్లుప్తంగా</w>
క్లే
క్లేడ్</w>
క్లో
క్లోజ్
క్లోజ్</w>
క్లోజ్డ్</w>
క్లోతి
క్లోతింగ్</w>
క్వింట
క్వింటా
క్వింటాళ్ల</w>
క్ష
క్ష</w>
క్షంగా</w>
క్షణ
క్షణాలను</w>
క్షన్</w>
క్షలు</w>
క్షి
క్షిణ</w>
క్షీ
క్షీణ
క్షీణించింది</w>
క్షుడు</w>
క్ష్య
క్ష్యంగా</w>
క్సి
క్సిన్</w>
క్స్</w>
ఖ
ఖ</w>
ఖంగ
ఖంగుత
ఖంగుతిన్న</w>
ఖచ్చ
ఖచ్చిత</w>
ఖచ్చితంగా</w>
ఖజాన
ఖజానాకు</w>
ఖనిజ
ఖనిజసం
ఖనిజసంపద</w>
ఖమ్మ
ఖమ్మం</w>
ఖమ్మంలోని</w>
ఖర
ఖరార
ఖరారు</w>
ఖరారైంది</w>
ఖరీ
ఖరీదె
ఖరీదైన</w>
ఖరీదైన</w>
ఖర్చ
ఖర్చు</w>
ఖర్చుతో</w>
ఖర్చులకు</w>
ఖర్మ
ఖర్మంటున్నారు</w>
ఖా
ఖాతా</w>
ఖాతాలో</w>
ఖాన్</w>
ఖాయ
ఖాయమని</w>
ఖాళ
ఖాళీ</w>
ఖాళీగా</w>
ఖు
ఖుర
ఖురేష
ఖురేషి</w>
ఖై
ఖైదీ</w>
ఖైర
ఖైరతా
ఖైరతాబాద్</w>
ఖ్య
ఖ్యా
గ
గ</w>
గం</w>
గంగుల</w>
గంజ
గంజాయి</w>
గంట
గంట</w>
గంటల</w>
గంటలకు</w>
గంటల్లో</w>
గండి</w>
గందర
గందరగో
గందరగోళ
గందరగోళం</w>
గజ
గజరాజు</w>
గట్ట
గట్టి</w>
గట్టిగా</w>
గడ
గడప
గడప</w>
గడపడానికి</w>
గడపబోతున్న
గడపబోతున్నట్లు</w>
గడపసాగారు</w>
గడి
గడిచ
గడిచి
గడిచిన</w>
గడిచిపోయాయి</w>
గడిప
గడిపి</w>
గడిపిన</w>
గడిపే</w>
గడువ
గడువు</w>
గడువును</w>
గడ్
గడ్డ
గడ్డ</w>
గడ్డం</w>
గడ్డంతో</w>
గడ్డకట్ట
గడ్డకట్టకుండా</w>
గడ్డలు</w>
గణ
గణా
గణాంక
గణాంకశాస్త్రం</w>
గణాంకాల</w>
గణాంకాలు</w>
గణితం</w>
గణేష్</w>
గత
గత</w>
గతంలో</w>
గతంలోనూ</w>
గతంలోనే</w>
గతా</w>
గతి
గతిస్తూ</w>
గతుల
గతులని</w>
గతేడాది</w>
గమ
గమన
గమనం</w>
గమనము
గమనమును</w>
గమనార్
గమనార్హం</w>
గమని
గమనించ
గమనించండి</w>
గమనిస్తే</w>
గమే
గమేలియా</w>
గమ్</w>
గరి
గరిష్ఠ
గరిష్ఠ</w>
గరు
గరుడ
గరుడ</w>
గరుడపై</w>
గర్
గర్</w>
గర్జన</w>
గర్భ
గర్భం</w>
గర్వ
గర్వంగా</w>
గల
గల</w>
గలను</w>
గలి
గల్</w>
గవర్
గవర్నర్</w>
గా
గా</w>
గాంగ్</w>
గాంధ
గాంధీ
గాంధీ</w>
గాంధీజీ</w>
గాంధీపై</w>
గాంధీయి
గాంధీయిజం</w>
గాజు</w>
గాన
గానా
గానాబ
గానాబజాన
గానాబజానా</w>
గాని</w>
గానిక్</w>
గానీ</w>
గాను</w>
గానే</w>
గానో</w>
గాపై</w>
గాయ
గాయం</w>
గాయకుడు</w>
గాయాల
గాయాలతో</w>
గాయాలపాల
గాయాలపాలైన</w>
గాయాలయ్యాయి</w>
గాయాలు</w>
గార
గారి</w>
గారికి</w>
గారిది</w>
గారు
గారు</w>
గారునేను</w>
గారూ</w>
గార్
గార్డ
గార్డు</w>
గార్డుల
గార్డులందరికీ</w>
గార్డులకు</w>
గార్డెన్</w>
గార్డ్</w>
గాల
గాల</w>
గాలి
గాలింపు</w>
గాలిప
గాలిపటం</w>
గాలిస్తున్నారు</w>
గాలె</w>
గాళ్లు</w>
గి
గింజ
గింజలు</w>
గింజవరకు</w>
గిన</w>
గిన్న
గిన్ని
గిన్నిస్</w>
గిన్నీ
గిన్నీస్</w>
గిరి
గిరిజన</w>
గిల
గిలిపోత
గిలిపోతోందని</w>
గీ
గీత
గీతం</w>
గీతాన్ని</w>
గీతాలతో</w>
గు
గు</w>
గుంక
గుంకుల్లో</w>
గుంట
గుంటూర
గుంటూరు</w>
గుంటూరుకు</w>
గుంటూరులోని</w>
గుండ
గుండా</w>
గుండె</w>
గుండెల
గుండెల్ని</w>
గుంత</w>
గుచ్చుకుంట
గుచ్చుకుంటాయి</w>
గుజ
గుజరా
గుజరాతీ</w>
గుజరాత్</w>
గుజ్
గుజ్జుల
గుజ్జులా</w>
గుట్ట
గుట్టలు</w>
గుడ్</w>
గుణ
గుణశేఖర్</w>
గున్న</w>
గుప
గుబు
గుబురు</w>
గురి
గురి</w>
గురించి</w>
గురిక
గురికావ
గురికావొ
గురికావొదని</w>
గురిచేశాయి</w>
గురు
గురు</w>
గురువ
గురువారం</w>
గురువు</w>
గురువులే</w>
గురువైన</w>
గురూ</w>
గురై
గురై</w>
గురైన</w>
గుర్
గుర్త
గుర్తి
గుర్తించ
గుర్తించలేని</w>
గుర్తించారని</w>
గుర్తించారు</w>
గుర్తించాలి</w>
గుర్తించి</w>
గుర్తించిన
గుర్తించినప్పుడు</w>
గుర్తింప
గుర్తింపు</w>
గుర్తింపుక
గుర్తింపుకార్
గుర్తింపుకార్డును</w>
గుర్తిస్తున్నారు</w>
గుర్తు
గుర్తు</w>
గుర్తుచేశారు</w>
గుర్తుపెట్ట
గుర్తుపెట్టుకునే
గుర్తుపెట్టుకునేట్లు</w>
గులా
గులాబీ</w>
గులు</w>
గుహ
గుహల్లో</w>
గూ
గూగ
గూగుల్</w>
గూడ
గృ
గృహ</w>
గె
గెంట
గెంటే
గెంటేవేయ
గెంటేవేయలేదు</w>
గెట
గెటప్</w>
గెల
గెలి
గెలిచ
గెలిచి</w>
గెలిచింది</w>
గెలిప
గెలిపించారని</w>
గెలు
గెలుచ
గెలుచుకుంట
గెలుచుకుంటామని</w>
గెలుచుకుని</w>
గెలుచుకున్న</w>
గెలుచుకోవ
గెలుచుకోవడమే</w>
గెలుపు</w>
గెలుస్తారు</w>
గే
గే</w>
గేట్లను</w>
గేయాన్ని</w>
గొ
గొండ
గొండ</w>
గొంత
గొంతును</w>
గొంతే</w>
గొడ
గొడవ
గొడవ</w>
గొడవలకు</w>
గొప్ప</w>
గొలు
గొలుసుల
గొలుసులా</w>
గో
గో</w>
గోగ
గోగుల</w>
గోచర
గోచరించారు</w>
గోడ
గోడ</w>
గోడకు</w>
గోడలు</w>
గోదా
గోదావరి</w>
గోపాల్</w>
గోపి
గోపినాథ్</w>
గోపీ
గోపీ</w>
గోపీమోహన్</w>
గోయ
గోయల్</w>
గోరీ</w>
గోవ
గోవాలో</w>
గోవుల</w>
గౌ
గౌడ్</w>
గౌడ్స్</w>
గౌత
గౌత</w>
గౌతమి</w>
గౌర
గౌరవ
గౌరవ</w>
గౌరవం</w>
గౌరవంగా</w>
గౌరీ
గౌరీ</w>
గౌరీశంకర్</w>
గౌహ
గౌహతిలో</w>
గ్
గ్</w>
గ్గ
గ్గడంతో</w>
గ్ని
గ్య
గ్యా
గ్యాడ్జెట్</w>
గ్యార
గ్యారేజ్</w>
గ్ర
గ్రం
గ్రంథ
గ్రంథాలయ</w>
గ్రంథాలయం</w>
గ్రహ
గ్రహ</w>
గ్రహం</w>
గ్రహాలకు</w>
గ్రా
గ్రాంట్</w>
గ్రాన
గ్రానైట్</w>
గ్రామ
గ్రామం</w>
గ్రామంలో</w>
గ్రామంలోని</w>
గ్రామపెద్ద
గ్రామపెద్దను</w>
గ్రామానికి</w>
గ్రామాల</w>
గ్రామాల్లో</w>
గ్రామాల్లోని</w>
గ్రామీ
గ్రామీణ</w>
గ్రాస్</w>
గ్రిప్</w>
గ్రూప
గ్రూపుల్ల
గ్రూపుల్లోకి</w>
గ్రూపే</w>
గ్రూప్</w>
గ్రె
గ్రెగ్</w>
గ్రెనే
గ్రెనేడ్</w>
గ్రేట
గ్రేటర్</w>
గ్రై
గ్రైండర్</w>
గ్రైండ్</w>
గ్రౌ
గ్రౌండ్</w>
ఘ
ఘంట
ఘంటిక
ఘంటికలు</w>
ఘట
ఘటన
ఘటన</w>
ఘటనపై</w>
ఘటనలకు</w>
ఘటనలు</w>
ఘటనలో</w>
ఘటనా</w>
ఘన
ఘన</w>
ఘనపు
ఘనపుర్</w>
ఘనస్వా
ఘనస్వాగ
ఘనస్వాగతం</w>
ఘన్</w>
ఘర్ష
ఘర్షణలు</w>
ఘా
ఘాట
ఘాటుగా</w>
ఘాట్</w>
ఘో
ఘోర</w>
ఘోస్ట్</w>
చ
చ</w>
చంద
చందాల</w>
చంద్ర
చంద్ర</w>
చంద్రగ్రహ
చంద్రగ్రహం
చంద్రగ్రహంపై</w>
చంద్రగ్రహంపైకి</w>
చంద్రబాబ
చంద్రబాబు
చంద్రబాబు</w>
చంద్రబాబుకు</w>
చంద్రబాబుగ
చంద్రబాబుగారు</w>
చంద్రబాబునాయుడు</w>
చంద్రబాబుని</w>
చంద్రబాబును</w>
చంద్రయ
చంద్రయాన్</w>
చంద్రశేఖ
చంద్రశేఖర
చంద్రశేఖరరా
చంద్రశేఖరరావు
చంద్రశేఖరరావుగారి</w>
చంద్రావ
చంద్రావతితో</w>
చంద్రు
చంద్రుడి
చంద్రుడి</w>
చంద్రుడిని</w>
చంద్రుడిపై</w>
చంద్రుడు</w>
చంప
చంపిన</w>
చంపుత
చంపుతానని</w>
చంపే
చంపేస్త
చంపేస్తాడు</w>
చక్క
చక్కగా</w>
చక్కర్లు</w>
చక్ర
చక్ర</w>
చక్రతీర్థ
చక్రతీర్థం</w>
చక్రవ్యూ
చక్రవ్యూహం</w>
చచ్చిపోయ
చచ్చిపోయే
చచ్చిపోయేట్ట
చచ్చిపోయేట్టున్నాడు</w>
చట్ట
చట్ట</w>
చట్టపర
చట్టపరమైన</w>
చట్టానికి</w>
చట్టాన్ని</w>
చట్టాల</w>
చట్టాలకు</w>
చద
చదవ
చదవలేదు</w>
చదవాలి</w>
చది
చదివి
చదివితే</w>
చదువ
చదువు
చదువుకునే
చదువుకునేది</w>
చదువుతూ</w>
చదువురా
చదువురాని</w>
చదువులకు</w>
చని
చనిపోత
చనిపోతారని</w>
చనిపోయ
చనిపోయాడు</w>
చనిపోయారు</w>
చనిపోయిన</w>
చనిపోయినట్లు</w>
చర
చరణ్</w>
చరమగ
చరమగీ
చరమగీతం</w>
చరి
చరిత్ర
చరిత్ర</w>
చరిత్రలో</w>
చర్చ
చర్చ</w>
చర్చకొ
చర్చకొచ్చింది</w>
చర్చనీయాంశ
చర్చనీయాంశంగా</w>
చర్చనీయాంశమయింది</w>
చర్చలు</w>
చర్చల్లో</w>
చర్చించడం</w>
చర్చించనున్న
చర్చించనున్నట్లు</w>
చర్చించారు</w>
చర్మ
చర్మం</w>
చర్య
చర్య</w>
చర్యలకు</w>
చర్యలతో</w>
చర్యలు</w>
చలం</w>
చలి
చలిచీ
చలిచీమ
చలిచీమలు</w>
చలో</w>
చల్</w>
చల్ల
చల్లటి</w>
చల్లద
చల్లదనం</w>
చల్లబడుతూ</w>
చల్లుకుని</w>
చల్లుతూ</w>
చస్తున్నాం</w>
చా
చాంప
చాంపియ
చాంపియన్స్</w>
చాక
చాకచ
చాకచక్య
చాకచక్యంగా</w>
చాక్ల
చాక్లెట్</w>
చాచ
చాచే</w>
చాట
చాటడంతో</w>
చాటి
చాటిందని</w>
చాటుకున్నారు</w>
చాటుకోవాలని</w>
చాప
చాప</w>
చాపెల్</w>
చార
చారంలో</w>
చారకొండ
చారకొండను</w>
చాల
చాల</w>
చాలనే</w>
చాలా</w>
చాలామ
చాలామంది</w>
చాలు</w>
చావు
చావును</w>
చాహల్</w>
చి
చి</w>
చింపిన</w>
చింపే
చింపేశా
చింపేశావ
చింపేశావన
చింపేశావనుకో</w>
చిక
చికిత
చికిత్
చికిత్స</w>
చికు</w>
చిక్
చిక్క
చిక్కుకు
చిక్కుకుని</w>
చిక్కుకున్న</w>
చిక్కుకుపోయారు</w>
చిక్కుతుందనే</w>
చిచ్చ
చిచ్చర
చిచ్చరపి
చిచ్చరపిడుగు</w>
చిట్
చిట్కాను</w>
చిత
చిత్
చిత్త
చిత్తూరు</w>
చిత్ర
చిత్ర</w>
చిత్రం</w>
చిత్రంగా</w>
చిత్రంలో</w>
చిత్రబృందం</w>
చిత్రానికి</w>
చిత్రాన్ని</w>
చిత్రాలకు</w>
చిత్రాలతో</w>
చిత్రాలను</w>
చిత్రాల్లో</w>
చిత్రీ
చిత్రీకర
చిత్రీకరణ
చిత్రీకరణపై</w>
చిత్రీకరించ
చిత్రీకరించడంపై</w>
చిన్న
చిన్న</w>
చిన్నకారు</w>
చిన్నగా</w>
చిన్నప్ప
చిన్నప్పటి</w>
చిన్నార
చిన్నారి</w>
చిన్నారిని</w>
చిప
చిప్స్</w>
చిమ్మ
చిమ్ముతున్న</w>
చిర
చిరంజ
చిరంజీ
చిరంజీవి</w>
చిరకాల</w>
చిరు
చిరు</w>
చిరున
చిరునవ్వ
చిరునవ్వే</w>
చిరునామా</w>
చిలక
చిలకడ</w>
చిలా
చిలాకా
చిలాకాకు</w>
చివ</w>
చివర
చివరగా</w>
చివరి</w>
చివరికి</w>
చివర్లో</w>
చీ
చీ</w>
చీఫ్</w>
చీర</w>
చు
చుక్క
చుక్కల</w>
చుక్కె
చుక్కెదు
చుక్కెదురైంది</w>
చుట్ట
చుట్ట</w>
చుట్టండి</w>
చుట్టాలు</w>
చుట్టూ</w>
చుడ
చుడతారు</w>
చుర
చురక</w>
చురుకు
చురుకుగా</w>
చుల్లో</w>
చూ
చూడ
చూడం</w>
చూడండీ</w>
చూడగా</w>
చూడడంతో</w>
చూడలేదు</w>
చూడవద్దు</w>
చూడాల
చూడాలన
చూడాలనుకుంటున్న
చూడాలనుకుంటున్నాను</w>
చూడాలన్న</w>
చూడాలి</w>
చూప
చూపించ
చూపించరా</w>
చూపించారు</w>
చూపించి</w>
చూపించే</w>
చూపిన</w>
చూపిస్తుందని</w>
చూపిస్తుంది</w>
చూపుతున్నారు</w>
చూపుతోంది</w>
చూపే
చూపేలా</w>
చూశారు</w>
చూస
చూసి
చూసి</w>
చూసిన</w>
చూసిప్పుడు</w>
చూసుకుంటారు</w>
చూసుకుని</w>
చూసుకునే</w>
చూసుకొ
చూసుకొండి</w>
చూసుకో
చూసుకోండి</w>
చూస్త
చూస్తాడు</w>
చూస్తుంటే</w>
చూస్తుండ
చూస్తుండగానే</w>
చూస్తున్న</w>
చూస్తూ</w>
చూస్తే</w>
చె
చెంద
చెందవచ్చ
చెందవచ్చున
చెందవచ్చునని</w>
చెందవద్దని</w>
చెందిన</w>
చెందుతున్న</w>
చెందుతున్నారు</w>
చెక్</w>
చెక్క
చెక్కించాలని</w>
చెక్స్</w>
చెట్ల</w>
చెడ
చెడగొ
చెడగొట్టు</w>
చెడి
చెడింది</w>
చెడిపోతాయి</w>
చెడ్డ</w>
చెన్న
చెన్నై</w>
చెప
చెపక్</w>
చెపటం</w>
చెపాక్</w>
చెప్త
చెప్తాను</w>
చెప్తున్న
చెప్తున్నా</w>
చెప్తున్నారు</w>
చెప్తూ</w>
చెప్ప
చెప్పక</w>
చెప్పగలను</w>
చెప్పగిల
చెప్పగిలిగ
చెప్పగిలిగే
చెప్పగిలిగేంత</w>
చెప్పడం</w>
చెప్పడంతో</w>
చెప్పడానికి</w>
చెప్పన
చెప్పనందుకు</w>
చెప్పలే
చెప్పలేనంత</w>
చెప్పవచ్చు</w>
చెప్పాడు</w>
చెప్పారని</w>
చెప్పారు</w>
చెప్పాలంటే</w>
చెప్పాలని</w>
చెప్పాలి</w>
చెప్పి</w>
చెప్పింది</w>
చెప్పిన</w>
చెప్పినట్టు</w>
చెప్పినట్లు</w>
చెప్పినా</w>
చెప్పుకుంటుంది</w>
చెప్పుకొ
చెప్పుకొచ్చ
చెప్పుకొచ్చాడు</w>
చెప్పుకొచ్చారు</w>
చెప్పుకొచ్చింది</w>
చెప్పుకో
చెప్పుకోలేడు</w>
చెప్పుకోవ
చెప్పుకోవడానికి</w>
చెప్పుకోవాలె</w>
చెప్పే</w>
చెప్పొచ్చు</w>
చెబ
చెబితే</w>
చెబుత
చెబుతారని</w>
చెబుతు
చెబుతుంటారు</w>
చెబుతున్న
చెబుతున్న</w>
చెబుతున్నట్లుగా</w>
చెబుతున్నాయి</w>
చెబుతున్నారు</w>
చెబుతోంది</w>
చెయ్య
చెయ్యకుండా</w>
చెయ్యటం</w>
చెయ్యడం</w>
చెయ్యడానికి</w>
చెయ్యలే
చెయ్యలేదని</w>
చెయ్యలేదు</w>
చెయ్యలేము</w>
చెయ్యవచ్చు</w>
చెయ్యాలి</w>
చెయ్యాలో</w>
చెరు
చెరువు</w>
చెరువుల</w>
చెరో</w>
చెల
చెలగా
చెలగాటం</w>
చెల్ల
చెల్లించ
చెల్లించాలని</w>
చెల్లించాలి</w>
చెల్లించాల్సి
చెల్లించాల్సివ
చెల్లించాల్సివుంది</w>
చెల్లించి</w>
చెల్లించింది</w>
చెల్లించిన</w>
చెల్లిస్తార
చెల్లిస్తారన్నారు</w>
చెల్లిస్తారో</w>
చెవి
చెవిరెడ్డి</w>
చెవిలో</w>
చైన
చైనాలతో</w>
చే
చేంజ్</w>
చేకూ
చేకూరు
చేకూరుస్తుందని</w>
చేకూర్చ
చేకూర్చింది</w>
చేత
చేత</w>
చేతన
చేతనైన</w>
చేతి
చేతిగా
చేతిగాజుల
చేతిగాజులమ్మ
చేతిగాజులమ్ముకోవ
చేతిగాజులమ్ముకోవాల్సి</w>
చేతిని</w>
చేతిపంప
చేతిపంపుల</w>
చేతిలో</w>
చేతుల
చేతులు</w>
చేతుల్ని</w>
చేతుల్లో</w>
చేత్
చేత్తో</w>
చేద
చేదుడు</w>
చేద్ద
చేద్దామ
చేద్దామన
చేద్దామనుకొ
చేద్దామనుకొంటే</w>
చేపట్ట
చేపట్టామని</w>
చేపట్టారు</w>
చేపట్టింది</w>
చేపట్టినట్లు</w>
చేపడుతున్నారు</w>
చేబూ
చేబూని</w>
చేయ
చేయ</w>
చేయండి</w>
చేయకూడదు</w>
చేయగల</w>
చేయగలి
చేయగలిగ
చేయగలిగామని</w>
చేయటం</w>
చేయడ
చేయడం</w>
చేయడంలో</w>
చేయడమే</w>
చేయడానికి</w>
చేయని</w>
చేయబడిన</w>
చేయబడుతుంది</w>
చేయమని</w>
చేయరా
చేయరాదు</w>
చేయలేదు</w>
చేయవచ్చు</w>
చేయవద్దని</w>
చేయవలసిన</w>
చేయాల
చేయాలంటూ</w>
చేయాలంటే</w>
చేయాలన
చేయాలని</w>
చేయాలనీ</w>
చేయాలనుకున్న
చేయాలనుకున్నదే</w>
చేయాలనే</w>
చేయాలన్నారు</w>
చేయాలి</w>
చేయి</w>
చేయించ
చేయించాను</w>
చేయించే</w>
చేయు</w>
చేయూ
చేయూత</w>
చేయూతకు</w>
చేయొచ్చ
చేయొచ్చన్నారు</w>
చేయొచ్చు</w>
చేయొద్దని</w>
చేర
చేరవచ్చు</w>
చేరారు</w>
చేరి
చేరింది</w>
చేరిక</w>
చేరితే</w>
చేరిన
చేరినట్ల
చేరినట్లయింది</w>
చేరిపోయారు</w>
చేరు
చేరుకుంటుందని</w>
చేరుకుంటోంది</w>
చేరుకుంది</w>
చేరుకుని</w>
చేరుకున్నారు</w>
చేరుకోవాలని</w>
చేరుత
చేరుతుండటంతో</w>
చేరుతున్న
చేరుతున్నప్పుడు</w>
చేరును</w>
చేరువ
చేరువలో</w>
చేరే</w>
చేర్చ
చేర్చలేదని</w>
చేర్చారు</w>
చేర్చుకుంటే</w>
చేశ
చేశా
చేశాక</w>
చేశాడని</w>
చేశాడు</w>
చేశామని</w>
చేశాయి</w>
చేశార
చేశారని</w>
చేశారన్నారు</w>
చేశారా</w>
చేశారు</w>
చేస
చేసా
చేసాడు</w>
చేసాయి</w>
చేసారంటూ</w>
చేసారా</w>
చేసారు</w>
చేసి
చేసి</w>
చేసింద
చేసిందనే</w>
చేసింది</w>
చేసిన
చేసిన</w>
చేసినట్టు</w>
చేసినట్లు</w>
చేసినపుడు</w>
చేసినా</w>
చేసివ్వ
చేసివ్వు</w>
చేసుకుంట
చేసుకుంటానని</w>
చేసుకుంటాయి</w>
చేసుకుంటుంద</w>
చేసుకుంటున్నాయి</w>
చేసుకుంటూ</w>
చేసుకుంది</w>
చేసుకుని</w>
చేసుకునేందుకు</w>
చేసుకున్న
చేసుకున్న</w>
చేసుకున్నాడు</w>
చేసుకున్నానని</w>
చేసుకున్నామని</w>
చేసుకున్నారు</w>
చేసుకొ
చేసుకొంట
చేసుకొంటున్న
చేసుకొంటున్నట్లు</w>
చేసుకొంటున్నారు</w>
చేసుకొని</w>
చేసుకొన్నారు</w>
చేసుకో
చేసుకోలేకపోయ
చేసుకోలేకపోయింద
చేసుకోలేకపోయిందీ</w>
చేసుకోవ
చేసుకోవచ్చు</w>
చేసుకోవటం</w>
చేసుకోవడం</w>
చేసుకోవడానికి</w>
చేసుకోవల్
చేసుకోవల్సి</w>
చేసుకోవాలంటే</w>
చేసుకోవాలి</w>
చేసే
చేసే</w>
చేసేందుకు</w>
చేసేది</w>
చేసేవాడి
చేసేవాడినని</w>
చేసేసి</w>
చేసేస్తారు</w>
చేస్త
చేస్తామ</w>
చేస్తామని</w>
చేస్తారని</w>
చేస్తారు</w>
చేస్తు</w>
చేస్తుంటే</w>
చేస్తుంద
చేస్తుందన్న</w>
చేస్తుంది</w>
చేస్తుందీ</w>
చేస్తున్న
చేస్తున్న</w>
చేస్తున్నఓ</w>
చేస్తున్నట్టు</w>
చేస్తున్నట్లు</w>
చేస్తున్నసంగతి</w>
చేస్తున్నాడు</w>
చేస్తున్నానని</w>
చేస్తున్నామని</w>
చేస్తున్నాయని</w>
చేస్తున్నాయి</w>
చేస్తున్నార
చేస్తున్నారంటూ</w>
చేస్తున్నారని</w>
చేస్తున్నారన్నారు</w>
చేస్తున్నారు</w>
చేస్తున్నారే</w>
చేస్తూ</w>
చేస్తే</w>
చేస్తోందని</w>
చేస్తోంది</w>
చేస్తోన్న</w>
చై
చైత
చైతన్య
చైతన్య</w>
చైతన్యవంత
చైతన్యవంతమైన</w>
చైతు
చైతును</w>
చైత్ర
చైత్రమాస
చైత్రమాసమున</w>
చైనా
చైనా</w>
చైనాకి</w>
చైనాకు</w>
చైనాపై</w>
చైనాల
చైనాలోని</w>
చైనీ
చైనీస్</w>
చైర్</w>
చైర్మ
చైర్మ</w>
చైర్మన్</w>
చైర్మన్ల
చైర్మన్లుగా</w>
చొ
చొక్
చొక్కాని</w>
చొప్ప
చొప్పున</w>
చొర
చొరబడుతున్న</w>
చొరవ
చొరవతో</w>
చో
చో</w>
చోట</w>
చోటు
చోటు</w>
చోటుచేసుకుంది</w>
చోటుచేసుకున్న
చోటుచేసుకున్నాయి</w>
చోట్ల</w>
చోప</w>
చౌ
చౌక</w>
చౌటు
చౌటుప్ప
చౌటుప్పల్</w>
చౌర
చౌరస్త
చౌరస్తాలో</w>
చ్
చ్</w>
చ్చ
చ్చాయ
చ్చారు</w>
చ్చింది</w>
చ్చితంగా</w>
చ్చిన</w>
చ్చిపోయ
చ్చు</w>
చ్చుకుంట
చ్చేసింది</w>
చ్ఛ
ఛ
ఛత్త
ఛత్తర్</w>
ఛార్
ఛార్జీ
ఛార్జీలు</w>
ఛేద
ఛేదించబడ
ఛేదించబడాలంటే</w>
జ
జ</w>
జం</w>
జంట</w>
జండ
జండాను</w>
జంత
జంతు</w>
జంప్</w>
జక్క
జక్కన్న</w>
జగ
జగత్</w>
జగన్</w>
జగన్న
జగన్నా
జగన్నాథ
జగన్నాథ్</w>
జగర్ల
జగర్లగ్
జగర్లగ్న</w>
జగర్లగ్నం</w>
జగిత
జగిత్యాల</w>
జట్ట
జట్టు</w>
జట్టును</w>
జట్టుపై</w>
జట్టులో</w>
జత
జత</w>
జతచేర్చ
జతచేర్చి</w>
జన
జన</w>
జనం</w>
జనగ
జనగణ
జనగణన</w>
జనగామ
జనగామ</w>
జనగామలో</w>
జనతా</w>
జనన</w>
జనవరి</w>
జనసేన</w>
జనాభా
జనాభాకే</w>
జనాభాతో</w>
జనార్
జనార్దన్</w>
జనాల</w>
జనాలతో</w>
జనాలు</w>
జనాల్లో</w>
జనాల్లోకి</w>
జన్
జన్</w>
జన్మ
జన్మద
జన్మదిన
జన్మదినం</w>
జన్మని
జన్మనిచ్చింది</w>
జన్మలో</w>
జన్మించారు</w>
జపాన్</w>
జమ</w>
జమా
జమ్మ
జమ్మమ
జమ్మమడుగు</w>
జమ్మూ</w>
జయ
జయంతి</w>
జయజాన
జయజానకి</w>
జయదే
జయదేవ్</w>
జయశ్రీ</w>
జయించ
జయించచ్చు</w>
జర
జరగ
జరగకుండా</w>
జరగడం</w>
జరగనుంది</w>
జరగనున్న</w>
జరగలేదు</w>
జరగాలని</w>
జరగాల్సిందే
జరగాల్సిందేనని</w>
జరపడ
జరపడంలో</w>
జరి
జరిగ
జరిగాయని</w>
జరిగి</w>
జరిగింది</w>
జరిగిన
జరిగిన</w>
జరిగినది</w>
జరిగే</w>
జరిపిన</w>
జరు
జరుగ
జరుగలే
జరుగలేదు
జరుగలేదుట</w>
జరుగుత
జరుగుతాయో</w>
జరుగుతుంటే</w>
జరుగుతుందని</w>
జరుగుతుంది</w>
జరుగుతున్న</w>
జరుగుతున్నాయని</w>
జరుగుతున్నాయి</w>
జరుగుతొ
జరుగుతొంది</w>
జరుగుతోంది</w>
జరుప
జరుపుకోవడం</w>
జరుపుతామని</w>
జర్
జర్</w>
జర్నలి
జర్నలిస్టు</w>
జర్ప
జర్పుకున్న</w>
జల
జలధార
జలధార</w>
జలపాతం</w>
జలవి
జలవిహార్</w>
జలా
జలాశ
జలాశయ
జలాశయాలకు</w>
జవ
జవగ
జవగళ
జవగళ్</w>
జస్
జస్ట్</w>
జస్ప్రీ
జస్ప్రీత్</w>
జహీ
జహీరాబాద్</w>
జా
జా</w>
జాక్
జాక్సన్</w>
జాగ
జాగర
జాగరణ</w>
జాగరీ</w>
జాగ్ర
జాగ్రత్త
జాగ్రత్తగా</w>
జాగ్రత్తలు</w>
జాడ
జాడీ
జాడీల</w>
జాడ్యం</w>
జాతీయ</w>
జాన
జానపద</w>
జాన్స్</w>
జాఫర్</w>
జాబ
జాబిత
జాబితా</w>
జాబితాను</w>
జాబితాలో</w>
జాబ్ర
జాబ్రా</w>
జార
జారి
జారిపోయింది</w>
జారీ
జారీ</w>
జారీచేసింది</w>
జావే
జావేద్</w>
జాశాంతి</w>
జి
జి</w>
జింద
జిందా
జిందాబాద్</w>
జిఎస్</w>
జిక్</w>
జిమ్</w>
జియ
జియాల
జియాలజీ</w>
జిల్ల
జిల్లా</w>
జిల్లాకు</w>
జిల్లాను</w>
జిల్లాల</w>
జిల్లాలకు</w>
జిల్లాలను</w>
జిల్లాలో</w>
జిల్లాలోని</w>
జీ
జీ</w>
జీఎస్</w>
జీఎస్టీ</w>
జీన్స్</w>
జీర్
జీర్ణం</w>
జీవి
జీవి</w>
జీవిత
జీవిత</w>
జీవితం</w>
జీవితంలో</w>
జీవితపు</w>
జీవితభాగ
జీవితభాగస్వామి</w>
జీవీ</w>
జు
జు</w>
జుట్టు</w>
జున</w>
జుల
జులై</w>
జూ
జూ</w>
జూనియర్</w>
జూన్</w>
జూలూరు</w>
జూలై
జూలైలోనే</w>
జె
జే
జేఏ
జేఏసీ</w>
జేడీ</w>
జేవీ
జేవీని</w>
జేశారు</w>
జేసిన</w>
జేసీ</w>
జై
జై</w>
జైన్</w>
జైల
జైలు</w>
జైలుకు</w>
జైలుకెళ
జైలుకెళత
జైలుకెళతాడు</w>
జైష
జైషే</w>
జొ
జొన్న</w>
జో
జో</w>
జోడి
జోడిస్తూ</w>
జోన్
జోన్ల</w>
జోన్లలో</w>
జోర
జోరందుకుంది</w>
జోస్యం</w>
జ్
జ్</w>
జ్ఞ
జ్ఞాన
జ్ణా
జ్ణాప
జ్ణాపకాల</w>
జ్యూ
జ్యూస్</w>
ఝ
ఝళ
ఝళిప
ఝళిపించింది</w>
ఞ
ట
ట</w>
టం</w>
టంతో</w>
టన్</w>
టపా
టపాసులు</w>
టర్</w>
టర్ల
టలు</w>
టల్</w>
టవర్లలో</w>
టా
టా</w>
టాంప
టాంపరింగ్</w>
టాక్</w>
టాటా</w>
టాటాను</w>
టానికి</w>
టాను</w>
టాపిక్</w>
టాప్</w>
టార్
టార్</w>
టార్గ
టార్గెట్</w>
టాలీవుడ్</w>
టాస్</w>
టాస్క్</w>
టి
టి</w>
టింకు</w>
టింగ
టింగ్</w>
టించారు</w>
టించిన</w>
టిఆర్</w>
టిఆర్ఎస్</w>
టిక
టికి</w>
టికీ</w>
టికె
టికెట్</w>
టికెట్ల</w>
టికెట్లు</w>
టికే</w>
టిక్
టిక్</w>
టిక్కె
టిక్కెట్లు</w>
టిడిప
టిడిపితో</w>
టితో</w>
టిని</w>
టిఫిక
టియా
టియాంగ్</w>
టియాగో</w>
టిల
టివి</w>
టివ్</w>
టిస్</w>
టిస్త
టిస్తోన్న</w>
టీ
టీ</w>
టీఆర్</w>
టీఆర్ఎస్</w>
టీకి</w>
టీజర్</w>
టీటీ
టీటీడీ</w>
టీడీ
టీడీపీ</w>
టీడీపీకి</w>
టీడీపీలోకి</w>
టీన</w>
టీని</w>
టీపీ
టీపీసీఆర్</w>
టీపీసీసీ</w>
టీపొడి</w>
టీమి
టీమిండ
టీమిండియా</w>
టీవీ
టీవీ</w>
టీవీలపై</w>
టు
టు</w>
టున</w>
టును</w>
టులంతా</w>
టువ
టువంటి</w>
టూ
టూరిజ
టూరిజం</w>
టూర్</w>
టె
టెంప
టెంపుల్</w>
టెంప్ట్</w>
టెక్</w>
టెలి
టెలిగ్రా
టెలిగ్రాఫ్</w>
టెలిఫోన్</w>
టెల్</w>
టెస్ట
టెస్టు</w>
టెస్టుకు</w>
టెస్టులకు</w>
టెస్టులు</w>
టెస్టుల్లో</w>
టెస్ట్</w>
టే
టే</w>
టేలర్</w>
టేశ
టేశ్</w>
టేశ్వ
టై
టైగర్</w>
టైట
టైటిల్</w>
టైటిల్స్</w>
టో
టో</w>
ట్
ట్</w>
ట్ట
ట్ట</w>
ట్టర్</w>
ట్టారు</w>
ట్టి</w>
ట్టు</w>
ట్టుకొ
ట్టుకొంది</w>
ట్టుకొని</w>
ట్టుగా</w>
ట్టే</w>
ట్నం</w>
ట్నుంచ
ట్నుంచో</w>
ట్యా
ట్యాగ
ట్యాగ్ల</w>
ట్యాబ్
ట్యాబ్స్</w>
ట్ర
ట్రంప్</w>
ట్రా
ట్రాక్</w>
ట్రాక్ట
ట్రాక్టరు</w>
ట్రాక్టర్ల
ట్రాక్టర్లున్నాయి</w>
ట్రాన్స్</w>
ట్రి
ట్రిం
ట్రింకో
ట్రింకోమ
ట్రింకోమలై
ట్రింకోమలైకు</w>
ట్రిప
ట్రిపుల్</w>
ట్రిబ్య
ట్రిబ్యున
ట్రిబ్యునల్</w>
ట్రీట్</w>
ట్రె
ట్రెండ
ట్రెండింగ్</w>
ట్రెజర
ట్రెజరర్</w>
ట్రే
ట్రేట్</w>
ట్రేడింగ్</w>
ట్రేడ్</w>
ట్రై
ట్రైలర్</w>
ట్రో
ట్రోఫీ
ట్రోఫీకి</w>
ట్ల
ట్ల</w>
ట్లకు</w>
ట్లను</w>
ట్లు</w>
ట్లుగా</w>
ట్లే</w>
ట్లో</w>
ట్వ
ట్వి
ట్విట్</w>
ట్విట్టర్</w>
ట్వీ
ట్వీట్</w>
ట్వీట్స్</w>
ట్స్</w>
ఠ
డ
డ</w>
డం</w>
డంతో</w>
డంపై</w>
డని</w>
డనే</w>
డబ్బ
డబ్బా</w>
డబ్బాలో</w>
డబ్బింగ్</w>
డబ్బు</w>
డబ్బుతో</w>
డబ్బుని</w>
డబ్బును</w>
డబ్బులను</w>
డబ్బులు</w>
డమర
డమరుక
డమరుకముగా</w>
డమే</w>
డమ్</w>
డయ
డయా
డయాగ్
డయాగ్నల్</w>
డయాన
డయానా</w>
డర్</w>
డా
డా</w>
డాః</w>
డాక్టర్</w>
డాగ్</w>
డాది</w>
డానికి</w>
డాన్స్</w>
డాబ
డాబాలో</w>
డామ
డామి
డామిట్</w>
డార్క్</w>
డాల
డాలర్ల</w>
డాలర్లు</w>
డాష
డాషింగ్</w>
డి
డి</w>
డింగ్</w>
డించింది</w>
డిందని</w>
డింది</w>
డింపుల్</w>
డిఎం
డిఎంఆర్</w>
డిక
డికి</w>
డిగ
డిగా</w>
డిగ్ర
డిగ్రీ</w>
డిచ
డిజ
డిజె
డిజై
డిజైన్</w>
డిజై
డిజైన</w>
డిజైన్</w>
డిజైన్స్</w>
డితో</w>
డిని</w>
డిప
డిప్యూటీ</w>
డిమా
డిమాండ్</w>
డిమాండ్లను</w>
డియ
డియో
డియో</w>
డియోను</w>
డిలీ
డిలీట్</w>
డిలో</w>
డివై
డివైజె
డివైజెస్</w>
డివైజ్</w>
డిసెంబ
డిసెంబరు</w>
డిసెంబర్</w>
డిసై
డిసైడ్</w>
డిస్కో</w>
డిస్ట
డిస్టర్బ్</w>
డిస్టె
డిస్టెన్స్</w>
డిస్త
డిస్ప
డిస్ప్ల
డిస్ప్లే</w>
డీ
డీ</w>
డీఎంకే</w>
డీఎన్
డీఎన్ఏ</w>
డీఎస్పీ</w>
డీఏ
డీఏలను</w>
డీఐ
డీఐజీ</w>
డీజీ
డీజీపీ</w>
డీతో</w>
డీలర్</w>
డు
డు</w>
డుక
డుకి</w>
డుగా</w>
డుగు</w>
డుతుందని</w>
డుతుంది</w>
డుతున్నారు</w>
డును</w>
డులు</w>
డూప
డూప్</w>
డె
డెంట్</w>
డెన్</w>
డెబి
డెబిట్</w>
డెలి
డెలివర
డెలివరీపై</w>
డెవల
డెవలప్</w>
డెస్క్</w>
డే
డే</w>
డేంజ
డేంజర్</w>
డేట
డేటా</w>
డేటాను</w>
డేట్</w>
డై
డైన</w>
డైరె
డైరెక్ట
డైరెక్టర్</w>
డైరెక్టర్ల
డైరెక్టర్లు</w>
డైరెక్టర్లే</w>
డైరెక్షన్</w>
డైలా
డైలాగ్</w>
డైవర్
డైవర్ట్</w>
డైసీ</w>
డొ
డొన
డొనాల్
డొనాల్డ్</w>
డౌ
డౌన్</w>
డ్
డ్</w>
డ్జ
డ్జెట్</w>
డ్డ
డ్డ</w>
డ్డారు</w>
డ్డి</w>
డ్యా
డ్యాన్స్</w>
డ్యామేజ్</w>
డ్యూ
డ్ర
డ్రగ్
డ్రగ్</w>
డ్రగ్స్</w>
డ్రమ్</w>
డ్రీ
డ్రీమ్
డ్రీమ్</w>
డ్రీమ్స్</w>
డ్రె
డ్రెస్</w>
డ్రై
డ్రైవర్లు</w>
డ్రై
డ్రైవర్</w>
డ్స్</w>
ఢ
ఢిల్ల
ఢిల్లీ
ఢిల్లీ</w>
ఢిల్లీతోపాటు</w>
ఢిల్లీలో</w>
ఢిల్లీలోని</w>
ఢీ
ఢీ</w>
ఢీకొట్ట
ఢీకొట్టబోయే</w>
ణ
ణ</w>
ణం</w>
ణంగా</w>
ణను</w>
ణమ
ణలు</w>
ణలో</w>
ణా
ణా</w>
ణాకు</w>
ణాల</w>
ణాలు</w>
ణాల్లో</w>
ణి
ణ్</w>
త
త</w>
తం</w>
తంగా</w>
తండ
తండ్రి</w>
తకు</w>
తక్కు
తక్కువ</w>
తక్కువగా</w>
తక్షణ
తక్షణమే</w>
తగ
తగదని</w>
తగిన
తగిన</w>
తగినంత</w>
తగిల
తగిలింది</w>
తగ్గ
తగ్గట్టు</w>
తగ్గట్టుగా</w>
తగ్గట్లే</w>
తగ్గి
తగ్గించ
తగ్గించడ
తగ్గించడానిక
తగ్గించడానికని</w>
తగ్గించాలని</w>
తగ్గించాలనే</w>
తగ్గించి</w>
తగ్గించేందుకు</w>
తగ్గింపు</w>
తగ్గినట్టు</w>
తగ్గిస్తుంది</w>
తగ్గుతాయి</w>
తట
తటస్థ
తటస్థ</w>
తట్ట
తట్టుకోవ
తట్టుకోవాలంటే</w>
తడి
తడి</w>
తడిసి
తడిసి</w>
తడిసిన</w>
తడిసిపోయింది</w>
తత్వ
తత్వశాస్త్రం</w>
తదిత
తదితర
తదితర</w>
తదితరాలను</w>
తదుప
తదుపరి</w>
తద్వారా</w>
తన
తన</w>
తనకి</w>
తనకు</w>
తనది</w>
తనదైన</w>
తనను</w>
తనయుడు</w>
తనలో</w>
తని
తనిఖ
తనిఖీ</w>
తనిఖీలు</w>
తనివి
తనివితీ
తనివితీరా</w>
తను</w>
తపన
తపనతో</w>
తప్ప
తప్ప</w>
తప్పక</w>
తప్పకుండా</w>
తప్పదు</w>
తప్పని
తప్పని</w>
తప్పనిసరి</w>
తప్పలేదని</w>
తప్పవని</w>
తప్పి</w>
తప్పించ
తప్పించి</w>
తప్పించుకు</w>
తప్పించుకునే</w>
తప్పించుకున్నాడు</w>
తప్పించుకున్నారు</w>
తప్పించుకోవడానికి</w>
తప్పిందని</w>
తప్పింది</w>
తప్పిన</w>
తప్పు</w>
తప్పుకోవడంతో</w>
తప్పుడు</w>
తప్పులు</w>
తమ
తమ</w>
తమక
తమకి
తమకివ్వ
తమకివ్వాలని</w>
తమకు</w>
తమకెల
తమకెలా</w>
తమను</w>
తమి
తమిళ
తమిళ</w>
తమిళనా
తమిళనాడు
తమిళనాడు</w>
తమిళనాడులో</w>
తమ్మ
తమ్మర
తమ్మరబండ</w>
తమ్ము
తమ్ముడి</w>
తమ్ముడిని</w>
తమ్ముడు</w>
తమ్మున్న
తమ్మున్ని</w>
తయ
తయార
తయారీ</w>
తయారీలో</w>
తయారు</w>
తర
తరం</w>
తరగ
తరగతి</w>
తరచ
తరచుగా</w>
తరచూ</w>
తరపు
తరపున</w>
తరఫ
తరఫున</w>
తరల
తరలి
తరలించ
తరలించడంపై</w>
తరలించడానికి</w>
తరలించని</w>
తరలించారు</w>
తరలించాలని</w>
తరలించే</w>
తరలించేందుకు</w>
తరలింప
తరలింపునకు</w>
తరలిస్తుండగా</w>
తరలిస్తున్నారు</w>
తరవాత</w>
తరహా</w>
తరానికి</w>
తరు
తరుగ
తరుగుకోవాలి</w>
తరుణ
తరుణంలో</w>
తరుణమిదని</w>
తరువా
తరువాత</w>
తరువాతి</w>
తర్
తర్వా
తర్వాత</w>
తర్వాతి</w>
తర్వాతే</w>
తల
తల</w>
తలకు</w>
తలను</w>
తలనొప్పి</w>
తలసరి</w>
తలు</w>
తలె
తలెత్తింది</w>
తలో</w>
తల్ల
తల్లి
తల్లి</w>
తల్లికి</w>
తల్లిదండ
తల్లిదండ్ర
తల్లిదండ్రులతో</w>
తవ్వ
తవ్వి</w>
తా
తా</w>
తాక
తాకినప్పుడు</w>
తాకే</w>
తాకొ
తాకొద్దు</w>
తాగ
తాగని
తాగనివ్వ
తాగనివ్వట్ల
తాగనివ్వట్లేదు</w>
తాగు
తాగుత
తాగుతంటారు</w>
తాగుతూ</w>
తాగునీరు</w>
తాజా
తాజా</w>
తాజాగా</w>
తాడే
తాడేపల్లి</w>
తాత్
తాత్కాల
తాత్కాలిక</w>
తాన
తాను</w>
తానున్న
తానున్నానంటూ</w>
తానే</w>
తాన్ని</w>
తామ
తామంతా</w>
తాము</w>
తామూ</w>
తామే</w>
తాయ</w>
తార
తారక</w>
తారస్థాయికి</w>
తారా</w>
తారు</w>
తాలి
తాలిబ
తాలిబన్</w>
తాలిబన్ల
తాలిబన్లనుంచి</w>
తాలిబన్లు</w>
తాలూ
తాలూకు</w>
తాలో</w>
తి
తి</w>
తింటే</w>
తిండీ
తిండీతిప్ప
తిండీతిప్పలు</w>
తిక
తిగా</w>
తిట్ట
తిట్టలే
తిట్టలేద
తిట్టలేదన్న</w>
తిట్టార
తిట్టారన్న</w>
తిట్టించుకోవటం</w>
తిట్టినట్టుగా</w>
తితో</w>
తిన
తినకూడదు</w>
తినడానికి</w>
తిని</w>
తిను</w>
తినే
తినేసి
తినేసిందని</w>
తిన్నా</w>
తిప్ప
తిప్పుతూ</w>
తిర
తిరగ
తిరగరా
తిరగరాశాడు</w>
తిరగరాసింది</w>
తిరస్
తిరస్కరించ
తిరస్కరించబడ
తిరస్కరించబడితే</w>
తిరిగ
తిరిగి</w>
తిరిగింది</w>
తిరిగిరా
తిరిగిరాడు</w>
తిరిగే</w>
తిరు
తిరుగ
తిరుగు
తిరుగు</w>
తిరుగుంది</w>
తిరుగుత
తిరుగుతున్న</w>
తిరుగుతున్నాయి</w>
తిరుగుతూనే</w>
తిరుగుతోన్న</w>
తిరుగుబా
తిరుగుబాటు
తిరుగుబాటు</w>
తిరుగుబాటుదారులు</w>
తిరుగుబాటును</w>
తిరుగులే
తిరుగులేని</w>
తిరుప
తిరుపతిలో</w>
తిరువ
తిరువన
తిరువనంతపురం</w>
తిరువళ్లూరు</w>
తిరే
తిలక
తిలకించి</w>
తిలో</w>
తీ
తీ</w>
తీకారం</w>
తీపి</w>
తీయ
తీయ</w>
తీయన
తీయనున్న
తీయనున్నార
తీయనున్నారట</w>
తీయాలని</w>
తీర
తీరని</w>
తీరా
తీరాన</w>
తీరి
తీరిపోతాయి</w>
తీరు
తీరు</w>
తీరుతున్నారు</w>
తీరులో</w>
తీరుస్త
తీరుస్తరు</w>
తీర్
తీర్చ
తీర్చి
తీర్చిది
తీర్చిదిద్ద
తీర్చిదిద్దుత
తీర్చిదిద్దుతా</w>
తీర్చినట్లు</w>
తీర్చుకునే
తీర్చుకునేవాడి
తీర్చుకునేవాడినే</w>
తీర్చుకోవ
తీర్చుకోవాల</w>
తీర్థ
తీర్థాన్ని</w>
తీర్ప
తీర్పు</w>
తీర్పుల</w>
తీర్పులపై</w>
తీర్మానం</w>
తీవ్ర
తీవ్ర</w>
తీవ్రంగా</w>
తీవ్రత</w>
తీవ్రమైన</w>
తీవ్రమైన</w>
తీవ్రవాద</w>
తీశాడు</w>
తీశాయి</w>
తీస
తీసి
తీసి</w>
తీసివేస
తీసివేసుకోవాలి</w>
తీసుకు
తీసుకుంట
తీసుకుంటామన్నారు</w>
తీసుకుంటారు</w>
తీసుకుంటుందని</w>
తీసుకుంటూ</w>
తీసుకుంటే</w>
తీసుకుంది</w>
తీసుకుని</w>
తీసుకునే</w>
తీసుకున్న
తీసుకున్న</w>
తీసుకున్నట్లు</w>
తీసుకున్నప్పటికీ</w>
తీసుకున్నాడు</w>
తీసుకున్నారు</w>
తీసుకురా
తీసుకురాగలి
తీసుకురాగలిగాను</w>
తీసుకువచ్చ
తీసుకువచ్చారు</w>
తీసుకువచ్చి</w>
తీసుకువచ్చింది</w>
తీసుకెళ
తీసుకెళుతుంది</w>
తీసుకెళ్ల
తీసుకెళ్లేందుకు</w>
తీసుకొ
తీసుకొస్తుండగా</w>
తీసుకొస్తున్నారు</w>
తీసుకొస్తే</w>
తీసుకో
తీసుకోండి</w>
తీసుకోకూడదు</w>
తీసుకోడానికి</w>
తీసుకోలేదని</w>
తీసుకోలేదు</w>
తీసుకోవ
తీసుకోవటం</w>
తీసుకోవడం</w>
తీసుకోవడానికి</w>
తీసుకోవాలని</w>
తీసుకోవాల్సి</w>
తీసేసి</w>
తీస్తున్న
తీస్తున్నానంటూ</w>
తు
తు</w>
తుక
తుడి
తుడిచి
తుడిచిపెట్ట
తుడిచిపెట్టుకుపోత
తుడిచిపెట్టుకుపోతాయని</w>
తుది
తుది</w>
తుదిశ్
తుదిశ్వా
తుదిశ్వాస</w>
తుని</w>
తుఫ
తుఫాన్</w>
తుల
తులను</w>
తులా</w>
తులు</w>
తుళ్లూరు</w>
తూ
తూకం</w>
తూర్
తూర్పార
తూర్పారబ
తూర్పారబట్ట
తూర్పారబట్టిన</w>
తూర్పు
తూర్పు</w>
తూర్పుగోదావరి</w>
తృ
తృటి
తృటిలో</w>
తృణ</w>
తె
తెంచ
తెంచేస
తెంచేసుకున్నారు</w>
తెగ</w>
తెగల</w>
తెగిన</w>
తెగులు</w>
తెచ్చ
తెచ్చాను</w>
తెచ్చి</w>
తెచ్చింది</w>
తెచ్చిన</w>
తెచ్చినా</w>
తెచ్చుకుంట
తెచ్చుకుంటారని</w>
తెచ్చుకొ
తెచ్చుకొన్న</w>
తెచ్చే</w>
తెదే
తెదేపా
తెదేపాతో</w>
తెర
తెర</w>
తెరకు</w>
తెరకెక్క
తెరకెక్కించారు</w>
తెరకెక్కిన</w>
తెరకెక్కిస్తున్న</w>
తెరకెక్కుతున్న
తెరకెక్కుతున్న</w>
తెరకెక్కుతున్నటువంటి</w>
తెరకెక్కుతోన్న</w>
తెరపైకి</w>
తెల
తెలంగా
తెలంగాణ
తెలంగాణ</w>
తెలంగాణతో</w>
తెలంగాణలో</w>
తెలంగాణా</w>
తెలంగాణాలో</w>
తెలి
తెలిప
తెలిపారు</w>
తెలిపింది</w>
తెలిపిన</w>
తెలిపే</w>
తెలిపేందుకు</w>
తెలియ
తెలియ</w>
తెలియజె
తెలియజెప్పింది</w>
తెలియజే
తెలియజేసే
తెలియజేసేందుకు</w>
తెలియజేస్తూ</w>
తెలియదని</w>
తెలియదు</w>
తెలియాలి</w>
తెలియాల్సి</w>
తెలివి
తెలివికి</w>
తెలివిగా
తెలివిగాచేసిన</w>
తెలివితే
తెలివితేటలు</w>
తెలివైన</w>
తెలిసింది</w>
తెలిసిందే</w>
తెలు
తెలుగు
తెలుగు</w>
తెలుగుద
తెలుగుదనాన్ని</w>
తెలుగుదేశం</w>
తెలుగులో</w>
తెలుప
తెలుపుతుంటే</w>
తెలుస
తెలుసని</w>
తెలుసా</w>
తెలుసు</w>
తెలుసుకుంటూ</w>
తెలుసుకుని</w>
తెలుసుకునే</w>
తెలుసుకున్న</w>
తెలుసుకొ
తెలుసుకొన
తెలుసుకొనవచ్చ
తెలుసుకొనవచ్చును</w>
తెలుసుకో
తెలుసుకోవచ్చు</w>
తెలుసుకోవాలని</w>
తెలుసుకోవాలి</w>
తెలుసుకోసాగారు</w>
తెలుస్తుంది</w>
తెలుస్తోంది</w>
తెల్ల
తెల్ల</w>
తెల్లవార
తెల్లవారుజ
తెల్లవారుజామ
తెల్లవారుజామున</w>
తెస్తున్న
తెస్తున్నట్టుగా</w>
తే
తే</w>
తేజ</w>
తేజ్</w>
తేట
తేటతెల్ల
తేటతెల్లమైంది</w>
తేడా
తేడా</w>
తేడాగా</w>
తేడాతో</w>
తేడాది</w>
తేదీ
తేదీన</w>
తేదీల</w>
తేనె</w>
తేనే</w>
తేల
తేలారు</w>
తేలి
తేలింది</w>
తేలిక
తేలికగా</w>
తేలిపోయా
తేలిపోయాడనే</w>
తేల్చ
తేల్చి</w>
తేవాలని</w>
తొ
తొందర
తొందరగా</w>
తొందరపాటు</w>
తొడు
తొడుక్కు
తొడుక్కుని</w>
తొమ్
తొమ్మి
తొమ్మిదే
తొమ్మిదేళ్ల</w>
తొల
తొలగ
తొలగించ
తొలగించడానికి</w>
తొలగించబడింది</w>
తొలగించబడుతుంది</w>
తొలగించింది</w>
తొలి</w>
తొలుత</w>
తో
తో</w>
తోట
తోటమ
తోటమాలి</w>
తోటలు</w>
తోడా</w>
తోడైన</w>
తోనే</w>
తోపాటు</w>
తోలు</w>
త్
త్</w>
త్త
త్త</w>
త్తి
త్తి</w>
త్తింది</w>
త్తిపాటి</w>
త్తు</w>
త్తులో</w>
త్తూర్</w>
త్మ
త్మక</w>
త్య
త్య</w>
త్యం</w>
త్యే
త్యేక</w>
త్ర
త్రా
త్రాగు
త్రాగుట
త్రాగుటకు</w>
త్రి
త్రినాథ
త్రినాథ</w>
త్రిముఖ</w>
త్రిశూ
త్రిశూల
త్రిశూలము</w>
త్వ
త్వ</w>
త్వం</w>
త్వంలో</w>
త్వర
త్వరగా</w>
త్వరలో</w>
త్వరలోనే</w>
త్స
త్సర
థ
థర్
థర్మ
థర్మలైజేషన్</w>
థర్మో
థర్మోడై
థర్మోడైన
థర్మోడైనమ
థర్మోడైనమిక్</w>
థర్మోడైనమిక్స్</w>
థా
థాం
థాంక్స్</w>
థాకర
థాకరే</w>
థాకరేను</w>
థాన
థానాయ
థానాయ</w>
థానాయిక</w>
థాన్</w>
థియ
థియరీ</w>
థియేట
థియేటర్</w>
థియేటర్స్</w>
థుడు</w>
థ్ర
థ్రిల్ల
థ్రిల్లర్</w>
ద
ద</w>
దం</w>
దండ
దండయాత్ర
దండయాత్రకు</w>
దండవత్</w>
దండుగా</w>
దంప
దంపతులను</w>
దంపతులు</w>
దక్క
దక్కకుండా</w>
దక్కడం</w>
దక్కడంతో</w>
దక్కింది</w>
దక్షి
దక్షిణ</w>
దక్షిణా
దక్షిణాది
దక్షిణాదిరాష్ట్రాలు</w>
దగ్గ
దగ్గర
దగ్గర</w>
దగ్గరకు</w>
దగ్గరయ్యారు</w>
దగ్గరవ
దగ్గరవుతుందని</w>
దగ్గరి
దగ్గరివా
దగ్గరివాడైన</w>
దగ్గరే</w>
దత్త
దత్తత</w>
దత్తప
దత్తపుత
దత్తపుత్రుడు</w>
దని</w>
దనే</w>
దన్</w>
దయ</w>
దర
దరఖా
దరఖాస్త
దరఖాస్తును</w>
దరఖాస్తులు</w>
దర్యా
దర్యాప్త
దర్యాప్తు</w>
దర్యాప్తుకు</w>
దర్శ
దర్శక
దర్శకత్వ
దర్శకత్వం</w>
దర్శకత్వంలో</w>
దర్శకనిర్మాతలు</w>
దర్శకు
దర్శకుడిగా</w>
దర్శకుడు</w>
దర్శకుడుకి</w>
దర్శకుని
దర్శకునిగా</w>
దర్శకురాలిగా</w>
దర్శకులు</w>
దర్శన
దర్శనమి
దర్శనమిచ్చ
దర్శనమిచ్చి</w>
దర్శిస్తే</w>
దళ
దళారులు</w>
దళాలు</w>
దళిత
దళితు
దళితుడిగా</w>
దళితుల
దళితులకు</w>
దళితులు</w>
దళితుల్ని</w>
దశ
దశకు</w>
దశద
దశదిన</w>
దశలో</w>
దశా
దశాబ్
దశాబ్ద
దశాబ్దాల</w>
దశాబ్దాలు</w>
దశాబ్దాలుగా</w>
దశాబ్ధ
దశాబ్ధాల్లో</w>
దసర
దసరా
దసరా</w>
దసరాకు</w>
దా
దా</w>
దాంతో</w>
దాగ
దాగలేక</w>
దాచ
దాచుకున్న</w>
దాట
దాటొద్దని</w>
దాడ
దాడి
దాడి</w>
దాడికి</w>
దాడిలో</w>
దాడివలన</w>
దాడులు</w>
దాడుల్లో</w>
దాత</w>
దాదా
దాదా</w>
దాదాప
దాదాపు</w>
దాదాపుగా</w>
దాద్</w>
దానం</w>
దాని
దాని</w>
దానిక
దానికంటే</w>
దానికి</w>
దానితో</w>
దానిని</w>
దానిమ్మ</w>
దానివ
దానివంకే</w>
దాన్ని</w>
దాన్నే</w>
దాపు
దాపురించ
దాపురించిన
దాపురించినపుడు</w>
దార
దారి</w>
దారిలో</w>
దారు
దారుణ
దారుణంగా</w>
దారుణమని</w>
దారులు</w>
దారేద
దారేదితో</w>
దాల
దాల్చ
దాల్చి</w>
దాల్చింది</w>
దాల్చిన</w>
దాస్</w>
ది
ది</w>
దించ
దింప
దింపే</w>
దిగ
దిగజార
దిగజార్చ
దిగజార్చే</w>
దిగమర
దిగమర్రు</w>
దిగా</w>
దిగారు</w>
దిగాలుగా</w>
దిగి</w>
దిగిన</w>
దిగు
దిగుతుంది</w>
దిగువ
దిగువ</w>
దిగువన</w>
దిగేందుకు</w>
దిగ్గ
దిగ్గజ</w>
దిత
దితో</w>
దిమ్మ</w>
దిరి
దిల
దిల్</w>
దివ్యా
దివ్యాంగుల</w>
దివ్యాంశ
దివ్యాంశ</w>
దిశ
దిశ</w>
దిశగా</w>
దిశలో</w>
దీ
దీ</w>
దీంతో</w>
దీంతోపాటు</w>
దీక్ష
దీక్ష</w>
దీక్షకు</w>
దీక్షలో</w>
దీన
దీని
దీని</w>
దీనిక
దీనికి</w>
దీనికో
దీనికోసం</w>
దీనిని</w>
దీనినే</w>
దీనిపై</w>
దీనిలో</w>
దీన్ని</w>
దీప</w>
దీపాల
దీపాల</w>
దీపాలను</w>
దీపాలలో</w>
దీపావ
దీపావళ
దీపావళి</w>
దీపో
దీపోత్స
దీపోత్సవ</w>
దీప్తి</w>
దీయ
దీర్
దీర్ఘ
దీర్ఘ</w>
దీవ
దీవుల్లో</w>
దు
దు</w>
దుండ
దుండగ
దుండగులపై</w>
దుంప
దుంపలు</w>
దుక
దుకా
దుకాణ
దుకాణా
దుకాణాదారులు</w>
దుకాణాలకు</w>
దుకాణాల్లో</w>
దుద్ధ
దుద్ధగొండ
దుద్ధగొండలోను</w>
దుద్ధగొండలోనూ</w>
దును</w>
దుప
దుప</w>
దుపు</w>
దుమార
దుమారం</w>
దుర
దురదృష్ట
దురదృష్టం</w>
దుల
దులుప
దులుపుకున్నారు</w>
దుస్
దుస్తులు</w>
దుస్థితి</w>
దుస్సహ
దుస్సహమైన</w>
దూ
దూకు
దూకుడుగా</w>
దూర
దూరం</w>
దూరంగా</w>
దూరంలో</w>
దూరంలోనూ</w>
దూరప్రాంతాల</w>
దూరమైన</w>
దూరా
దూరాన్ని</w>
దూస
దూసుకుపోత
దూసుకుపోతున్న
దూసుకుపోతున్న</w>
దూసుకుపోతున్నది</w>
దూసుకుపోతోంది</w>
దూసుకెళ్ల
దూసుకెళ్లింది</w>
దూసుకెళ్లిన</w>
దృ
దృక్
దృక్పథ
దృక్పథం</w>
దృవ్</w>
దృశ్య
దృశ్యాలను</w>
దృష్ట
దృష్టి
దృష్టి</w>
దృష్టికి</w>
దృష్టినీ</w>
దృష్టిపెట్టాలని</w>
దృష్టిలో</w>
దె
దెబ్బ
దెబ్బ</w>
దెబ్బకు</w>
దెబ్బకొట్ట
దెబ్బకొట్టాలని</w>
దెబ్బతింటే</w>
దెబ్బతీ
దెబ్బతీసి</w>
దెబ్బతీస్త
దెబ్బతీస్తాయని</w>
దే
దే</w>
దేమీ</w>
దేవ
దేవదాస్</w>
దేవరు
దేవరుప్ప
దేవరుప్పుల</w>
దేవసేన</w>
దేవాలయ
దేవాలయం</w>
దేవాలయాలు</w>
దేవాలయాల్లో</w>
దేవి
దేవి</w>
దేవినేని</w>
దేవిశ్రీప్రసాద్</w>
దేవీ
దేవీశ్రీప్రసాద్</w>
దేవు
దేవుడితో</w>
దేవుడు</w>
దేశ
దేశ</w>
దేశం</w>
దేశంలో</w>
దేశంలోని</w>
దేశంలోనే</w>
దేశపు</w>
దేశమంతా</w>
దేశవ్యాప్తంగా</w>
దేశానికి</w>
దేశాన్ని</w>
దేశాల</w>
దేశాలకు</w>
దేశాలను</w>
దేశాలు</w>
దేశాలుగా</w>
దేశాల్లో</w>
దేశాల్లోని</w>
దేశీ
దేశీయంగా</w>
దేశ్</w>
దైన</w>
దొ
దొంగ</w>
దొక
దొకదారి</w>
దొక్క
దొర
దొరక
దొరకని</w>
దొరకలేదని</w>
దొరిక
దొరికాయి</w>
దొరికింది</w>
దొరికిన
దొరికినట్ట
దొరికినట్టయి
దొరికినట్టయిందని</w>
దొరుక
దొరుకుతాయి</w>
దో
దో</w>
దోచ
దోచుకుని</w>
దోస
దోసక
దోసకాయ</w>
దౌ
దౌత్య</w>
ద్
ద్</w>
ద్ద
ద్ద</w>
ద్దు</w>
ద్ధ
ద్య
ద్య</w>
ద్యం</w>
ద్యా
ద్యాగాల</w>
ద్ర
ద్రవిడ్</w>
ద్రి</w>
ద్రో
ద్రోణా
ద్రోణాచార
ద్రోణాచార్య
ద్రోణాచార్య</w>
ద్రోణాచార్యున
ద్రోణాచార్యునికి</w>
ద్రోహం</w>
ద్వ
ద్వారా</w>
ద్విశ
ద్విశత
ద్విశతకం</w>
ద్వీ
ద్వీపాల</w>
ధ
ధం</w>
ధను
ధనుష్</w>
ధర
ధర</w>
ధరకు</w>
ధరకే</w>
ధరలకే</w>
ధరలపై</w>
ధరలు</w>
ధరించ
ధరించడం</w>
ధరించాలి</w>
ధర్
ధర్నాలు</w>
ధర్మ
ధర్మాన్ని</w>
ధర్మాలను</w>
ధర్మే
ధర్మేంద్ర</w>
ధవ
ధవనం</w>
ధవన్</w>
ధా
ధా</w>
ధాగా</w>
ధాన
ధాన</w>
ధానాలు</w>
ధాని</w>
ధాన్
ధాన్య
ధాన్యం</w>
ధాన్యంలో</w>
ధాన్యాన్ని</w>
ధార
ధారకు</w>
ధారగా</w>
ధారిణ
ధారిణి</w>
ధార్
ధార్మిక</w>
ధావన్</w>
ధి</w>
ధిక</w>
ధికార
ధీ
ధీమా</w>
ధై
ధైర్యంగా</w>
ధై
ధైర
ధైర్యం</w>
ధైర్యంగా</w>
ధైర్యాన్ని</w>
ధో
ధోనీ
ధోనీని</w>
ధోర
ధోరణ
ధోరణి</w>
ధోరణిలో</w>
ధ్య
ధ్య</w>
ధ్యం</w>
ధ్యాన
ధ్యానం</w>
ధ్యానంలో</w>
ధ్ర
ధ్రువ
ధ్రువంలో</w>
ధ్రువపరి
ధ్రువపరిచి</w>
ధ్వ
ధ్వంసం</w>
న
న</w>
నం</w>
నండ
నండూరి</w>
నంత</w>
నంద
నందమ
నందమూరి</w>
నంది</w>
నంబ</w>
నంబర్</w>
నంలో</w>
నకు</w>
నగ
నగదు</w>
నగర
నగర</w>
నగరం</w>
నగరంలో</w>
నగరాల్లో</w>
నగర్</w>
నచ్చ
నచ్చదు</w>
నచ్చింది</w>
నట
నట</w>
నటన
నటన</w>
నటనతో</w>
నటి
నటి</w>
నటించ
నటించడం</w>
నటించనని</w>
నటించారు</w>
నటించి</w>
నటించిన
నటించిన</w>
నటించినప్పటికీ</w>
నటించే</w>
నటిస్తున్న</w>
నటిస్తున్నాడు</w>
నటిస్తున్నారు</w>
నటిస్తూ</w>
నటు
నటుడిగా</w>
నటుడు</w>
నట్టు</w>
నట్లు</w>
నట్స్</w>
నడ
నడవాలని</w>
నడి
నడిచ
నడిచింది</w>
నడిచే</w>
నడిప
నడిపించడంతో</w>
నడిబొ
నడిబొడ్
నడిబొడ్డు
నడిబొడ్డున</w>
నడు
నడుస్తుందని</w>
నడుస్తుంది</w>
నడుస్తోంది</w>
నది</w>
నదిల
నదిలోకి</w>
నని</w>
నను</w>
నన్</w>
నన్న
నన్ను</w>
నపై</w>
నమ
నమస్తే</w>
నమూ
నమూనా
నమూనా</w>
నమూనాతో</w>
నమో
నమోద
నమోదవ
నమోదవుతున్నాయి</w>
నమోదు</w>
నమోదైంది</w>
నమ్మ
నమ్మక
నమ్మకం</w>
నమ్మకము</w>
నమ్మను</w>
నమ్మిన</w>
నర
నరసా
నరసాపురం</w>
నరసింహ
నరసింహన్</w>
నరేంద్ర</w>
నర్
నర్</w>
నర్సిం
నర్సింహ
నర్సింహరెడ్డి</w>
నర్సింహార
నర్సింహారెడ్డి</w>
నల</w>
నలకు</w>
నలి
నలిగి
నలిగిపోయే</w>
నలు</w>
నల్
నల్</w>
నల్గొండ
నల్గొండ</w>
నల్గొండతో</w>
నవ
నవ</w>
నవంబర్</w>
నవనిర్మాణ</w>
నవమి</w>
నవల
నవలల్లో</w>
నశేష
నశేషా</w>
నష్ట
నష్ట</w>
నష్టం</w>
నష్టపరిహార
నష్టపరిహారంతో</w>
నష్టపో
నష్టపోకుండా</w>
నష్టపోయ</w>
నష్టపోయింది</w>
నష్టపోవ
నష్టపోవాల్సి</w>
నష్టాల్ని</w>
నా
నా</w>
నాంది</w>
నాకు</w>
నాకూతు
నాకూతుర్
నాకూతుర్ని</w>
నాగ
నాగ</w>
నాగబాబు</w>
నాగమల్ల
నాగమల్లి</w>
నాగార
నాగారం</w>
నాగార్
నాగార్జున</w>
నాగి
నాగిరెడ్డి</w>
నాగేశ్వ
నాగేశ్వర
నాగేశ్వరరావు</w>
నాగ్</w>
నాట
నాటి</w>
నాటికి</w>
నాటితే</w>
నాట్స్</w>
నాడ
నాడు</w>
నాడుల</w>
నాణ
నాణ్యత</w>
నాథ
నాథ్</w>
నాదీ</w>
నాన
నాని
నాని</w>
నానిపోయాయి</w>
నానుతోంది</w>
నాన్</w>
నాన్న
నాన్న</w>
నాన్నకు</w>
నాన్నా</w>
నాన్ని</w>
నాన్నే</w>
నాభా
నాభాకు</w>
నామ
నామ</w>
నామకర
నామకరణం</w>
నామా</w>
నాయ
నాయ</w>
నాయక
నాయక</w>
నాయకత్వ
నాయకత్వం</w>
నాయకత్వంలో</w>
నాయకనగ
నాయకనగూడ
నాయకనగూడెంలో</w>
నాయకుడు</w>
నాయకుని
నాయకునిగా</w>
నాయకులను</w>
నాయకులు</w>
నాయక్</w>
నాయిని</w>
నాయుడ
నాయుడితో</w>
నాయుడు</w>
నారా</w>
నారాయ
నారాయణ
నారాయణ</w>
నారాయణస్వామి</w>
నారి
నారింజ
నారింజ</w>
నారు</w>
నాల
నాల</w>
నాలను</w>
నాలు
నాలు</w>
నాలుగ
నాలుగవ</w>
నాలుగు</w>
నాలుగే
నాలుగేళ్లలో</w>
నాలుగేళ్లుగా</w>
నాలుగై
నాలుగైదు</w>
నాలుగైదే
నాలుగైదేండ్ల</w>
నాలుగో
నాలుగోవంతు</w>
నాశన
నాశనమైంది</w>
నాస్త
నాస్తి</w>
ని
ని</w>
నింగ్</w>
నించ
నించారు</w>
నిండి</w>
నింద
నిందిత
నిందితు
నిందితుడు</w>
నిందితుడైన</w>
నిందితులంతా</w>
నింపిన</w>
నికి</w>
నిఖ
నిఖార్
నిఖార్సి
నిఖార్సియిన</w>
నిఖిల్</w>
నిఘ
నిఘా</w>
నిజ
నిజం</w>
నిజంగా</w>
నిజమే</w>
నిజమై
నిజమైత
నిజమైతై</w>
నిజా
నిజానిజాలు</w>
నిజామా
నిజామాబాద్</w>
నిజాయిత
నిజాయితీ
నిజాయితీకే</w>
నిజాయితీగా</w>
నిజాలు</w>
నిటై
నిటైజ
నితి
నితిశ్</w>
నితీ
నితీశ్</w>
నితీష్</w>
నిత్య
నిత్య</w>
నిత్యత్వ</w>
నిదర్శ
నిదర్శన
నిదర్శనం</w>
నిదర్శనమని</w>
నిద్ర
నిద్ర</w>
నిద్రలోకి</w>
నిద్రా
నిద్రాణ
నిద్రాణస్థితికి</w>
నిధ
నిధి</w>
నిధిని</w>
నిధుల</w>
నిధులు</w>
నిని</w>
నిన్న</w>
నిప
నిపించిన</w>
నిపిస్తార</w>
నిపు
నిపుణ
నిపుణుడు</w>
నిపుణులు</w>
నిబంధ
నిబంధన
నిబంధనల</w>
నిబంధనలకు</w>
నిబంధనలను</w>
నిబంధనలు</w>
నిబంధనల్లో</w>
నిమి
నిమిత
నిమిత్
నిమిత్తం</w>
నిమిష
నిమిషం</w>
నిమిషాల</w>
నిమిషాలకు</w>
నిమిషాలు</w>
నిమిషాల్లో</w>
నియ
నియంత
నియంతృత్వ
నియంతృత్వ</w>
నియంత్ర
నియంత్రణ</w>
నియంత్రణను</w>
నియంత్రణలో</w>
నియమ
నియమ</w>
నియమం</w>
నియమాలు</w>
నియమించ
నియమించింద
నియమించిందన్నారు</w>
నియమించుకుపోత
నియమించుకుపోతున్నారని</w>
నియమిత
నియమితుల
నియమితులయ
నియమితులయితే</w>
నియర్</w>
నియా</w>
నియోజ
నియోజక
నియోజక</w>
నియోజకవర్
నియోజకవర్గ
నియోజకవర్గంలో</w>
నియోజకవర్గంలోని</w>
నియోజకవర్గానికి</w>
నియోజకవర్గాపై</w>
నియోజకవర్గాల</w>
నియోజకవర్గాల్లో</w>
నిర
నిరంతరం</w>
నిరస
నిరసనలు</w>
నిరాడ
నిరాడంబరంగా</w>
నిరాశ
నిరాశే</w>
నిరీక్ష
నిరీక్షణ</w>
నిరు
నిరుద్య
నిరుద్యో
నిరుద్యోగ
నిరుద్యోగం</w>
నిరుద్యోగభ
నిరుద్యోగభృతి</w>
నిరూప
నిరూపణ</w>
నిరూపించ
నిరూపించుకుంట
నిరూపించుకుంటేనే</w>
నిరూపిత
నిరూపితమై
నిరూపితమైతే</w>
నిరో
నిరోధ
నిరోధించింది</w>
నిరోధించే</w>
నిర్
నిర్ణ
నిర్ణ</w>
నిర్ణయ
నిర్ణయం</w>
నిర్ణయాలతో</w>
నిర్ణయాలపై</w>
నిర్ణయాలు</w>
నిర్ణయాల్ని</w>
నిర్ణయాల్లో</w>
నిర్ణయించింది</w>
నిర్ణయించిన</w>
నిర్ణయించుటకు</w>
నిర్ణీ
నిర్ణీత</w>
నిర్ధార
నిర్ధారణ</w>
నిర్ధారించుకోండి</w>
నిర్మ
నిర్మల
నిర్మలమ్మ</w>
నిర్మా
నిర్మాణ
నిర్మాణ</w>
నిర్మాణం</w>
నిర్మాణంలో</w>
నిర్మాణానికి</w>
నిర్మాత
నిర్మాత</w>
నిర్మాతగా</w>
నిర్మాతలు</w>
నిర్మి
నిర్మించ
నిర్మించడానికి</w>
నిర్మించబ
నిర్మించబడిందని</w>
నిర్మించారు</w>
నిర్మించిన</w>
నిర్మించినట్లు</w>
నిర్మిస్తున్న</w>
నిర్మిస్తున్నాడు</w>
నిర్మొ
నిర్మొహ
నిర్మొహమాట
నిర్మొహమాటత్వం</w>
నిర్యా
నిర్యాణం</w>
నిర్ల
నిర్లక్ష్య
నిర్లక్ష్యంగా</w>
నిర్లక్ష్యానికి</w>
నిర్వ
నిర్వహ
నిర్వహణ</w>
నిర్వహి
నిర్వహించ
నిర్వహించడానికి</w>
నిర్వహించనుంది</w>
నిర్వహించవచ్చు</w>
నిర్వహించవలసిన</w>
నిర్వహించారు</w>
నిర్వహించాలంటే</w>
నిర్వహించాల్సి</w>
నిర్వహించిన
నిర్వహించిన</w>
నిర్వహించినంద
నిర్వహించినందుకు
నిర్వహించినందుకుగాను</w>
నిర్వహిస్త
నిర్వహిస్తారు</w>
నిర్వహిస్తుండగా</w>
నిర్వహిస్తున్న
నిర్వహిస్తున్న</w>
నిర్వహిస్తున్నప్పుడు</w>
నిర్వహిస్తే</w>
నిర్వాహ
నిర్వాహక
నిర్వాహకులకు</w>
నిర్వాహకులు</w>
నిల
నిలకడ
నిలకడగా</w>
నిలదీ
నిలదీశాడు</w>
నిలదీశారు</w>
నిలదొక్క
నిలదొక్కుకున్నారు</w>
నిలబడి</w>
నిలబడుతూ</w>
నిలవ
నిలవగా</w>
నిలవాల్సిన</w>
నిలి
నిలిచ
నిలిచాయి</w>
నిలిచారు</w>
నిలిచి</w>
నిలిపి
నిలిపివేయ
నిలిపివేయవచ్చు</w>
నిలిపే
నిలిపేది</w>
నిలుప
నిలుపుకునేందుకు</w>
నిలువు
నిలువుముక్కలు</w>
నిలో</w>
నిల్వ</w>
నివ
నివసి
నివసిస్తున్న</w>
నివా
నివార
నివారణ</w>
నివారించేందుకు</w>
నివాసం</w>
నివాసానికి</w>
నివృత్తి</w>
నివేదిక
నివేదిక</w>
నివేదికను</w>
నివేదికలు</w>
నిశ్
నిశ్చ
నిశ్చిత
నిశ్చితార్థ
నిశ్చితార్థం</w>
నిశ్చితార్ధ
నిశ్చితార్ధ</w>
నిశ్చితార్ధాలు</w>
నిశ్శబ్ద
నిశ్శబ్దం</w>
నిషే
నిషేధ
నిషేధం</w>
నిషేధాన్ని</w>
నిషేధిత</w>
నిష్
నిష్క్రమ
నిష్క్రమించడానికి</w>
నిష్ట
నిష్టలను</w>
నిస్త
నిహార
నిహారిక</w>
నీ
నీ</w>
నీకు</w>
నీచక్క
నీచక్కన</w>
నీటి
నీటితో</w>
నీటిని</w>
నీటిపార
నీటిపారు
నీటిపారుద
నీటిపారుదల</w>
నీటిలో</w>
నీయంగా</w>
నీయా
నీయాంశ
నీయాంశంగా</w>
నీరు</w>
నీరూపు</w>
ను
ను</w>
నుంచ
నుంచి</w>
నుంచీ</w>
నుండ
నుండి</w>
నుండే</w>
నుంది</w>
నును
నునుపె
నునుపైన</w>
నున్న</w>
నున్నారు</w>
నులు</w>
నువ్వ
నువ్వలా</w>
నువ్వు</w>
నువ్వే
నువ్వే</w>
నువ్వేంటి</w>
నూ
నూ</w>
నూతన</w>
నూనె</w>
నూనెల</w>
నృ
నృత్యం</w>
నె
నె</w>
నెం</w>
నెంబర్</w>
నెక్
నెక్స్ట్</w>
నెగి
నెగిటివ్</w>
నెటి
నెటిజ
నెటిజన్లు</w>
నెట్</w>
నెట్ట
నెట్టి
నెట్టింట
నెట్టింట్లో</w>
నెట్టిక
నెట్టికంటి</w>
నెట్టుకొ
నెట్టుకొస్తున్నారు</w>
నెర
నెరవే
నెరవేర
నెరవేరుతుంది</w>
నెల
నెల</w>
నెలకొ
నెలకొందని</w>
నెలకొంది</w>
నెలకొన
నెలకొనడంతో</w>
నెలకొన్న</w>
నెలకొల్ప
నెలకొల్పాలని</w>
నెలకొల్పింది</w>
నెలరోజుల</w>
నెలరోజులుగా</w>
నెలల</w>
నెలలో</w>
నెలల్లో</w>
నెలా
నెలాఖ
నెలాఖరులో</w>
నెలొ
నెలొకొ
నెలొకొల్ప
నెలొకొల్పాలని</w>
నెస్</w>
నెహ
నెహ్రు</w>
నే
నే</w>
నేటికీ</w>
నేడు</w>
నేత
నేత</w>
నేతగా</w>
నేతల</w>
నేతలకు</w>
నేతలతో</w>
నేతలు</w>
నేతృత్వ
నేతృత్వంలో</w>
నేతృత్వంలోని</w>
నేది</w>
నేని</w>
నేను</w>
నేనూ</w>
నేనె
నేనెప్పుడూ</w>
నేప
నేపథ
నేపథ్య
నేపథ్య</w>
నేపథ్యం</w>
నేపథ్యంలో</w>
నేపథ్యంలోనే</w>
నేపధ్య
నేపధ్యంలో</w>
నేపధ్యంలోనే</w>
నేయ</w>
నేర
నేర</w>
నేరస్త
నేరస్తులను</w>
నేరుగా</w>
నేర్చ
నేర్చు</w>
నేల
నేలచూప
నేలచూపులు</w>
నై
నైట్</w>
నైత
నైతిక
నైతిక</w>
నైతికంగా</w>
నైవే
నైవేద్యం</w>
నొ
నొక్కి</w>
నొట
నొటొక్క</w>
నొప్ప
నొప్పి</w>
నొప్పులు</w>
నో
నో</w>
నోటిఫిక
నోటిఫికేషన్</w>
నోట్
నోట్బ
నోట్బుక
నోట్బుక్లు</w>
నోట్లు</w>
నోట్లో</w>
నోరె
నోరెళ్ల
నోరెళ్లబెట్టారు</w>
నౌ
నౌక</w>
నౌకలో</w>
న్
న్</w>
న్న
న్న</w>
న్నా</w>
న్నాడు</w>
న్నారు</w>
న్ని
న్ని</w>
న్నీ</w>
న్నే
న్నే</w>
న్నో</w>
న్మ</w>
న్య
న్య</w>
న్యం</w>
న్యాయ
న్యాయమే</w>
న్యాయశాఖ</w>
న్యాయస్థాన
న్యాయస్థానం</w>
న్యాయస్థానాన్ని</w>
న్యూ
న్యూజ
న్యూజిలా
న్యూజిలాండ్</w>
న్యూఢిల్లీ</w>
న్ల
న్ల</w>
న్లు</w>
న్వి
న్విహిత
న్విహితాన్</w>
న్షన్</w>
న్సీ</w>
న్స్</w>
ప
ప</w>
పం
పం</w>
పంచ
పంచాయిత
పంచాయితీ
పంచాయితీ</w>
పంచాయితీరాజ్</w>
పంచాయితీలో</w>
పంచింగ్</w>
పంచుకుంటోంది</w>
పంచుకున్నది</w>
పంచుకోవచ్చు</w>
పంజ
పంజరాలు</w>
పంజా
పంజా</w>
పంజాబ్</w>
పంట
పంటలు</w>
పంటి</w>
పండ
పండగొ
పండగొస్తే</w>
పండించ
పండించటానికి</w>
పండించిన</w>
పండిత
పండితులకు</w>
పండితులు</w>
పండిన
పండినట్టే</w>
పండుగ
పండుగ</w>
పండుగలు</w>
పండ్లు</w>
పంతం</w>
పంత్</w>
పంప
పంపడానికి</w>
పంపించారు</w>
పంపించింది</w>
పంపింది</w>
పంపిణ
పంపిణీ</w>
పంపినట్లు</w>
పంపిస్త
పంపిస్తారని</w>
పక్క
పక్క</w>
పక్కన
పక్కన</w>
పక్కనబె
పక్కనబెట్టి</w>
పక్కనున్న</w>
పక్కనే</w>
పక్కా</w>
పక్ష
పక్షంలో</w>
పచ్చ
పచ్చ</w>
పచ్చడి</w>
పచ్చద
పచ్చదనాల</w>
పచ్చి</w>
పట్ట
పట్టం</w>
పట్టడం</w>
పట్టణ
పట్టణ</w>
పట్టణమైన</w>
పట్టణానికి</w>
పట్టదు</w>
పట్టలే
పట్టలేన
పట్టలేనంతగా</w>
పట్టారా</w>
పట్టారు</w>
పట్టాలని</w>
పట్టించ
పట్టించాలి</w>
పట్టించుకునే
పట్టించుకునేవాడు</w>
పట్టించుకో
పట్టించుకోలే
పట్టించుకోలేది</w>
పట్టు
పట్టు</w>
పట్టుకుని</w>
పట్టుకునేందుకు</w>
పట్టుకో
పట్టుకోలేకపోవడం</w>
పట్టుకోవ</w>
పట్టుచీర</w>
పట్టుబడ
పట్టుబడుతున్నాయని</w>
పట్టే</w>
పట్ల</w>
పడ
పడడంతో</w>
పడలేదు</w>
పడి
పడి</w>
పడింది</w>
పడిన</w>
పడిపోత
పడిపోతుంటే</w>
పడిపోయింద
పడిపోయిందన్నారు</w>
పడిపోయింది</w>
పడుకునే</w>
పడుకో
పడుకో</w>
పడుకోబెట్టారు</w>
పడుతుందని</w>
పడుతుంది</w>
పడుతున్న</w>
పడుతున్నాయి</w>
పడుతున్నారు</w>
పడుతూ</w>
పడుతోంది</w>
పడేశ
పడేశాయి</w>
పడ్డ
పడ్డాయి</w>
పడ్డారు</w>
పతన
పతనమై
పతనమైప
పతనమైపపోయింది</w>
పతి</w>
పత్ర
పత్రం</w>
పత్రాలపై</w>
పథ
పథకం</w>
పథకమ
పథకమనే</w>
పథకానికి</w>
పథకాన్ని</w>
పథకాల</w>
పథకాలను</w>
పథకాలు</w>
పద
పద</w>
పదకొండే
పదకొండేళ్ల</w>
పదమూడవ</w>
పదవి</w>
పదవికి</w>
పదవీ
పదవీ</w>
పదవీకాలం</w>
పదార్థ
పదార్థం</w>
పదార్థము</w>
పదార్థాల</w>
పదార్థాలను</w>
పదార్థాలు</w>
పది
పది</w>
పదిగింజలు</w>
పదిమంది</w>
పదును</w>
పదుల</w>
పద్
పద్ధ
పద్ధతులను</w>
పద్ధతులు</w>
పద్మాస
పద్మాసనం</w>
పద్యం</w>
పన
పని
పని</w>
పనికి</w>
పనిగా</w>
పనిచేయడం</w>
పనిచేసిన</w>
పనిచేసే</w>
పనిచేసేందుకు</w>
పనిత
పనితనం</w>
పనులను</w>
పనులు</w>
పన్న
పన్నీ
పన్నీర్</w>
పన్ను</w>
పన్నుతున్నారని</w>
పన్నుల</w>
పప్ప
పప్పులు</w>
పబ్ల
పబ్లిక్</w>
పయ
పయనించ
పయనించాయి</w>
పర
పరంప
పరంపర
పరంపరలో</w>
పరదేశ
పరదేశి</w>
పరపతి</w>
పరపర
పరపరా</w>
పరమే
పరమేశ్వ
పరమేశ్వర
పరమేశ్వరన్</w>
పరా
పరాకా
పరాకాష్ట</w>
పరాజ
పరాజయం</w>
పరి
పరిక
పరికరం</w>
పరికరాల</w>
పరికరాలు</w>
పరిగణ
పరిగణలోకి</w>
పరిచ
పరిచయం</w>
పరిచ్
పరిచ్చే
పరిచ్చేదం</w>
పరిజ్ఞాన
పరిజ్ఞానంతో</w>
పరిణ
పరిణామ
పరిణామాలు</w>
పరిధ
పరిధిల
పరిధిలో</w>
పరిధిలోకి</w>
పరిధిలోని</w>
పరిమా
పరిమాణమ
పరిమాణములలో</w>
పరిమిత
పరిమితం</w>
పరివాహ
పరివాహక</w>
పరిశ
పరిశీ
పరిశీల
పరిశీలకులు</w>
పరిశీలించగా</w>
పరిశీలించారు</w>
పరిశీలించుటకు</w>
పరిశీలించే</w>
పరిశు
పరిశుభ
పరిశుభ్ర
పరిశుభ్రతకు</w>
పరిశోధ
పరిశోధకుల
పరిశోధకులంటున్నారు</w>
పరిశోధన</w>
పరిశోధనల</w>
పరిశోధనలు</w>
పరిశోధించిన</w>
పరిశ్రమ
పరిశ్రమలో</w>
పరిష
పరిషత్</w>
పరిషత్తు</w>
పరిష్
పరిష్కర
పరిష్కరించ
పరిష్కరించడానికి</w>
పరిష్కరించబడుతుంది</w>
పరిష్కరించామని</w>
పరిష్కారానికి</w>
పరిస
పరిసర</w>
పరిస్
పరిస్త
పరిస్తిత
పరిస్తితి</w>
పరిస్థిత
పరిస్థితి</w>
పరిస్థితిని</w>
పరిస్థితిలో</w>
పరిస్థితుల</w>
పరిస్థితులకు</w>
పరిస్థితులలో</w>
పరిస్థితులు</w>
పరిస్థితుల్లో</w>
పరిస్ధ
పరిస్ధిత
పరిస్ధితుల్ల
పరిస్ధితుల్లోనూ</w>
పరిహార
పరిహారం</w>
పరిహారంగా</w>
పరిహారాన్ని</w>
పరీ
పరీక్ష
పరీక్ష</w>
పరీక్షలు</w>
పరీక్షించి</w>
పరుగ
పరుగుల
పరుగుల</w>
పరుగులకే</w>
పరుగులు</w>
పరుగె
పరుగెత్త
పరుగెత్తకూడదు</w>
పరువు</w>
పరో
పరోక్షంగా</w>
పర్
పర్ఫార్
పర్ఫార్మె
పర్ఫార్మెన్స్</w>
పర్ఫెక్ట్</w>
పర్య
పర్యంతం</w>
పర్యవే
పర్యవేక్ష
పర్యవేక్షణలో</w>
పర్యవేక్షి
పర్యవేక్షిస్తున్నారు</w>
పర్యా
పర్యాట
పర్యాటక
పర్యాటక</w>
పర్యాటకశాఖ</w>
పర్యావర
పర్యావరణం</w>
పర్వ
పర్వత
పర్వతాల</w>
పర్వాల
పర్వాలేద
పర్వాలేదనిప
పర్వాలేదనిపించినా</w>
పర్వాలేదు</w>
పర్సన్</w>
పల
పలక
పలకడంతో</w>
పలకల
పలకలపై</w>
పలస
పలసపల్లెలో</w>
పలిక
పలికారు</w>
పలికింది</w>
పలు
పలు</w>
పలుకులు</w>
పలుచ
పలుచన</w>
పలుమార్లు</w>
పలువు
పలువురికి</w>
పలువురిని</w>
పలువురు</w>
పల్ల
పల్లి</w>
పల్లిలో</w>
పల్లె
పల్లెపట్టు</w>
పల్లెలో</w>
పళ
పళని
పళనిస్వామి</w>
పవన్</w>
పవర్</w>
పశ్చి
పశ్చిమ
పశ్చిమ</w>
పశ్చిమగోదావరి</w>
పసి
పసిగ
పసిగట్టే</w>
పసు
పసుపు</w>
పహా
పహాడ్</w>
పా
పాండ
పాండ్యా
పాండ్యా</w>
పాండ్యాకు</w>
పాక
పాకశాస్త్ర
పాకశాస్త్ర</w>
పాకి
పాకిస్త
పాకిస్తాన్</w>
పాకిస్థాన్</w>
పాక్</w>
పాజి
పాజిటివ్</w>
పాట
పాట</w>
పాటనంద
పాటనందించారు</w>
పాటను</w>
పాటల</w>
పాటలు</w>
పాటల్ల
పాటల్లోని</w>
పాటి
పాటి</w>
పాటించాలని</w>
పాటిస్త
పాటిస్తాయి</w>
పాటిస్తారు</w>
పాటిస్తున్నాం</w>
పాటిస్తూ</w>
పాటు</w>
పాటుగా</w>
పాటే</w>
పాఠ
పాఠం</w>
పాఠశ
పాఠశాల</w>
పాఠశాలలో</w>
పాడ
పాడవ
పాడవకుండా</w>
పాడింది</w>
పాడు</w>
పాడై
పాడైపోతుంది</w>
పాడైపోయింద
పాడైపోయిందని</w>
పాడైపోయిందనే</w>
పాడ్స్</w>
పాత</w>
పాతం</w>
పాత్ర
పాత్ర</w>
పాత్రను</w>
పాత్రలు</w>
పాత్రలో</w>
పాత్రిక
పాత్రికేయ
పాత్రికేయులపై</w>
పాద
పాదపద్
పాదపద్మ
పాదపద్మములకు</w>
పాదయాత్ర
పాదయాత్ర</w>
పాదయాత్రకు</w>
పాదే
పాదేయ
పాదేయడం</w>
పాన్</w>
పాపం</w>
పాపుల
పాపులర్</w>
పాయి
పాయింట్</w>
పాయింట్లు</w>
పార
పారి
పారిశు
పారిశుధ్యం</w>
పారిశ్ర
పారిశ్రామ
పారిశ్రామక
పారిశ్రామకవేత్తలు</w>
పారిశ్రామిక</w>
పార్ట
పార్టీ
పార్టీ</w>
పార్టీకి</w>
పార్టీని</w>
పార్టీల</w>
పార్టీలతో</w>
పార్టీలో</w>
పార్టీలోని</w>
పార్ట్</w>
పార్ల
పార్లమెంట్</w>
పాల
పాల</w>
పాలకొ
పాలకొల్లు</w>
పాలన</w>
పాలనకు</w>
పాలనా
పాలనాధికార
పాలనాధికారుల</w>
పాలవ
పాలవుతున్నారని</w>
పాలసీ</w>
పాలి
పాలించారు</w>
పాలివ్వ
పాలివ్వడం</w>
పాలిష్</w>
పాలిస్తున్న
పాలిస్తున్నపుడు</w>
పాలీ
పాలీటె
పాలీటెక్
పాలీటెక్న
పాలీటెక్నిక్</w>
పాలు</w>
పాలెంలో</w>
పాలైంది</w>
పాల్
పాల్</w>
పాల్గొ
పాల్గొంట
పాల్గొంటాడని</w>
పాల్గొంటారు</w>
పాల్గొన</w>
పాల్గొనే
పాల్గొనేందుకు</w>
పాల్గొన్న</w>
పాల్గొన్నారు</w>
పాల్ప
పాల్ప</w>
పాల్పడ
పాల్పడిందని</w>
పాల్పడిన</w>
పాల్పడే</w>
పాల్పడ్డ
పాల్పడ్డాడని</w>
పాల్పడ్డారు</w>
పావ
పావులు</w>
పాశ్చ
పాశ్చా
పాశ్చాత్య</w>
పాసై
పాసైన</w>
పాస్</w>
పాస్తా</w>
పాస్వర్
పాస్వర్డ్
పాస్వర్డ్ను</w>
పి
పి</w>
పింఛ
పింఛన్లు</w>
పిండ
పిండే
పిండేస్తోంది</w>
పిక్</w>
పిచ్</w>
పిచ్చ
పిచ్చా</w>
పిన</w>
పిన్</w>
పిన్న
పిన్న</w>
పిన్నమ
పిన్నమనేని</w>
పిన్నెల్ల
పిన్నెల్లి</w>
పియ
పియూ
పియూష్</w>
పిర్యా
పిర్యాద
పిర్యాదుతో</w>
పిల
పిలవ
పిలవకపోవ
పిలవకపోవడంపై</w>
పిలవబడుతుంది</w>
పిలవాల
పిలవాలంట</w>
పిలవాల్సి</w>
పిలి
పిలిచ
పిలిచే
పిలిచే</w>
పిలిచేవారు</w>
పిలిప
పిలిపించ
పిలిపించి</w>
పిలిపించుకుని</w>
పిల్ల
పిల్లకి
పిల్లకిచ్చుకుంట
పిల్లకిచ్చుకుంటాడు</w>
పిల్లల</w>
పిల్లలలో</w>
పీ
పీ</w>
పీఎం
పీఎంఓ</w>
పీఎఫ్</w>
పీఎస్</w>
పీకి</w>
పీట
పీటలె
పీటలెక్
పీటలెక్కే
పీటలెక్కేందుకు</w>
పీడ
పీడించబడ
పీడించబడడం</w>
పీడీ
పీడీఎస్</w>
పీపుల
పీపుల్స్</w>
పీలోకి</w>
పీసీసీ</w>
పీస్</w>
పు
పు</w>
పుచ్చ
పుచ్చుకున్న</w>
పుట్ట
పుట్టి</w>
పుట్టిన
పుట్టిన</w>
పుట్టినరోజ
పుట్టినరోజు</w>
పుట్టినరోజున
పుట్టినరోజునాడు</w>
పుట్టినరోజును</w>
పుట్టినరోజులు</w>
పుట్టుకు
పుట్టుకువచ్చింది</w>
పుడు</w>
పున
పునః
పునః</w>
పునఃపూజ</w>
పునర
పునరా
పునరాలో
పునరాలోచ
పునరాలోచనకు</w>
పునరావృ
పునరావృతం</w>
పునరుత
పునరుత్ప
పునరుత్పత్తి</w>
పునర్
పునర్విభ
పునర్విభజ
పునర్విభజించి</w>
పుర
పురం</w>
పురంద
పురందేశ్వ
పురందేశ్వరికి</w>
పురంలో</w>
పురస్క
పురస్కాలు</w>
పురా
పురాణాలు</w>
పురు
పురుష
పురుషుడు</w>
పురుషులకు</w>
పురుషులు</w>
పురోగ
పురోగతి</w>
పుల
పులులు</w>
పుల్
పుల్కు
పుల్కుర్
పుల్కుర్తి</w>
పుల్ల
పుల్లారావు</w>
పువ
పువ్వా
పువ్వాడ</w>
పుష్ప
పుష్పించే</w>
పుస్త
పుస్తక
పుస్తకంలో</w>
పూ
పూచీ</w>
పూజ
పూజ</w>
పూజలు</w>
పూత</w>
పూరి</w>
పూర్
పూర్</w>
పూర్త
పూర్త</w>
పూర్తయ
పూర్తయి</w>
పూర్తయినట్లు</w>
పూర్తయ్య
పూర్తయ్యే</w>
పూర్తవ
పూర్తవుతుంది</w>
పూర్తవుతోంది</w>
పూర్తి
పూర్తి</w>
పూర్తిగా</w>
పూర్తిచేశాడు</w>
పూర్వ</w>
పూర్వం</w>
పె
పెంచ
పెంచడానికి</w>
పెంచాడు</w>
పెంచాల్సి
పెంచాల్సివస్తే</w>
పెంచిన</w>
పెంచుకుంట
పెంచుకుంటున్నాయి</w>
పెంచుకుంటూ</w>
పెంచుకొని</w>
పెంచుతుంది</w>
పెండ
పెండెంట్</w>
పెండ్ల
పెండ్లి</w>
పెంప
పెంపకం</w>
పెంపకాన్ని</w>
పెట్ట
పెట్టడం</w>
పెట్టడంపై</w>
పెట్టనున్నారు</w>
పెట్టబోతున్న
పెట్టబోతున్నట్టు</w>
పెట్టలే
పెట్టలేనని</w>
పెట్టార
పెట్టారన్నారు</w>
పెట్టారు</w>
పెట్టారో</w>
పెట్టాలని</w>
పెట్టి</w>
పెట్టించి</w>
పెట్టింది</w>
పెట్టిన</w>
పెట్టుకుంటే</w>
పెట్టుకుని</w>
పెట్టుకున్న</w>
పెట్టుకున్నారు</w>
పెట్టే</w>
పెట్రో
పెట్రోలు</w>
పెడ
పెడితే</w>
పెడుతున్నారని</w>
పెడుతున్నారు</w>
పెడుతోందని</w>
పెద్ద
పెద్ద</w>
పెద్దగా</w>
పెద్దదిగా</w>
పెద్దనో
పెద్దనోట్ల</w>
పెద్దలతో</w>
పెద్దవారి</w>
పెద్దాయ
పెద్దాయపల్లిలో</w>
పెను
పెను</w>
పెనుముప్పు</w>
పెన్
పెన్</w>
పెన్షన
పెన్షనర్లు</w>
పెన్షన్</w>
పెరి
పెరిగ
పెరిగాయి</w>
పెరిగిపోత
పెరిగిపోతూనే</w>
పెరిగిపోయింది</w>
పెరిసై
పెరిసైక్లిక్</w>
పెరుగ
పెరుగు</w>
పెరుగుతుంది</w>
పెళ్ల
పెళ్లి</w>
పెళ్లిక
పెళ్లికూ
పెళ్లికూతు
పెళ్లికూతురు</w>
పెళ్లికొ
పెళ్లికొడ
పెళ్లికొడుకు</w>
పై
పై</w>
పే
పేందుకు</w>
పేజీ</w>
పేటీ
పేటీట్</w>
పేద
పేద</w>
పేదలకు</w>
పేప
పేపర్</w>
పేర
పేరి
పేరిట</w>
పేరు
పేరు</w>
పేరుకు</w>
పేరుగ
పేరుగల
పేరుగలదు</w>
పేరుగా
పేరుగాంచ
పేరుగాంచిన</w>
పేరుత
పేరుతో</w>
పేరుతోనే</w>
పేరున</w>
పేరును</w>
పేరొంద
పేరొందింది</w>
పేర్కొ
పేర్కొంటున్నారు</w>
పేర్కొంటూ</w>
పేర్కొంది</w>
పేర్కొన్నారు</w>
పేర్ల
పేర్లతో</w>
పేర్లను</w>
పేర్లు</w>
పేర్లూ</w>
పేలి
పేలిందని</w>
పేష
పేషెంట
పేషెంట్లలో</w>
పేస్
పేస్ను</w>
పై
పై</w>
పైకి</w>
పైగా</w>
పైడీ</w>
పైన</w>
పైనుంచి</w>
పైబడిన</w>
పైభాగంలో</w>
పైర</w>
పైల
పైలాన్</w>
పైసా</w>
పొ
పొంచి</w>
పొంద
పొందనుంది</w>
పొందలేకపోయిన</w>
పొందలేదు</w>
పొందాడు</w>
పొంది</w>
పొందినట్టుగా</w>
పొందు
పొందుతూ</w>
పొందుపరిచ
పొందుపరిచారు</w>
పొగ
పొగబెట్ట
పొగబెట్టినట్లు</w>
పొగా
పొగాకు</w>
పొట్టు</w>
పొడ
పొడవ
పొడవాటి</w>
పొడవుగా</w>
పొడి</w>
పొడికి</w>
పొడిగ
పొడిగించడానికి</w>
పొడు
పొడుగు
పొడుగునా</w>
పొత్తు</w>
పొదుపు</w>
పొమ్మ
పొమ్మన
పొమ్మనలేక</w>
పొలంలో</w>
పొలిటికల్</w>
పో
పోటీ
పోటీ</w>
పోటీగా</w>
పోటీచేసిన</w>
పోటీపడి
పోటీపడినట్లు</w>
పోటీల్లో</w>
పోత
పోతాయి</w>
పోతు
పోతుంది</w>
పోతుగొండ</w>
పోతున్న
పోతున్నాయి</w>
పోతున్నాయో</w>
పోతుల
పోతులూరి</w>
పోతే</w>
పోతోంది</w>
పోదు</w>
పోనిస్త
పోనిస్తలేరు</w>
పోయ
పోయా
పోయాయి</w>
పోయారని</w>
పోయారు</w>
పోయి</w>
పోయింద
పోయిందని</w>
పోయింది</w>
పోయిందో</w>
పోయే</w>
పోయేలా</w>
పోరా
పోరాట
పోరాటం</w>
పోరాటంలో</w>
పోరాటానికి</w>
పోరాటాలు</w>
పోరు</w>
పోరుబా
పోరుబాట</w>
పోర్ట్</w>
పోల
పోలవర
పోలవరం</w>
పోలి
పోలింగ్</w>
పోలిస్తే</w>
పోలీ
పోలీస
పోలీసు
పోలీసు</w>
పోలీసుల</w>
పోలీసులకు</w>
పోలీసులపై</w>
పోలీసులు</w>
పోలీసుశాఖ
పోలీసుశాఖల</w>
పోలీస్</w>
పోల్చ
పోల్చుకుంటే</w>
పోవ
పోవ</w>
పోవడం</w>
పోవడానికి</w>
పోష
పోషకా
పోషకాహార
పోషకాహార</w>
పోషించింది</w>
పోసిన</w>
పోస్ట
పోస్టర్</w>
పోస్టా
పోస్టాఫీ
పోస్టాఫీసు</w>
పోస్టు</w>
పోస్టును</w>
పోస్టులు</w>
పోస్ట్</w>
పౌ
పౌర
పౌర</w>
పౌరస
పౌరసత్
పౌరసత్వం</w>
పౌరసత్వాన్ని</w>
పౌరులను</w>
పౌరులపై</w>
పౌరులు</w>
పౌర్
పౌర్ణ
పౌర్ణమి</w>
పౌల్ట
పౌల్ట్ర
పౌల్ట్రీ</w>
ప్
ప్</w>
ప్ట
ప్టె
ప్త
ప్తంగా</w>
ప్తి</w>
ప్నను</w>
ప్ప
ప్ప</w>
ప్పటిక
ప్పటికీ</w>
ప్పింది</w>
ప్పు</w>
ప్పుడ
ప్పుడు</w>
ప్పుడూ</w>
ప్య
ప్యా
ప్యాకె
ప్యాకెట్ల</w>
ప్యాకే
ప్యాకేజీ
ప్యాకేజీలకు</w>
ప్యాక్ట్</w>
ప్యాట్</w>
ప్యాన
ప్యానెల
ప్యానెల్</w>
ప్యానెల్లు</w>
ప్ర
ప్ర</w>
ప్రక
ప్రకంప
ప్రకంపనలు</w>
ప్రకట
ప్రకటన</w>
ప్రకటి
ప్రకటించ
ప్రకటించగా</w>
ప్రకటించడం</w>
ప్రకటించాడు</w>
ప్రకటించారు</w>
ప్రకటించాలని</w>
ప్రకటించింది</w>
ప్రకటించిన</w>
ప్రకటించేశారు</w>
ప్రకటిస్త
ప్రకటిస్తామని</w>
ప్రకటిస్తూ</w>
ప్రకార
ప్రకారం</w>
ప్రకారముగా</w>
ప్రకాశ
ప్రకాశ్</w>
ప్రకృతి</w>
ప్రక్రి
ప్రక్రియ</w>
ప్రగా
ప్రగాఢ
ప్రగాఢ</w>
ప్రగ్య
ప్రగ్యాన్</w>
ప్రచార
ప్రచారం</w>
ప్రచారంలో</w>
ప్రచారంలోకి</w>
ప్రజ
ప్రజల
ప్రజల</w>
ప్రజలంతా</w>
ప్రజలకు</w>
ప్రజలకుండ
ప్రజలకుండాలని</w>
ప్రజలకూ</w>
ప్రజలను</w>
ప్రజలు</w>
ప్రజా
ప్రజా</w>
ప్రజారా
ప్రజారాజ
ప్రజారాజ్యం</w>
ప్రజాసమస్య
ప్రజాసమస్యలపై</w>
ప్రజ్వ
ప్రజ్వల
ప్రజ్వలన</w>
ప్రటించారు</w>
ప్రణా
ప్రణాళ
ప్రణాళిక
ప్రణాళికలను</w>
ప్రతా
ప్రతాప
ప్రతాపరెడ్డి</w>
ప్రతి
ప్రతి</w>
ప్రతిదీ</w>
ప్రతినిధులు</w>
ప్రతిప
ప్రతిపక్ష
ప్రతిపక్ష</w>
ప్రతిపక్షాల</w>
ప్రతిపాద
ప్రతిపాదన
ప్రతిపాదన</w>
ప్రతిపాదనను</w>
ప్రతిపాదనలపై</w>
ప్రతిపాదించింది</w>
ప్రతిఫ
ప్రతిఫలింప
ప్రతిఫలింపజేశారు</w>
ప్రతిభ
ప్రతిభ</w>
ప్రతిభతో</w>
ప్రతిభను</w>
ప్రతిరోజు</w>
ప్రతిష్ట
ప్రతిష్టా
ప్రతిష్టాత్మ
ప్రతిష్టాత్మక</w>
ప్రతిష్టాత్మకమైన</w>
ప్రతిష్ఠ
ప్రతిష్ఠాత్మ
ప్రతిష్ఠాత్మకంగా</w>
ప్రతిసారీ</w>
ప్రతిస్పందించారు</w>
ప్రతీ
ప్రతీ</w>
ప్రతీక
ప్రతీకగా</w>
ప్రతీకా
ప్రతీకాత్మక</w>
ప్రతీకారం</w>
ప్రత్తి</w>
ప్రత్య
ప్రత్యక్షంగా</w>
ప్రత్యర్థ
ప్రత్యర్థుల
ప్రత్యర్థులకంటే</w>
ప్రత్యే
ప్రత్యేక
ప్రత్యేక</w>
ప్రత్యేకం</w>
ప్రత్యేకంగా</w>
ప్రత్యేకమైన</w>
ప్రత్యేకించి</w>
ప్రదర్శ
ప్రదర్శన
ప్రదర్శన</w>
ప్రదర్శనలకు</w>
ప్రదర్శనలు</w>
ప్రదర్శనలో</w>
ప్రదర్శనల్లో</w>
ప్రదర్శితం</w>
ప్రదేశ
ప్రదేశ్</w>
ప్రదేశ్లో</w>
ప్రధా
ప్రధాన
ప్రధాన</w>
ప్రధానంగా</w>
ప్రధాని
ప్రధాని</w>
ప్రధానినే</w>
ప్రపంచ
ప్రపంచ</w>
ప్రపంచం</w>
ప్రపంచంతో</w>
ప్రపంచంలోని</w>
ప్రపంచవ్యాప్తంగా</w>
ప్రపంచాన్ని</w>
ప్రభ
ప్రభా
ప్రభాకర్</w>
ప్రభావ
ప్రభావం</w>
ప్రభావంప
ప్రభావంపడుతుందని</w>
ప్రభావమేన
ప్రభావమేననేది</w>
ప్రభావాన్ని</w>
ప్రభావి
ప్రభావిత</w>
ప్రభాస్</w>
ప్రభు
ప్రభు</w>
ప్రభుత
ప్రభుత్వ
ప్రభుత్వ</w>
ప్రభుత్వం</w>
ప్రభుత్వంపై</w>
ప్రభుత్వంలో</w>
ప్రభుత్వమే</w>
ప్రభుత్వా
ప్రభుత్వాని
ప్రభుత్వానిక
ప్రభుత్వానికి</w>
ప్రభుత్వానికీ</w>
ప్రభుత్వానిదే
ప్రభుత్వానిదేనని</w>
ప్రభుత్వాన్ని</w>
ప్రభుత్వాలు</w>
ప్రభుత్వాల్లో</w>
ప్రభుత్వో
ప్రభుత్వోద్య
ప్రభుత్వోద్యోగ
ప్రభుత్వోద్యోగులపై</w>
ప్రభుప్రసాద్</w>
ప్రమా
ప్రమాణ</w>
ప్రమాద
ప్రమాద</w>
ప్రమాదం</w>
ప్రమాదంలో</w>
ప్రమాదకర
ప్రమాదకర</w>
ప్రమాదకరమైన</w>
ప్రముఖ
ప్రముఖ</w>
ప్రముఖులు</w>
ప్రమో
ప్రమోష
ప్రమోషన్</w>
ప్రమోషన్ల
ప్రమోషన్లలోనూ</w>
ప్రయ
ప్రయత్
ప్రయత్న
ప్రయత్నం</w>
ప్రయత్నమేమీ</w>
ప్రయత్నాలను</w>
ప్రయత్నాలు</w>
ప్రయత్ని
ప్రయత్నించ
ప్రయత్నించగా</w>
ప్రయత్నించాడు</w>
ప్రయత్నించినా</w>
ప్రయత్నించే
ప్రయత్నించే</w>
ప్రయత్నించేవారు</w>
ప్రయత్నిస్త
ప్రయత్నిస్తామని</w>
ప్రయత్నిస్తున్నారు</w>
ప్రయత్నిస్తూనే</w>
ప్రయత్నిస్తోందని</w>
ప్రయా
ప్రయాణ
ప్రయాణంలో</w>
ప్రయాణించి</w>
ప్రయాణించే</w>
ప్రయో
ప్రయోగ
ప్రయోగాన్ని</w>
ప్రయోగాలలో</w>
ప్రయోజ
ప్రయోజన
ప్రయోజనం</w>
ప్రయోజనాలను</w>
ప్రయోజనాలు</w>
ప్రలోభ
ప్రలోభాలు</w>
ప్రవహ
ప్రవహించిన
ప్రవహించినచో</w>
ప్రవేశ
ప్రవేశ</w>
ప్రవేశంపై</w>
ప్రవేశకాల
ప్రవేశకాలము</w>
ప్రవేశపెట్టింది</w>
ప్రవేశపెడ
ప్రవేశపెడతారు</w>
ప్రవేశము</w>
ప్రవేశించ
ప్రవేశించాడని</w>
ప్రవేశించాయ
ప్రవేశించాయన్న</w>
ప్రవేశించారు</w>
ప్రవేశించి</w>
ప్రశ
ప్రశంస
ప్రశంసనీ
ప్రశంసనీయ
ప్రశంసనీయమని</w>
ప్రశంసలను</w>
ప్రశా
ప్రశాంత
ప్రశాంతంగా</w>
ప్రశాంతమైన</w>
ప్రశాంత్</w>
ప్రశ్
ప్రశ్న
ప్రశ్న</w>
ప్రశ్నంచ
ప్రశ్నంచట
ప్రశ్నంచటమే</w>
ప్రశ్నలకు</w>
ప్రశ్నలు</w>
ప్రశ్నించ
ప్రశ్నించారు</w>
ప్రశ్నించింది</w>
ప్రశ్నించిన</w>
ప్రశ్నో
ప్రశ్నోత్త
ప్రశ్నోత్తరాల</w>
ప్రసన్న
ప్రసన్నం</w>
ప్రసా
ప్రసాదం</w>
ప్రసాద్</w>
ప్రసార
ప్రసార</w>
ప్రసిద్ధ
ప్రసిద్ధ</w>
ప్రస్త
ప్రస్తా
ప్రస్తావ
ప్రస్తావి
ప్రస్తావించారు</w>
ప్రస్తావిస్తూ</w>
ప్రస్తుత
ప్రస్తుతం</w>
ప్రస్తుతానికి</w>
ప్రస్ఫ
ప్రస్ఫుట
ప్రస్ఫుటంగా</w>
ప్రహ
ప్రహ్లా
ప్రహ్లాద్</w>
ప్రా
ప్రాంత
ప్రాంత</w>
ప్రాంతం</w>
ప్రాంతంలో</w>
ప్రాంతంలోని</w>
ప్రాంతానికి</w>
ప్రాంతాల</w>
ప్రాంతాలలో</w>
ప్రాంతాలు</w>
ప్రాంతాల్లో</w>
ప్రాచు
ప్రాచుర్యాన్ని</w>
ప్రాజె
ప్రాజెక్
ప్రాజెక్టు
ప్రాజెక్టు</w>
ప్రాజెక్టుపై</w>
ప్రాజెక్ట్</w>
ప్రాణ
ప్రాణ</w>
ప్రాణహాని</w>
ప్రాణాలు</w>
ప్రాతి
ప్రాతిని
ప్రాతినిధ్యం</w>
ప్రాతిపద
ప్రాతిపదిక
ప్రాతిపదికన</w>
ప్రాథ
ప్రాథమిక
ప్రాథమిక</w>
ప్రాథమికంగా</w>
ప్రాథమికోన్నత</w>
ప్రాధ
ప్రాధమిక</w>
ప్రాబల
ప్రాబల్యాన్ని</w>
ప్రాబ్ల
ప్రాబ్లమ్</w>
ప్రామ
ప్రాము
ప్రాముఖ్య
ప్రాముఖ్యత</w>
ప్రాముఖ్యా
ప్రాముఖ్యాన్ని</w>
ప్రాయ
ప్రాయంగా</w>
ప్రార
ప్రారంభ
ప్రారంభం</w>
ప్రారంభంలో</w>
ప్రారంభమయింది</w>
ప్రారంభమవుతుంది</w>
ప్రారంభించ
ప్రారంభించడం</w>
ప్రారంభించనున్న</w>
ప్రారంభించారు</w>
ప్రార్థ
ప్రార్థించి</w>
ప్రాస్టిట
ప్రాస్టిట్యూ
ప్రాస్టిట్యూషన్</w>
ప్రి
ప్రిం
ప్రింట్స్</w>
ప్రింరోజ్</w>
ప్రిముల
ప్రిములా</w>
ప్రియ
ప్రియ</w>
ప్రియమైన</w>
ప్రియా
ప్రియాంక
ప్రియాంకా</w>
ప్రీ
ప్రీ</w>
ప్రీమి
ప్రీమియం</w>
ప్రీరిలీజ్</w>
ప్రె
ప్రెసి
ప్రెసిడెంట్</w>
ప్రెస్</w>
ప్రే
ప్రేక్ష
ప్రేక్షక
ప్రేక్షకుల</w>
ప్రేక్షకులను</w>
ప్రేక్షకుల్లో</w>
ప్రేమ
ప్రేమ</w>
ప్రేమతో</w>
ప్రేమను</w>
ప్రేమాన
ప్రేమాను
ప్రేమానురా
ప్రేమానురాగాల</w>
ప్రేమించడానికి</w>
ప్రేరే
ప్రేరేపి
ప్రేరేపిస్తున్న</w>
ప్రై
ప్రైవేటు</w>
ప్రైస్</w>
ప్రొ
ప్రొడ
ప్రొడక్ష
ప్రొడక్షన్స్</w>
ప్రొద్ద
ప్రొద్దుట
ప్రొద్దుటూరు</w>
ప్రొప</w>
ప్రొఫి
ప్రొఫిష
ప్రొఫిషియ
ప్రొఫిషియన్సీ</w>
ప్రో
ప్రోటీ
ప్రోటీన్</w>
ప్రోత్
ప్రోత్సహ
ప్రోత్సహించాలి</w>
ప్రోత్సహిస్తుండడంతో</w>
ప్రోత్సా
ప్రోత్సాహం</w>
ప్రౌ
ప్రౌడ్</w>
ప్ల
ప్లస్</w>
ప్లా
ప్లాంట్</w>
ప్లాట్</w>
ప్లాట్లు</w>
ప్లాన్</w>
ప్లాస్టిక్</w>
ప్లేయ
ప్లేయర్</w>
ప్లేస్</w>
ఫ
ఫ</w>
ఫర్</w>
ఫల
ఫలిత
ఫలితం</w>
ఫలితంగా</w>
ఫలితాల</w>
ఫలితాలా</w>
ఫలితాలు</w>
ఫస్ట్</w>
ఫామ
ఫామ్</w>
ఫారం</w>
ఫారె
ఫారెస్ట్</w>
ఫార్
ఫార్మా</w>
ఫాలో
ఫాలో</w>
ఫాలోయింగ్</w>
ఫాలోవర్
ఫాలోవర్స్</w>
ఫాల్
ఫాల్గు
ఫాల్గుణ</w>
ఫి
ఫింగ
ఫింగర్</w>
ఫిక
ఫిక్స్</w>
ఫిజ
ఫిజికల్</w>
ఫిర్</w>
ఫిర్యా
ఫిర్యాద
ఫిర్యాదు
ఫిర్యాదు</w>
ఫిర్యాదుదార
ఫిర్యాదుదారుడ
ఫిర్యాదుదారుడికి</w>
ఫిర్యాదును</w>
ఫిర్యాదుల</w>
ఫిర్యాదులను</w>
ఫిర్యాదులు</w>
ఫిర్యాదులో</w>
ఫిల
ఫిలి
ఫిలిం</w>
ఫిల్
ఫిల్మ్</w>
ఫీ
ఫీ</w>
ఫీచ
ఫీచర్ల
ఫీచర్లకు</w>
ఫీట్లు</w>
ఫీలవుతున్న
ఫీలవుతున్నామని</w>
ఫీలింగ్</w>
ఫీవర్</w>
ఫు
ఫుడ్</w>
ఫుల్</w>
ఫె
ఫెక్ట్</w>
ఫెన్
ఫెన్సింగ్</w>
ఫెయిర్</w>
ఫెర్
ఫెర్నా
ఫెర్నాండ
ఫెర్నాండేజ్</w>
ఫెర్ర
ఫెర్రో</w>
ఫెవర
ఫెవరే
ఫెవరేట్</w>
ఫెసి
ఫెసివల్</w>
ఫెస్టి
ఫెస్టివల్</w>
ఫేక్</w>
ఫేస్</w>
ఫై
ఫై</w>
ఫైండ్</w>
ఫైటర్ల
ఫైటర్లను</w>
ఫైట్స్</w>
ఫైనల్</w>
ఫైర్</w>
ఫైల్</w>
ఫొ
ఫొటో
ఫొటో</w>
ఫొటోగా</w>
ఫొటోపై</w>
ఫొటోలోని</w>
ఫొటోస్</w>
ఫో
ఫోటో
ఫోటో</w>
ఫోటోను</w>
ఫోటోల</w>
ఫోటోలను</w>
ఫోటోలు</w>
ఫోటోలో</w>
ఫోటోస్</w>
ఫోన్</w>
ఫోన్ల</w>
ఫోన్లు</w>
ఫోన్స్</w>
ఫోస్ట
ఫోస్టు</w>
ఫోస్టులు</w>
ఫోస్టులోని</w>
ఫోస్ట్</w>
ఫౌ
ఫౌసీ</w>
ఫ్
ఫ్</w>
ఫ్ఘ
ఫ్ట్</w>
ఫ్యా
ఫ్యాక్ట
ఫ్యాక్టరీ</w>
ఫ్యాక్ట్</w>
ఫ్యాక్షన్</w>
ఫ్యాన్స్</w>
ఫ్యామిల
ఫ్యామిలీ
ఫ్యామిలీ</w>
ఫ్యామిలీతో</w>
ఫ్యాషన్</w>
ఫ్రా
ఫ్రా</w>
ఫ్రాంచ
ఫ్రాంచై
ఫ్రాంచైజీ
ఫ్రాంచైజీ</w>
ఫ్రాంచైజీల
ఫ్రాంచైజీలన్నీ</w>
ఫ్రాంఛ
ఫ్రాంఛైజీ
ఫ్రాంఛైజీలో</w>
ఫ్రాన్
ఫ్రాన్సె
ఫ్రాన్సెస్కో</w>
ఫ్రాన్స్</w>
ఫ్రాస్ట్ర
ఫ్రాస్ట్రక్
ఫ్రాస్ట్రక్చ
ఫ్రాస్ట్రక్చర్</w>
ఫ్రీ
ఫ్రీక్
ఫ్రీక్వె
ఫ్రీక్వెన్సీ</w>
ఫ్రె
ఫ్రెంచి</w>
ఫ్రెండ్ల
ఫ్రెండ్లీగా</w>
ఫ్ల
ఫ్లడ్</w>
ఫ్లాష్</w>
ఫ్లు
ఫ్లుయ
ఫ్లుయె
ఫ్లుయెంజ
ఫ్లుయెంజా</w>
ఫ్లూ</w>
ఫ్లే
ఫ్లేవర్</w>
ఫ్లేవర్లు</w>
ఫ్లై
ఫ్లైయింగ్</w>
బ
బ</w>
బంగ
బంగా
బంగార
బంగారపు</w>
బంగారాన్ని</w>
బంగారు</w>
బంగాళ
బంగాళదుంపలు</w>
బంగాళా
బంగాళాఖా
బంగాళాఖాతం</w>
బంగ్ల
బంగ్లా
బంగ్లా</w>
బంగ్లాదేశ్</w>
బంగ్లాల</w>
బంగ్లాలో</w>
బంగ్లాల్లో</w>
బంట
బంటీ</w>
బంటుగా</w>
బండ</w>
బండిల్</w>
బండ్ల</w>
బంత
బంతులతో</w>
బంతులు</w>
బంతుల్లో</w>
బంధ
బంధించి</w>
బంధువ
బంధువని</w>
బంధువుల</w>
బంధువులు</w>
బంప
బంపర్</w>
బక
బకాయి
బకాయిలు</w>
బక్క
బక్కగా</w>
బచ్చ
బచ్చన్న
బచ్చన్నపే
బచ్చన్నపేట
బచ్చన్నపేటలో</w>
బటన్</w>
బట్టర్</w>
బట్టి</w>
బడ
బడి</w>
బడింది</w>
బడిన</w>
బడుతుంది</w>
బడుతున్న</w>
బడుతూ</w>
బడ్జెట్</w>
బత్త
బత్తని</w>
బద
బదులు</w>
బయ
బయట
బయట</w>
బయటకు</w>
బయటకొ
బయటకొస్తున్న</w>
బయటప
బయటపడ
బయటపడలేదు</w>
బయటపడుతున్నాయి</w>
బయటపడేయ
బయటపడేయలేవు</w>
బయటపడ్డ</w>
బయటపెట్ట
బయటపెట్టారు</w>
బయటపెట్టాల
బయటపెట్టాలన్నారు</w>
బయటి</w>
బయలు
బయలుదే
బయలుదేర
బయలుదేరతారు</w>
బయో</w>
బరి
బరిలోకి</w>
బరు
బరువు</w>
బరువె
బరువెక్క
బరువెక్కుతోంది</w>
బర్
బర్త్</w>
బల
బలం</w>
బలంగా</w>
బలగ
బలగాలను</w>
బలత్
బలత్కారానికి</w>
బలపడ
బలపడటానికి</w>
బలపడి</w>
బలపడుతోంది</w>
బలమైన</w>
బలమైన</w>
బలశ
బలశాలిని</w>
బలహీ
బలహీన</w>
బలాన్ని</w>
బలిత
బలితీ
బలితీస
బలితీసుకున్న</w>
బసి
బసిరెడ్డి</w>
బస్
బస్ట
బస్టర్</w>
బస్టర్లు</w>
బస్త
బస్తాలు</w>
బస్తీలు</w>
బస్స
బస్సు</w>
బస్సులను</w>
బస్సులు</w>
బస్సుల్లో</w>
బహి
బహిరంగ
బహిరంగ</w>
బహిరంగంగా</w>
బహు
బహుమతి</w>
బహుముఖ</w>
బహుశ</w>
బా
బాండ్ల</w>
బాండ్లను</w>
బాంబ
బాంబు</w>
బాంబుల</w>
బాంబులు</w>
బాక్
బాక్టీ
బాక్టీరియ
బాక్టీరియా</w>
బాగా</w>
బాగానే</w>
బాగు
బాగుంట
బాగుంటుంది</w>
బాగుందని</w>
బాగుంది</w>
బాఘ
బాఘ్</w>
బాజీ</w>
బాట
బాటను</w>
బాటలు</w>
బాటు
బాట్లు</w>
బాడీ</w>
బాదేశ
బాదేశాడు</w>
బాద్
బాద్</w>
బాద్షా</w>
బాధ
బాధపడ
బాధపడతారు</w>
బాధలు</w>
బాధలో</w>
బాధించలేకపోయ
బాధించలేకపోయిందట</w>
బాధిత
బాధితుల</w>
బాధ్య
బాధ్యత</w>
బాధ్యతలు</w>
బాధ్యతా</w>
బాధ్యుల
బాధ్యులంటూ</w>
బాప
బాపూ</w>
బాబ
బాబు</w>
బాబుకు</w>
బాబుపై</w>
బాయ్</w>
బార
బారిన
బారినపడిన</w>
బారులు</w>
బాల
బాల</w>
బాలకృష్ణ</w>
బాలబడి</w>
బాలయ్య</w>
బాలల</w>
బాలా
బాలాజీ</w>
బాలాన
బాలానగర్</w>
బాలిక
బాలిక</w>
బాలికపై</w>
బాలీవుడ్</w>
బాలు</w>
బాల్
బాల్</w>
బాల్దె
బాల్దె</w>
బావి
బావి</w>
బావికి</w>
బావిలో</w>
బావుల</w>
బాష్ప
బాష్పీ
బాష్పీభవ
బాష్పీభవన</w>
బాహు
బాహుబ
బాహుబలి</w>
బి
బి</w>
బిఒ
బిఒటి</w>
బిక
బికిన
బికినీ</w>
బికినీలు</w>
బిగిన</w>
బిజ
బిజిన
బిజినెస్</w>
బిజీ
బిజీ</w>
బిజీగా</w>
బిజె
బిజెపి</w>
బిడ్డ
బిడ్డ</w>
బిడ్డకు</w>
బిన
బినెట్</w>
బియా
బియాండ్</w>
బిల
బిల్
బిల్</w>
బిల్డి
బిల్డింగ్స్</w>
బిల్ల
బిల్లు</w>
బిల్లును</w>
బిసి
బిసిసిఐ</w>
బిస్
బిస్మా</w>
బిహ
బిహండి</w>
బీ
బీ</w>
బీచుల్లో</w>
బీజం</w>
బీజే
బీజేపీ
బీజేపీ</w>
బీజేపీకి</w>
బీజేపీతో</w>
బీజేపీపై</w>
బీజేపీల
బీజేపీలని</w>
బీజేపీలో</w>
బీట్</w>
బీద
బీదర
బీదర్ల
బీదర్లో</w>
బీదర్లోను</w>
బీన్స్</w>
బీరు</w>
బీసీ
బీసీసీ
బీసీసీఐ</w>
బీహార్</w>
బు
బుక్</w>
బుగ్గ
బుగ్గి</w>
బుడ
బుడగల</w>
బుద్
బుద్గా
బుద్గాంలోని</w>
బుద్ద
బుద్దికి</w>
బుధ
బుధవారం</w>
బుధుడు</w>
బుమ్ర
బుమ్రాలు</w>
బుల్</w>
బూ
బూజు</w>
బూడి
బూడి</w>
బూడిద
బూడిదై
బూడిదైనట్టు</w>
బృ
బృందం</w>
బృందాన్ని</w>
బె
బెంగ
బెంగళ
బెంగళూ
బెంగళూరు</w>
బెంగళూరులో</w>
బెంగాల్</w>
బెంజ్</w>
బెజ్
బెజ్జం</w>
బెటర్</w>
బెట్ట
బెట్టారు</w>
బెట్టింగ్</w>
బెది
బెదిరి
బెదిరించ
బెదిరించాడ
బెదిరించాడంటూ</w>
బెదిరించాడని</w>
బెదిరింప
బెదిరింపుల</w>
బెదిరింపులకు</w>
బెదిరింపులు</w>
బెయిల్</w>
బెల్ల
బెల్లం</w>
బెల్లంకొ
బెల్లంకొండ</w>
బెస్ట్</w>
బే
బేగ
బేగంపేట</w>
బేబీ
బేబీని</w>
బేరీ
బేరీజు</w>
బేస్</w>
బై
బై</w>
బైక్</w>
బైడెన్</w>
బైలింగ
బైలింగ్వ
బైలింగ్వల్</w>
బొ
బొంబ
బొంబాయి</w>
బొత్తి
బొత్తిగా</w>
బొమ్మ
బొమ్మతి</w>
బో
బోడి
బోడినాయ
బోడినాయక్క
బోడినాయక్కన్న
బోడినాయక్కన్నూర్</w>
బోత
బోతున్న
బోతున్న</w>
బోతున్నా
బోతున్నాడ</w>
బోతున్నాడు</w>
బోతో
బోతోంద</w>
బోతోంది</w>
బోధ
బోధ</w>
బోధన</w>
బోయ
బోయపాటి</w>
బోయే</w>
బోరుబా
బోరుబావుల</w>
బోర్
బోర్డు</w>
బోలె
బోలెడ
బోలెడంత</w>
బోలెడన్ని</w>
బోల్
బోల్తా</w>
బౌ
బౌడెన్</w>
బౌల
బౌలర్</w>
బౌలర్లు</w>
బౌలింగ్</w>
బ్
బ్</w>
బ్ద
బ్బ
బ్బంద
బ్బంది</w>
బ్బు</w>
బ్య
బ్యా
బ్యాం
బ్యాంకు</w>
బ్యాంక్</w>
బ్యాక్</w>
బ్యాగ్
బ్యాగ్ను</w>
బ్యాటింగ్</w>
బ్యాన్</w>
బ్యూటీ</w>
బ్ర
బ్ర</w>
బ్రహ్
బ్రహ్మో
బ్రహ్మోత్స
బ్రహ్మోత్సవం</w>
బ్రా
బ్రాండ్</w>
బ్రాహ్
బ్రాహ్మ
బ్రాహ్మడ్
బ్రాహ్మడ్ని</w>
బ్రి
బ్రిటన్</w>
బ్రిటి
బ్రిటిష్</w>
బ్రిటీ
బ్రిటీల</w>
బ్రిటీలు</w>
బ్రేక్</w>
బ్ల
బ్లడ్</w>
బ్లా
బ్లాక్</w>
బ్లూ
బ్లూ</w>
బ్లూటూ
బ్లూటూత్</w>
భ
భ</w>
భం</w>
భక్
భక్త
భక్తుడు</w>
భక్తులకు</w>
భక్తులు</w>
భగ
భగవంత
భగవంతుడ
భగవంతుడనే</w>
భగవంత్</w>
భగ్
భగ్గు
భగ్గుమన్న
భగ్గుమన్నాయి</w>
భట్</w>
భద్ర
భద్రతా
భద్రతా</w>
భద్రతాపర
భద్రతాపరమైన</w>
భద్రా
భద్రాద్ర
భద్రాద్రి</w>
భద్రాద్రిలో</w>
భయ
భయంకర
భయంకరంగా</w>
భయంకరమైన</w>
భయపడ్డ
భయపడ్డారని</w>
భయభ
భయభ్రా
భయభ్రాంత
భయభ్రాంతులకు</w>
భయా
భయాందోళ
భయాందోళనలు</w>
భయాన
భయానక</w>
భయాన్ని</w>
భర
భరత్</w>
భరో
భరోసా</w>
భర్
భర్త</w>
భర్తను</w>
భర్తీ</w>
భవ
భవం</w>
భవనం</w>
భవన్</w>
భవిష
భవిష్య
భవిష్యత్తులో</w>
భా
భాగ
భాగం</w>
భాగంగా</w>
భాగంలో</w>
భాగస్వా
భాగస్వామ
భాగస్వామి
భాగస్వామినై
భాగస్వామినైనట్లు</w>
భాగస్వామ్యం</w>
భాగస్వామ్యా
భాగస్వామ్యాన్ని</w>
భాగాన్ని</w>
భాగాలుగా</w>
భాగో
భాగోతం</w>
భాజ
భాజపా
భాజపాకు</w>
భాజపాతో</w>
భాజపాల
భాజపాలోని</w>
భాను
భానుప్రియ</w>
భానుమతి</w>
భార
భారం</w>
భారంగా</w>
భారత
భారత</w>
భారతదేశ</w>
భారతదేశంలో</w>
భారతీయ</w>
భారత్</w>
భారీ</w>
భారీగా</w>
భార్
భార్గ
భార్గవ్</w>
భార్య
భార్య</w>
భార్యగా</w>
భావ
భావం</w>
భావన</w>
భావి
భావితర
భావితరాలకు</w>
భావిస్తారు</w>
భావిస్తున్న
భావిస్తున్నానని</w>
భావిస్తున్నారు</w>
భావిస్తే</w>
భావిస్తోంది</w>
భాస్
భాస్కర
భాస్కర</w>
భాస్కరరావు</w>
భి
భిక్ష
భిక్షమె
భిక్షమెత్తి</w>
భిన్న
భిన్నంగా</w>
భిస్తుంది</w>
భీ
భీమ
భీమా</w>
భీమ్ల
భీమ్లా</w>
భుజ
భుజాలపై</w>
భుత
భుత్వ</w>
భువ
భువనే
భువనేశ్వ
భువనేశ్వర్</w>
భూ
భూ</w>
భూట
భూటాన్</w>
భూతం</w>
భూమా</w>
భూమి
భూమి</w>
భూమిని</w>
భూమిల
భూమిలో
భూమిలోంచి</w>
భూముల
భూములి
భూములిచ్చిన</w>
భూష
భూషణ్</w>
భే
భేటీ</w>
భౌ
భౌతిక
భౌతికశాస్త్రం</w>
భ్య</w>
భ్యం</w>
మ
మ</w>
మంగ
మంగళ
మంగళవారం</w>
మంచ
మంచి
మంచి</w>
మంచిది</w>
మంచినీ
మంచినీటి</w>
మంచివాళ్ల
మంచివాళ్లే</w>
మంచివి</w>
మంచు</w>
మంజ
మంజూరు</w>
మంట
మంట</w>
మంటలను</w>
మంటలు</w>
మండ
మండల
మండల</w>
మండలం
మండలం</w>
మండలంల
మండలంలున్నాయి</w>
మండలంలో</w>
మండలమైన</w>
మండలాన్ని</w>
మండలి
మండలి</w>
మండలిలో</w>
మండి</w>
మండిప
మండిపడ్డ
మండిపడ్డాడు</w>
మండిపడ్డారు</w>
మంత
మంత</w>
మంతా</w>
మంత్ర
మంత్రము</w>
మంత్రాలయ</w>
మంత్రి</w>
మంత్రికి</w>
మంద
మంది</w>
మందికి</w>
మందిని</w>
మందిలో</w>
మంద్ర
మంద్రస్థాయిలో</w>
మగ
మగబిడ్డకు</w>
మగవారి</w>
మజ
మజిల
మజిలీ</w>
మట్ట
మట్టితో</w>
మఠ
మఠాల్లో</w>
మడు
మడుగులు</w>
మతి
మతి</w>
మతిః</w>
మత్తు</w>
మదిత
మదిత్</w>
మదుప
మదుపు</w>
మదుపులే</w>
మద్ద
మద్దత
మద్దతి
మద్దతిచ్చారు</w>
మద్దతు</w>
మద్దతుగా</w>
మద్య
మద్య</w>
మద్యం</w>
మద్యలో</w>
మధ
మధు
మధుక
మధుకర్</w>
మధుమే
మధుమేహం</w>
మధుర</w>
మధ్య
మధ్య</w>
మధ్యకాలంలో</w>
మధ్యప్రదేశ్</w>
మధ్యలో</w>
మధ్యలోకి</w>
మధ్యా</w>
మధ్యే</w>
మన
మన</w>
మనం</w>
మనకు</w>
మనమ
మనమడు</w>
మనము</w>
మనమూ</w>
మనలో</w>
మనల్ని</w>
మని</w>
మనీ</w>
మను
మనుష
మనుషులు</w>
మనుషుల్లో</w>
మనో
మనోహ
మనోహర్</w>
మనోహార
మనోహారాచ
మనోహారాచారి</w>
మన్
మన్న
మన్మ</w>
మన్మోహన్</w>
మభ్య</w>
మమ్
మమ్మ
మమ్మల్ని</w>
మమ్మీ
మమ్మీని</w>
మయ
మయింది</w>
మర
మరణాల</w>
మరి
మరి</w>
మరింత</w>
మరింతగా</w>
మరికొ
మరికొంత
మరికొంతమంది</w>
మరికొన్ని</w>
మరిచి
మరిచిపోత
మరిచిపోతారు</w>
మరిన్ని</w>
మరియ
మరియు</w>
మరీ</w>
మరు
మరునాడు</w>
మరువ
మరువం</w>
మరువక</w>
మరుస
మరుసటి
మరుసటిరోజు</w>
మరెవర
మరెవరో</w>
మరే</w>
మరొ
మరొక
మరొక</w>
మరొకటి</w>
మరొకరిన
మరొకరినో</w>
మరో
మరో</w>
మరోపక్క</w>
మరోలా</w>
మరోవైపు</w>
మరోసారి</w>
మర్
మర్చిప
మర్చిపో</w>
మర్యా
మర్యాద
మర్యాదకాదు</w>
మలు
మలుప
మలుపులు</w>
మల్
మల్ట
మల్టీ
మల్టీస్టార
మల్టీస్టారర్</w>
మల్దీవ
మల్దీవులకు</w>
మల్ల
మల్లయోధ
మల్లయోధు
మల్లయోధుడిని</w>
మళ్లీ</w>
మళ్ళ
మళ్ళీ</w>
మళ్ళుతుంది</w>
మవ
మవుతుంది</w>
మహ
మహనీ
మహనీయు
మహనీయుడి</w>
మహబూ
మహబూబ్</w>
మహమూ
మహమూద్</w>
మహమ్మ
మహమ్మద్</w>
మహమ్మార
మహమ్మారి</w>
మహమ్మారిని</w>
మహా
మహా</w>
మహాత్
మహాత్మా
మహాత్మాగాంధీ</w>
మహాను
మహానుభావ
మహానుభావులైన</w>
మహాపూర్
మహాపూర్ణా
మహాపూర్ణాహ
మహాపూర్ణాహుత
మహాపూర్ణాహుతి</w>
మహామ
మహామహ
మహామహుడు</w>
మహారా
మహారాష్ట
మహారాష్ట్ర
మహారాష్ట్ర</w>
మహి
మహిళ
మహిళ</w>
మహిళకు</w>
మహిళతో</w>
మహిళపైకి</w>
మహిళల
మహిళల</w>
మహిళలంతా</w>
మహిళలకు</w>
మహిళలకే</w>
మహిళలు</w>
మహిళవల
మహిళవలే</w>
మహిళా</w>
మహేశ్వ
మహేశ్వరి</w>
మహేష్</w>
మా
మా</w>
మాండ
మాండరి
మాండరిన్</w>
మాండ్</w>
మాజీ</w>
మాట
మాట</w>
మాటకు</w>
మాటలకు</w>
మాటలను</w>
మాటలు</w>
మాటల్
మాటల్నే</w>
మాటల్లో</w>
మాటే
మాటేమి
మాటేమిటి</w>
మాట్ల
మాట్లాడ
మాట్లాడమన్న
మాట్లాడమన్నావ్</w>
మాట్లాడానని</w>
మాట్లాడాను</w>
మాట్లాడారు</w>
మాట్లాడిన</w>
మాట్లాడుకుంట
మాట్లాడుకుంటాము</w>
మాట్లాడుకుంటున్నారు</w>
మాట్లాడుతున్న</w>
మాట్లాడుతూ</w>
మాడ్యూ
మాడ్యూల్</w>
మాతో</w>
మాత్ర
మాత్ర</w>
మాత్రం</w>
మాత్రమే</w>
మాత్రాన</w>
మాత్సర
మాత్సర్యం</w>
మాధ
మాధవి
మాధవి</w>
మాధవిలు</w>
మాధవ్</w>
మాధానాలు</w>
మాధ్య
మాధ్యమ
మాధ్యమాల</w>
మాధ్యమాలకు</w>
మాధ్యమాల్లో</w>
మాధ్యమిక</w>
మాన
మాన</w>
మానం</w>
మానవ</w>
మానస
మానసిక</w>
మానూరు</w>
మానే
మానేద్ద
మానేద్దాము</w>
మాన్</w>
మాన్ని</w>
మాఫీ</w>
మామ
మామ</w>
మాములు</w>
మామ్మ</w>
మాయ
మాయమైపోయింది</w>
మార
మార</w>
మారాయి</w>
మారారు</w>
మారాలని</w>
మారి</w>
మారింద
మారిందంటున్నారు</w>
మారింది</w>
మారిన</w>
మారిపోత
మారిపోతుంద
మారిపోతుందే
మారిపోతుందేమో
మారిపోతుందేమోనని</w>
మారిపోయ
మారిపోయిందని</w>
మారు
మారుత
మారుతాయని</w>
మారుతి</w>
మారుతుందని</w>
మారుతున్న
మారుతున్నాడు</w>
మారుమూ
మారుమూల</w>
మారుస్తూ</w>
మారూ
మారూఫ్</w>
మారే
మారేపల్లిలో</w>
మార్
మార్కె
మార్కెటింగ
మార్కెటింగ్</w>
మార్కెటింగ్లో</w>
మార్కెట్</w>
మార్కెట్ల</w>
మార్కెట్లకు</w>
మార్కెట్లు</w>
మార్కెట్లో</w>
మార్క్</w>
మార్గ
మార్గ</w>
మార్గం
మార్గం</w>
మార్గంమధ్య
మార్గంమధ్యలోనే</w>
మార్గమధ్యలో</w>
మార్గా
మార్గాన</w>
మార్గాలు</w>
మార్చ
మార్చి</w>
మార్చ్</w>
మార్నింగ్</w>
మార్ప
మార్పు</w>
మార్పునకు</w>
మార్పును</w>
మార్పులను</w>
మార్పులు</w>
మార్లు</w>
మార్వా
మార్వాకు</w>
మార్వాడి</w>
మాల
మాలా
మాలాంటి</w>
మాల్
మాల్</w>
మాల్దీవ
మాల్దీవ్స్</w>
మాల్స్</w>
మావ
మావటికి</w>
మావో
మావోల</w>
మాస
మాస</w>
మాస్
మాస్</w>
మాస్కు</w>
మాస్కులు</w>
మాస్క్</w>
మాస్క్స్</w>
మాస్టర్</w>
మి
మి</w>
మించ
మించి</w>
మించిన</w>
మించొ
మించొద్దు</w>
మిక
మిక</w>
మిక్
మిక్సర్</w>
మిక్స్</w>
మిగతా</w>
మిగిల
మిగిలిన</w>
మిగులు</w>
మిటీ</w>
మిటీని</w>
మిఠ
మిఠాయి</w>
మిత
మిత్ర
మిత్ర</w>
మిత్రన్</w>
మిత్రుడు</w>
మిథ
మిథు
మిథుబె
మిథుబెన్</w>
మిదని</w>
మిన
మిన</w>
మినహ
మినహాయి
మినహాయింపు</w>
మిర
మిరప
మిరపమి
మిరపమిను
మిరపమినుము</w>
మిర్
మిర్చ
మిర్చిత
మిర్చితో
మిర్చితోటలు</w>
మిర్చిన
మిర్చినారు</w>
మిల
మిలియన్</w>
మిలీ
మిలీనియ
మిలీనియల్ల
మిలీనియల్ల</w>
మిల్ల
మిల్లీ
మిల్లీ</w>
మిల్లీమీటర్ల</w>
మిళ</w>
మిష</w>
మిస్ట
మిస్టరీ
మిస్టరీ</w>
మిస్టరీగా</w>
మిస్టర్</w>
మీ
మీ</w>
మీకు</w>
మీకోసం</w>
మీట
మీటర్ల</w>
మీటర్లు</w>
మీటింగ
మీటింగ్</w>
మీటింగ్లు</w>
మీట్</w>
మీడి
మీడియ
మీడియా
మీడియా</w>
మీడియాని</w>
మీడియాను</w>
మీడియాలో</w>
మీద
మీద</w>
మీదకు</w>
మీదా</w>
మీరన్న</w>
మీరు</w>
మీరె
మీరెందుకు</w>
మీవా
మీవాడే</w>
ము
ము</w>
ముంచ
ముంచి</w>
ముంచింది</w>
ముంచుకొ
ముంచుకొస్తోంది</w>
ముంచె
ముంచెత్తింది</w>
ముంద
ముందంజలో</w>
ముందజ
ముందజలో</w>
ముందస్త
ముందస్తు</w>
ముందు</w>
ముందుందని</w>
ముందుక
ముందుకు</w>
ముందుకే</w>
ముందుకేసి</w>
ముందుకొ
ముందుకొస్త
ముందుకొస్తారని</w>
ముందుగా</w>
ముందే</w>
ముంబ
ముంబై
ముంబై</w>
ముంబైకి</w>
ముంబైలోని</w>
ముక్కలు</w>
ముఖ
ముఖ</w>
ముఖచిత్రం</w>
ముఖులంద</w>
ముఖ్య
ముఖ్య</w>
ముఖ్యం</w>
ముఖ్యంగా</w>
ముఖ్యమ
ముఖ్యమంత్రి</w>
ముఖ్యమయ్య
ముఖ్యమయ్యింద
ముఖ్యమయ్యిందా</w>
ముఖ్యమైన</w>
ముఖ్యా
ముఖ్యాంశ
ముఖ్యాంశాల్లో</w>
ముఖ్యులు</w>
ముగా</w>
ముగి
ముగింపు</w>
ముగిసిన</w>
ముగిసే
ముగిసేలోప
ముగిసేలోపే</w>
ముగ్
ముగ్గురు</w>
ముచ్చ
ముచ్చట</w>
ముచ్చటిస్త
ముచ్చటిస్తుండ
ముచ్చటిస్తుండటం</w>
ముట్ట
ముట్టడిస్త
ముట్టడిస్తాం</w>
ముఠ
ముఠా</w>
ముత
ముతక</w>
ముత్య
ముత్యాల</w>
ముత్యాలు</w>
ముదిరి
ముదిరిన</w>
ముద్ద
ముద్దయింది</w>
ముద్దుల</w>
ముద్ర
ముద్ర</w>
ముద్రవే
ముద్రవేస్తున్నారు</w>
ముద్రించిన</w>
మున</w>
ముని
మునిగి
మునిగిపోయాయి</w>
మును
మునుప
మునుపటిల
మునుపటిలా</w>
మునుపె
మునుపెన్న
మునుపెన్నడ
మునుపెన్నడూ</w>
ముప్పు</w>
ముమ్మ</w>
మురళ
మురళి</w>
మురళీ</w>
ముల
ములకు</w>
ములో</w>
ముష్
ముష్కర
ముష్కరులు</w>
ముస్లి
ముస్లిమా</w>
మూ
మూకు
మూకుమ్ము
మూకుమ్ముడి</w>
మూడ
మూడవ</w>
మూడు</w>
మూడో</w>
మూడ్రో
మూడ్రోజ
మూడ్రోజుల</w>
మూత</w>
మూతలు</w>
మూత్ర
మూత్ర</w>
మూత్రం</w>
మూత్రపి
మూత్రపిండ
మూత్రపిండ</w>
మూత్రపిండాల</w>
మూత్రవి
మూత్రవిసర్
మూత్రవిసర్జన</w>
మూల
మూలం</w>
మూలా</w>
మూలాలను</w>
మూల్</w>
మూవీ
మూవీ</w>
మూవీకి</w>
మూవీని</w>
మూవీల
మూవీలకంటే</w>
మూవీలో</w>
మూవీస్</w>
మూశాడు</w>
మూసి
మూసివే
మూసివేయ
మూసివేయడం</w>
మూసివేసి
మూసివేసిన
మూసివేసినప్పుడు</w>
మూసీ</w>
మృ
మృత
మృతదే
మృతదేహ
మృతదేహాన్ని</w>
మృతి
మృతికి</w>
మృతిపట్ల</w>
మృతిపై</w>
మృతు
మృతుని</w>
మృతునికి</w>
మృద
మృదువ
మృదువుగా</w>
మృదువె
మృదువైన</w>
మె
మెంట
మెంట్</w>
మెకా
మెకానిజం</w>
మెగా
మెగా</w>
మెగాబ్ర
మెగాబ్రద
మెగాబ్రదర్</w>
మెగాస్టార్</w>
మెజారి
మెజారిటీ
మెజారిటీ</w>
మెజారిటీతో</w>
మెటల్</w>
మెటీ
మెటీరియల్</w>
మెట్ర
మెట్రో</w>
మెడ
మెడలో</w>
మెడికల్</w>
మెద
మెదడుకి</w>
మెన
మెనుకు</w>
మెప్ప
మెప్పించలేకపోయ
మెప్పించలేకపోయాడు</w>
మెప్పించిన</w>
మెయిన్</w>
మెయిల్</w>
మెరు
మెరుగ
మెరుగుప
మెరుగుపర</w>
మెరుగుపరు
మెరుగుపరుస్తుంది</w>
మెరుగులు</w>
మెరుగైన</w>
మెల
మెలో
మెలోడి</w>
మెల్ల
మెల్లగా</w>
మెహ</w>
మైన</w>
మే
మే</w>
మేం</w>
మేఘ
మేఘాల
మేఘాలన్నీ</w>
మేజ్</w>
మేడమ్</w>
మేన
మేనమామ</w>
మేని
మేనిఫె
మేనిఫెస్టో
మేనిఫెస్టోలోని</w>
మేనే
మేనేజర్</w>
మేనేజి
మేనేజిమెంట
మేనేజిమెంటు</w>
మేనేజ్
మేనేజ్మెంట్</w>
మేమ
మేమంటే</w>
మేమంతా</w>
మేమీ</w>
మేము</w>
మేర</w>
మేరకు</w>
మేలి
మేలిమి</w>
మేలో</w>
మేల్
మేల్కొ
మేల్కొనే</w>
మేష
మేషరాశి</w>
మేస్ట
మేస్టారు</w>
మై
మై</w>
మైంది</w>
మైగ్ర
మైగ్రే
మైగ్రేన్</w>
మైదానం</w>
మైదుక
మైదుకూరు</w>
మైన
మైన</w>
మైనస్</w>
మైనార
మైనారిటీ
మైనారిటీల</w>
మైనార్ట
మైనార్టీ
మైనార్టీలకు</w>
మైపోయింది</w>
మైసూర
మైసూరులోని</w>
మొ
మొండ
మొండిగా</w>
మొక్క
మొక్క</w>
మొక్కజొన్న</w>
మొక్కను</w>
మొక్కల</w>
మొక్కలు</w>
మొగ్గ
మొగ్గు</w>
మొజా
మొజాంబ
మొజాంబిక్</w>
మొట్ట
మొట్టమొద
మొట్టమొదటి
మొట్టమొదటిసారి</w>
మొత్త
మొత్తం</w>
మొత్తంగా</w>
మొత్తంలో</w>
మొత్తము</w>
మొత్తానికి</w>
మొత్తాన్ని</w>
మొద
మొద</w>
మొదటి</w>
మొదట్లో</w>
మొదలయ
మొదలయింది</w>
మొదలె
మొదలెట
మొదలెటూరు</w>
మొదలైన
మొదలైనవి</w>
మొదలై
మొదలైంది</w>
మొదలైన
మొదలైన</w>
మొదలైనవారు</w>
మొదలైనవి</w>
మొన్నే
మొన్నేమో</w>
మొబ
మొబైల్</w>
మొస
మొసలి</w>
మో
మో</w>
మోక్ష
మోక్షాన్ని</w>
మోగ
మోగించాడు</w>
మోటార్
మోటార్</w>
మోటార్సై
మోటార్సైక
మోటార్సైకిల్</w>
మోడ
మోడల్</w>
మోడళ్ల</w>
మోడీ</w>
మోడ్</w>
మోదీ
మోదీ</w>
మోదీతో</w>
మోదీయ
మోదీయే</w>
మోదు</w>
మోషన్</w>
మోస
మోసం</w>
మోసాల</w>
మోస్త
మోస్తరుగా</w>
మోహ
మోహన
మోహనరావు</w>
మోహన్</w>
మౌ
మౌత
మౌతోంది</w>
మౌన
మౌనికార
మౌనికారెడ్డి</w>
మౌల
మౌలిక</w>
మ్
మ్</w>
మ్మ
మ్మ</w>
మ్మార
మ్ము
మ్య
మ్యా
మ్యాగ
మ్యాగజైన్</w>
మ్యాచ
మ్యాచు</w>
మ్యాచుల్లో</w>
మ్యాచ్</w>
మ్యాజిక్</w>
మ్యార
మ్యారి
మ్యారిగో
మ్యారిగోల్డ్</w>
మ్యారే
మ్యారేజీ</w>
మ్యూ
మ్యూజిక్</w>
మ్ర
య
య</w>
యం</w>
యంగా</w>
యంగ్</w>
యంత్ర
యంత్రాన్ని</w>
యంత్రాలను</w>
యంలో</w>
యంలోకి</w>
యంలోనే</w>
యజమా
యజమానిని</w>
యథా
యథాత
యథాతథ
యథాతథంగా</w>
యనమ
యనమల</w>
యన్</w>
యస్</w>
యా
యా</w>
యాంకర
యాంకర్</w>
యాంకర్ల
యాంకర్లకు</w>
యాంట
యాంటీ
యాంటీ</w>
యాంటీఆక్సిడెంట్</w>
యాక్టర్</w>
యాక్టివ్</w>
యాక్సి
యాక్సిడెంట్</w>
యాజమా
యాజమాన్యం</w>
యాత్ర
యాత్రను</w>
యాత్రలో</w>
యాదా
యాదాద్రి</w>
యాని
యాన్ని</w>
యాప
యాపిల్</w>
యాప్</w>
యామ
యామీ</w>
యార్
యార్డు</w>
యావత్</w>
యి
యి</w>
యింగ్</w>
యింది</w>
యిన</w>
యిన్</w>
యిర్</w>
యిల్</w>
యు
యు</w>
యుడు</w>
యుద్ధ
యుద్ధ</w>
యుద్ధం</w>
యుద్ధభూమి
యుద్ధభూమిలో</w>
యువ
యువ</w>
యువకుడు</w>
యువకులు</w>
యువత</w>
యువతను</w>
యువతరం</w>
యువతలో</w>
యువతి</w>
యువరాణ
యువరాణి</w>
యూ
యూ</w>
యూఏ</w>
యూజీ
యూజీబీ
యూజీబీఎల్</w>
యూని
యూనిట్</w>
యూనిట్ల</w>
యూనిట్లు</w>
యూనీ</w>
యూప
యూపీ
యూపీ</w>
యూపీకి</w>
యూర
యూరప్</w>
యూరోప
యూరోపియన్</w>
యొక్క</w>
యో
యోగ
యోగ</w>
యోగమ
యోగములోకి</w>
యోగా
యోగా</w>
యోగానికి</w>
యోగాపై</w>
యోగాస
యోగాసనాల</w>
యోగిని</w>
యోగులకు</w>
యోగులు</w>
యోగులుగా</w>
యోజ
యోధ
య్య
య్య</w>
య్యాక</w>
య్యాయి</w>
య్యారు</w>
ర
ర</w>
రం</w>
రంగ
రంగం</w>
రంగంలో</w>
రంగంలోకి</w>
రంగరాజ
రంగరాజపురం</w>
రంగస్థ
రంగస్థలం</w>
రంగా</w>
రంగానికి</w>
రంగారా
రంగారావు</w>
రంగారావ్</w>
రంగారెడ్డి</w>
రంగు</w>
రకం</w>
రకర
రకరకాల</w>
రకాల
రకాలే
రకాలేవీ</w>
రకు</w>
రక్
రక్త
రక్త</w>
రక్తం</w>
రక్తమోడ
రక్తమోడుతూ</w>
రక్ష
రక్షణ</w>
రక్షించ
రక్షించబడింది</w>
రక్షించేందుకు</w>
రక్షిత</w>
రక్షిస్త
రక్షిస్తూ
రక్షిస్తూంది</w>
రగ
రఘ
రఘు
రఘునాథ
రఘునాథపల్లిలో</w>
రచ
రచనా</w>
రచయ
రచయిత
రచయిత</w>
రచయితగా</w>
రచయితల
రచయితల</w>
రచయితలు</w>
రచయితలుగా</w>
రచయితల్లో</w>
రచ్చ
రచ్చ</w>
రచ్చకెక్కాయి</w>
రచ్చబండ</w>
రజ
రజనీ
రజనీకాంత్</w>
రత్
రత్న</w>
రద్ద
రద్దీ</w>
రద్దు</w>
రన
రనప్</w>
రన్న</w>
రమ
రమేష్</w>
రళ
రవ
రవా
రవాణా</w>
రవాణాకు</w>
రవి</w>
రవిక</w>
రవీ
రవీందర్</w>
రష్
రష్మీ</w>
రసాయ
రసాయన
రసాయనశాస్త్రం</w>
రహ
రహదారి</w>
రహస్
రహస్య
రహస్య</w>
రహస్యం</w>
రహస్యమే</w>
రా
రా</w>
రాం
రాంసాగర్</w>
రాక
రాక</w>
రాకతో</w>
రాకపోయ
రాకపోయే
రాకపోయేసర
రాకపోయేసరికి</w>
రాకే
రాకేష్</w>
రాక్</w>
రాక్ష
రాక్షసు
రాక్షసుని</w>
రాగల</w>
రాఘ
రాఘవే
రాఘవేంద్ర
రాఘవేంద్రస్వా
రాఘవేంద్రస్వామి
రాఘవేంద్రస్వామిగా</w>
రాజ
రాజంపేట</w>
రాజకీ
రాజకీయ
రాజకీయ</w>
రాజకీయం</w>
రాజకీయంగా</w>
రాజకీయాల</w>
రాజకీయాలపై</w>
రాజకీయాలు</w>
రాజకీయాల్లో</w>
రాజధాన
రాజధాని</w>
రాజధానుల</w>
రాజధానులను</w>
రాజలింగ
రాజలింగం</w>
రాజశేఖ
రాజశేఖర</w>
రాజశేఖర్</w>
రాజస్థాన్</w>
రాజా
రాజా</w>
రాజాసింగ్</w>
రాజీ
రాజీ</w>
రాజీనా
రాజీనామాతో</w>
రాజీవ్</w>
రాజు</w>
రాజుగ
రాజుగారి</w>
రాజుతో</w>
రాజే
రాజేందర్</w>
రాజేష్</w>
రాజ్</w>
రాజ్య
రాజ్యంలో</w>
రాజ్యమే
రాజ్యమేల
రాజ్యమేలుత
రాజ్యమేలుతోంద
రాజ్యమేలుతోందంటూ</w>
రాజ్యాన్ని</w>
రాడ
రాడమ్మ
రాడమ్మా</w>
రాడు</w>
రాణ
రాణా</w>
రాణాకు</w>
రాణించ
రాణించ</w>
రాణించాడు</w>
రాణిస్తూ</w>
రాత</w>
రాత్ర
రాత్రి</w>
రాద
రాదన్నారు</w>
రాధిక</w>
రాన
రానా</w>
రానుండగా</w>
రానుంది</w>
రానున్న</w>
రాబడుతున్న</w>
రాబాద్</w>
రాబోత
రాబోతున్న
రాబోతున్నాయని</w>
రాబోతోంది</w>
రాబోతోన్న
రాబోతోన్నది</w>
రాబోయే</w>
రామ
రామ</w>
రామకృష్ణ
రామకృష్ణారె
రామకృష్ణారెడ్
రామకృష్ణారెడ్డి
రామకృష్ణారెడ్డిలకు</w>
రామకృష్ణుడు</w>
రామచంద్ర
రామచంద్రారెడ్డి</w>
రామనగర</w>
రామనాథ్</w>
రామలింగరాజు</w>
రామాన
రామానాయ
రామానాయుడు</w>
రామాయ
రామాయణం</w>
రామార
రామారావు</w>
రాము
రాముడికి</w>
రాముడుగా</w>
రాముల
రాములవారి</w>
రామ్</w>
రాయ
రాయడంతో</w>
రాయడానికి</w>
రాయల
రాయలసీ
రాయలసీమ
రాయలసీమ</w>
రాయలసీమకు</w>
రాయల్స్</w>
రాయాలో</w>
రాయి
రాయిటర్</w>
రాయుడు</w>
రార
రార</w>
రారు</w>
రాల
రాల</w>
రాలిగా</w>
రాలు</w>
రాలేదని</w>
రాలేదు</w>
రాళ్లు</w>
రావ
రావ</w>
రావడ
రావడం</w>
రావడము</w>
రావడమే</w>
రావడమ్</w>
రావడానికి</w>
రావాల
రావాలంటూ</w>
రావాలని</w>
రావాలి</w>
రావాల్సింద
రావాల్సిందిగా</w>
రావాల్సిందే
రావాల్సిందేన
రావాల్సిందేనంటూ</w>
రావిప
రావిపూడి</w>
రావు</w>
రావె
రావెళ్ల</w>
రాశ
రాశి</w>
రాశులు</w>
రాష
రాష్ట
రాష్ట్ర
రాష్ట్ర</w>
రాష్ట్రం</w>
రాష్ట్రంలో</w>
రాష్ట్రంలోని</w>
రాష్ట్రపతి</w>
రాష్ట్రప్రభుత్వ
రాష్ట్రప్రభుత్వం</w>
రాష్ట్రప్రభుత్వానికి</w>
రాష్ట్రప్రభుత్వాలు</w>
రాష్ట్రప్రభుత్వాలే</w>
రాష్ట్రవ్యాప్తంగా</w>
రాష్ట్రా
రాష్ట్రా</w>
రాష్ట్రానికి</w>
రాష్ట్రాభి
రాష్ట్రాభివృద్ధ
రాష్ట్రాభివృద్ధి</w>
రాష్ట్రాల</w>
రాష్ట్రాలు</w>
రాష్ట్రాల్లో</w>
రాష్ట్రీయ</w>
రాష్ర
రాష్ర్ట</w>
రాసిన</w>
రాసే
రాసేవారు</w>
రాస్</w>
రాహ
రాహిత
రాహిత్య
రాహిత్యమైన</w>
రాహుల్</w>
రాహువు</w>
రి
రి</w>
రింగ్</w>
రించ
రించి</w>
రిక
రికను</w>
రికార్
రికార్డ
రికార్డు
రికార్డు</w>
రికార్డును</w>
రికార్డునే</w>
రికార్డుల
రికార్డులలోకి</w>
రికార్డులు</w>
రికార్డ్
రికార్డ్</w>
రికార్డ్స
రికార్డ్సులోకి</w>
రికార్డ్స్</w>
రికి</w>
రికీ</w>
రికొ
రిక్ర
రిక్రూ
రిక్రూట్</w>
రిక్వ
రిక్వె
రిక్వెస్ట్</w>
రిగ
రిగా</w>
రిగితే</w>
రిచ్</w>
రిజ
రిజక్ట్</w>
రిజర్
రిజర్వే
రిజర్వేష
రిజర్వేషన్లు</w>
రిజర్వ్</w>
రిజల
రిజల్ట్</w>
రిజి
రిజిస్టర్</w>
రిజిస్ట్ర
రిజిస్ట్రేషన్</w>
రిజిస్ట్రేషన్ల</w>
రిన
రిన</w>
రిని</w>
రిన్ని</w>
రిపబ్లిక్</w>
రిపాల</w>
రిపీ
రిపీట్</w>
రిపోర్ట్</w>
రిఫ
రిఫరీ</w>
రియ
రియల్</w>
రియా
రియాక్షన్</w>
రియే
రియేజె
రియేజెంట్స్</w>
రియో</w>
రిలయ
రిలయన్స్</w>
రిలీ
రిలీజ్</w>
రిలో</w>
రివ్య
రివ్యూ</w>
రిష
రిషబ్</w>
రిసో
రిసోర్స్</w>
రిస్తుంది</w>
రిస్థిత
రిస్థితి</w>
రిస్థితే
రిస్థితేంట</w>
రీ
రీ</w>
రీక్ష
రీక్షల</w>
రీజ
రీజియన్</w>
రీడింగ్</w>
రీతిలో</w>
రీన్</w>
రీసె
రీసెర్చ
రీసెర్చర్లు</w>
రు
రు</w>
రుగ
రుగా</w>
రుగుతున్న</w>
రుజ
రుజు
రుజువ
రుజువన్న
రుజువన్నట్లుగా</w>
రుజువైంది</w>
రుణ</w>
రుణాల</w>
రుణ్</w>
రుతు
రుతుద
రుతుదోష
రుతుదోషానికి</w>
రుబా
రుబ్బ
రుబ్బుకోవచ్చు</w>
రులో</w>
రువు</w>
రుసుమ
రుసుములు</w>
రూ
రూ</w>
రూం</w>
రూంలో</w>
రూట్</w>
రూప
రూపం</w>
రూపంలో</w>
రూపాయ
రూపాయల</w>
రూపాయి</w>
రూపాల్ల
రూపాల్లే
రూపాల్లేకుండా</w>
రూపు</w>
రూపొంద
రూపొందించారు</w>
రూపొందించాలని</w>
రూపొందించిన</w>
రూపొందిస్తాడ
రూపొందిస్తాడా</w>
రూపొందిస్తున్న
రూపొందిస్తున్న</w>
రూపొందిస్తున్నప్పుడు</w>
రూపొందుతుందని</w>
రూమ్</w>
రూలర్</w>
రె
రెంటికి</w>
రెండ
రెండవ</w>
రెండి
రెండింట
రెండింటికీ</w>
రెండిటి</w>
రెండు</w>
రెండే
రెండేండ
రెండేండ్లలో</w>
రెండేళ్ల</w>
రెండేళ్లు</w>
రెండో</w>
రెగ్య
రెగ్యుల
రెగ్యులర్</w>
రెచ్చిపోయ
రెచ్చిపోయాడు</w>
రెజీ
రెజీనా</w>
రెట్లు</w>
రెడీ</w>
రెడ్
రెడ్డ
రెడ్డి</w>
రెడ్డికి</w>
రెడ్డిని</w>
రెమ్య
రెమ్యున
రెమ్యునరేషన్</w>
రెవర
రెవెన్యూ</w>
రెస్
రెస్ట
రెస్టారె
రెస్టారెంట్లు</w>
రెస్పా
రెస్పాన్స్</w>
రై
రైడర్</w>
రైలు</w>
రే
రే</w>
రేంద్ర</w>
రేగ
రేగింది</w>
రేగొండ
రేగొండ</w>
రేగొండకు</w>
రేటు</w>
రేట్</w>
రేట్లను</w>
రేణ
రేణుక
రేణుకమ్మ</w>
రేప
రేపు</w>
రేపుతోంది</w>
రేవ
రేవంత్</w>
రేవడి</w>
రేషన్</w>
రై
రైంది</w>
రైజర్</w>
రైటర్</w>
రైటర్ల
రైటర్లుగ
రైటర్లుగానే</w>
రైట్</w>
రైడ
రైడ</w>
రైడర్స్</w>
రైత
రైతన్న
రైతన్నను</w>
రైతా
రైతాంగం</w>
రైతు
రైతు</w>
రైతుపక్ష
రైతుపక్షాన</w>
రైతుల</w>
రైతులకు</w>
రైతులను</w>
రైతులు</w>
రైన</w>
రైనో
రైనోడు</w>
రైనోడుక
రైనోడుకీ</w>
రైఫిల
రైఫిల్స్</w>
రైల
రైల్</w>
రైల్వ
రైల్వే</w>
రొ
రొమా
రొమాన్స్</w>
రో
రో</w>
రోగ
రోగిలో</w>
రోగుల</w>
రోగులకు</w>
రోగుల్లోనే</w>
రోజ
రోజంతా</w>
రోజా</w>
రోజు
రోజు</w>
రోజుకు</w>
రోజున</w>
రోజురోజూ
రోజురోజూకూ</w>
రోజుల</w>
రోజులు</w>
రోజులుగా</w>
రోజుల్లో</w>
రోజూ
రోజూ</w>
రోజూలో</w>
రోజైన</w>
రోజ్</w>
రోడ
రోడ్
రోడ్డు</w>
రోడ్ల
రోడ్లపైకి</w>
రోడ్లు</w>
రోద
రోదన</w>
రోనా</w>
రోప
రోమంత్రి</w>
రోల్</w>
రోవ</w>
రోవర్</w>
రోశ
రోశయ్య</w>
రోహిత
రోహిత్</w>
రౌ
రౌతే
రౌతేలా</w>
ర్
ర్</w>
ర్కార్</w>
ర్కొ
ర్గ
ర్గాలు</w>
ర్చ
ర్చ</w>
ర్జాతీయ</w>
ర్ట్</w>
ర్త</w>
ర్త్</w>
ర్థ
ర్బ్</w>
ర్భ
ర్భంగా</w>
ర్మ
ర్మ</w>
ర్య
ర్యంగా</w>
ర్యా
ర్యాంకొ
ర్యాంకొచ్చ
ర్యాంకొచ్చింద
ర్యాంకొచ్చిందనే</w>
ర్యాన్ని</w>
ర్ర
ర్ల
ర్ల</w>
ర్లు</w>
ర్వ
ర్వాత</w>
ర్వులు</w>
ర్శ
ర్శ</w>
ర్శక</w>
ర్శి</w>
ర్ష
ర్స్</w>
ల
ల</w>
లం
లం</w>
లంక
లంకలో</w>
లంకే
లంకేయ
లంకేయులపై</w>
లంకేశ్</w>
లంగా</w>
లండ
లండన్</w>
లంలో</w>
లకు</w>
లకే</w>
లక్</w>
లక్క
లక్కీ</w>
లక్ష
లక్షణ
లక్షణంగా</w>
లక్షణాలను</w>
లక్షణాలు</w>
లక్షద్వీ
లక్షద్వీప
లక్షద్వీపములకు</w>
లక్షద్వీపములో</w>
లక్షల</w>
లక్షలకు</w>
లక్షలు</w>
లక్షా</w>
లక్ష్
లక్ష్మ
లక్ష్మణ్</w>
లక్ష్మీ
లక్ష్మీనారాయణ</w>
లక్ష్మీప్ర
లక్ష్మీప్రణ
లక్ష్మీప్రణతి</w>
లక్ష్య
లక్ష్య</w>
లక్ష్యం</w>
లక్ష్యంగా</w>
లగ్
లగ్నం</w>
లగ్నంలో</w>
లగ్నా
లగ్నాదిగా</w>
లతో</w>
లను</w>
లపై</w>
లభ
లభించాయి</w>
లభించింది</w>
లభిస్తుంది</w>
లయ
లర్</w>
లలో</w>
లవ
లవుతున్న
లా
లా</w>
లాంగ్</w>
లాంఛ
లాంఛర్లు</w>
లాంట
లాంటి</w>
లాంటిది</w>
లాండ్</w>
లాక్</w>
లాగా</w>
లాగి
లాగిన్</w>
లాట్</w>
లాత్</w>
లాన్ని</w>
లాబ్</w>
లాభ
లాభం</w>
లాభద
లాభదాయ
లాభదాయకం</w>
లాభమే
లాభమేనని</w>
లాభరహ
లాభరహిత</w>
లాభాల</w>
లాభాలుగా</w>
లాయ
లాయర్లు</w>
లారీ
లారీ</w>
లారీని</w>
లారె
లారెన్స్</w>
లాల
లాలూ
లాలూ</w>
లాలూచీ</w>
లావిష
లావిష్</w>
లాహో
లాహోర్</w>
లి
లి</w>
లింక
లింకు
లింకుపై</w>
లింకుల</w>
లింగ
లింగరాజు</w>
లింగసముద్ర
లింగసముద్రంలో</w>
లింగాల
లింగాలఘన
లింగాలఘనపురంలో</w>
లింగ్</w>
లించారు</w>
లింప
లిక
లిటిక
లిటికల్</w>
లిమి
లిమిటె
లిమిటెడ్</w>
లియా
లియా</w>
లియాఖ
లియాఖత్</w>
లివర్</w>
లిసి</w>
లిస్ట
లిస్టులో</w>
లీ
లీక
లీకరణ</w>
లీకై
లీకైంది</w>
లీకైపోయింది</w>
లీక్</w>
లీగ
లీగలైజేషన్</w>
లీటర్</w>
లీడ్</w>
లు
లు</w>
లుక్</w>
లువ
లూరు</w>
లె
లెక్క
లెక్క</w>
లెక్కలు</w>
లెక్కి
లెక్కింప
లెక్కింపు</w>
లెక్కింపుకు</w>
లెజె
లెజెండ్</w>
లెఫ్ట్</w>
లెవల్</w>
లెవెల
లెవెల్స్</w>
లెస్</w>
లే
లే</w>
లేక
లేక</w>
లేకపో
లేకపోతే</w>
లేకపోయ
లేకపోయిన</w>
లేకపోయినా</w>
లేకపోలేదు</w>
లేకపోవ
లేకపోవటం</w>
లేకపోవడం</w>
లేకపోవడంతో</w>
లేకుండ
లేకుండా</w>
లేకుండానే</w>
లేఖ</w>
లేచి</w>
లేటెస్ట్</w>
లేడ
లేడీ</w>
లేడు</w>
లేడో</w>
లేద</w>
లేదని</w>
లేదా</w>
లేదు</w>
లేనట
లేనటువ
లేనటువంటి</w>
లేని
లేని</w>
లేనిదే</w>
లేనివిధంగా</w>
లేరన్న</w>
లేరు</w>
లేవ
లేవని</w>
లేవనె
లేవనెత్త
లేవనెత్తడం</w>
లేవు</w>
లై
లైంగ
లైంగిక</w>
లైజ
లైజేషన్</w>
లైట్</w>
లైట్లను</w>
లైన్</w>
లైపోయింది</w>
లైఫ్</w>
లైవ్</w>
లొ
లొకే
లొకేషన్</w>
లొచ్చ
లొచ్చాయి</w>
లొసు
లొసుగులు</w>
లో
లో</w>
లోక
లోకంలోనే</w>
లోకల్</w>
లోకసభ
లోకసభ</w>
లోకానికి</w>
లోకి</w>
లోక్</w>
లోగో</w>
లోటు</w>
లోటును</w>
లోడిఎంఆర్</w>
లోడు</w>
లోత
లోతైన</w>
లోన
లోనయ్యారు</w>
లోని</w>
లోనికి</w>
లోను</w>
లోనూ</w>
లోనే</w>
లోన్</w>
లోప
లోపం</w>
లోపమే</w>
లోపల
లోపలికి</w>
లోపాలు</w>
లోపు</w>
లోబడి</w>
లోభ
లోభో</w>
లోయ
లోయలాంటి</w>
లోహ</w>
లోహి
లోహియా</w>
ల్
ల్</w>
ల్చ
ల్ట
ల్డ్</w>
ల్ని</w>
ల్ప
ల్యా
ల్యాండ</w>
ల్యాండర్</w>
ల్యాబ్</w>
ల్ల
ల్లు</w>
ల్లో</w>
ల్లోనూ</w>
ల్లోనే</w>
ల్షన్</w>
ల్స్</w>
ళ
ళ</w>
ళ్
ళ్ల
ళ్ల</w>
ళ్లలో</w>
ళ్లీ</w>
ళ్లు</w>
ళ్లుగా</w>
ళ్లూరు</w>
ళ్ళ
ళ్ళ</w>
ళ్ళు</w>
వ
వ</w>
వం</w>
వంక
వంకాయ</w>
వంచ
వంచన</w>
వంట
వంట</w>
వంటకాల</w>
వంటి</w>
వంత
వంతు</w>
వంతుగా</w>
వంత్</w>
వంద
వందకు</w>
వందనాన్ని</w>
వందల</w>
వందలా
వందలాది
వందలాది</w>
వందలాదిమంద
వందలాదిమందినే
వందలాదిమందినేసుకుని</w>
వందలు</w>
వందో</w>
వంబ</w>
వంశ
వంశీ
వంశీ</w>
వంశీకృష్ణ</w>
వకీ
వకీల్</w>
వగా</w>
వచ్
వచ్చ
వచ్చాడని</w>
వచ్చాడు</w>
వచ్చాను</w>
వచ్చాము</w>
వచ్చాయి</w>
వచ్చి</w>
వచ్చింది</w>
వచ్చిన</w>
వచ్చినప్పుడు</w>
వచ్చినా</w>
వచ్చు</w>
వచ్చే</w>
వచ్చేశ
వచ్చేశాను</w>
వడ
వడలు</w>
వడ్
వడ్డ
వడ్డీ</w>
వడ్డీతో</w>
వణ
వణిక
వణికిస్త
వణికిస్తోన్న</w>
వత్</w>
వదిల
వదిలాడు</w>
వదిలించుకోవటం</w>
వదిలినట్లు</w>
వదుల
వదులుతున్నారు</w>
వద్ద
వద్ద</w>
వద్దకు</w>
వద్దని</w>
వద్దనే</w>
వద్దు</w>
వనర
వనరుల</w>
వనరులు</w>
వని
వని</w>
వనిత</w>
వన్</w>
వయ
వయసుల
వయసులో</w>
వయసులోనే</w>
వయస్సు</w>
వర
వరంగ
వరంగల్</w>
వరకు</w>
వరకూ</w>
వరకే</w>
వరద
వరద</w>
వరదలు</w>
వరప్ర
వరప్రదాత</w>
వరల్డ్</w>
వరస</w>
వరి
వరి</w>
వరిధాన్యం</w>
వరు
వరుస
వరుస</w>
వరుసగా</w>
వరూప
వర్
వర్</w>
వర్కి
వర్కింగ్</w>
వర్క్</w>
వర్గ
వర్గం</w>
వర్గానికి</w>
వర్గాలకు</w>
వర్గాలు</w>
వర్జి
వర్జిన్</w>
వర్తి
వర్తింప
వర్తింప</w>
వర్తింపజే
వర్తింపజేస్తున్న
వర్తింపజేస్తున్నామని</w>
వర్తిస్తుంది</w>
వర్మ</w>
వర్లలో</w>
వర్లు</w>
వర్ష
వర్ష</w>
వర్షం</w>
వర్షన్
వర్షన్</w>
వర్షన్లో</w>
వర్షపాతం</w>
వర్షా
వర్షాకాల</w>
వర్షాలకు</w>
వర్షాలు</w>
వర్సి
వర్సిటీ</w>
వర్సిటీని</w>
వల
వలన</w>
వలనే</w>
వలస</w>
వలసిన</w>
వల్</w>
వల్ల
వల్ల</w>
వల్లనే</w>
వల్లా</w>
వసంత</w>
వసూ
వసూలు</w>
వసూళ్లు</w>
వసే
వస్త
వస్త</w>
వస్తా
వస్తాదును</w>
వస్తాయి</w>
వస్తారని</w>
వస్తు
వస్తు</w>
వస్తుండ
వస్తుండటం</w>
వస్తుండడం</w>
వస్తుంద
వస్తుందని</w>
వస్తుందన్న
వస్తుందన్నది</w>
వస్తుంది</w>
వస్తున్న
వస్తున్న</w>
వస్తున్నట్టు</w>
వస్తున్నాయి</w>
వస్తున్నారు</w>
వస్తువుల</w>
వస్తువులు</w>
వస్తుసేవా</w>
వస్తే</w>
వస్తోందని</w>
వస్తోంది</w>
వస్త్ర
వస్త్రం
వస్త్రంతో</w>
వస్త్రంను</w>
వహ
వహించ
వహించగల
వహించగలడని</w>
వహించడానికి</w>
వహించారు</w>
వహించిందని</w>
వహించిన</w>
వహిస్త
వహిస్తో
వహిస్తోన్నారు</w>
వా
వాం
వాంఖ
వాంఖడే
వాంఖడేపై</w>
వాంగ్</w>
వాంఛ
వాంఛనీ
వాంఛనీయ</w>
వాక్సిన్</w>
వాగు</w>
వాచ్</w>
వాట
వాటన్ని
వాటన్నింట
వాటన్నింటినీ</w>
వాటా</w>
వాటాను</w>
వాటి
వాటి</w>
వాటిని</w>
వాటిపై
వాటిపై</w>
వాటిపైనే</w>
వాటిలో</w>
వాట్
వాట్స
వాట్సప్</w>
వాట్సా
వాట్సాప్</w>
వాడ
వాడాలి</w>
వాడి
వాడిని</w>
వాడీ</w>
వాడు</w>
వాడుకొని</w>
వాడుతూ</w>
వాడేందుకు</w>
వాణి
వాణిజ
వాణిజ్య</w>
వాత</w>
వాతా
వాతావర
వాతావరణ
వాతావరణం</w>
వాతావరణంలో</w>
వాతావరణశాఖ</w>
వాతావరణానికి</w>
వాతావరణాన్ని</w>
వాతే</w>
వాద
వాద</w>
వాదన</w>
వాదనను</w>
వాదో
వాదోప
వాదోపవాద
వాదోపవాదనల</w>
వాన</w>
వాన్ని</w>
వాపోయారు</w>
వాప్తంగా</w>
వామ్మ
వామ్మో</w>
వాయ
వాయి
వాయిదా</w>
వాయిస్</w>
వాయు
వాయుగుండ
వాయుగుండంగా</w>
వాయువ
వాయువులు</w>
వాయువ్య</w>
వార
వారం</w>
వారందరికీ</w>
వారానికి</w>
వారి
వారి</w>
వారిక
వారికి</w>
వారికే</w>
వారిని</w>
వారిపై</w>
వారిరు
వారిరువు
వారిరువురి</w>
వారిలో</w>
వారీగా</w>
వారు</w>
వారుగా</w>
వారె
వారెంట
వారెంటు</w>
వారెవర
వారెవరికీ</w>
వారెవరో</w>
వారే</w>
వారొచ్చ
వారొచ్చి</w>
వార్
వార్త</w>
వార్తలను</w>
వార్తలు</w>
వార్తా
వార్తా</w>
వార్తాంశ
వార్తాంశంలోని</w>
వార్తాపత్ర
వార్తాపత్రిక</w>
వార్నింగ్</w>
వాల
వాలంటీ
వాలంటీర్లు</w>
వాలకం</w>
వాలని</w>
వాలెట్</w>
వాల్య
వాల్యూ</w>
వాళ్ల
వాళ్ల</w>
వాళ్లందరికీ</w>
వాళ్లకి</w>
వాళ్లనే</w>
వాళ్లు</w>
వాళ్ళు</w>
వాస
వాసన
వాసన</w>
వాసనలా</w>
వాసానికి</w>
వాసులకు</w>
వాస్త
వాస్తవ
వాస్తవం</w>
వాస్తవరూప
వాస్తవరూపం</w>
వాస్తవానికి</w>
వాహ
వాహకన
వాహకనౌక</w>
వాహనమ
వాహనమూ</w>
వాహనాలను</w>
వాహనాలు</w>
వాహి
వాహిని</w>
వాహినీ</w>
వి
వి</w>
వింట
వింటేనే</w>
విండీ
విండీస్</w>
వింత</w>
వింద
విందు
విందువినోద
విందువినోదాలు</w>
విక
వికి</w>
వికృ
వికృత</w>
వికె
వికెట్లను</w>
వికెట్లు</w>
విక్ట</w>
విక్ర
విక్రమ్</w>
విక్రయ
విక్రయం</w>
విక్రయించ
విక్రయించడానికి</w>
విక్రయించాలంటే</w>
విక్రయిస్తూ</w>
విఖ్యా
విఖ్యాత్</w>
విగ్రహ
విగ్రహం</w>
విగ్రహాన్ని</w>
విగ్రహాలను</w>
విగ్రహాలపై</w>
విచార
విచార</w>
విచారణ</w>
విచారణలో</w>
విచారించారు</w>
విచారించి</w>
విచారించిన</w>
విచిత్రం</w>
విచ్చ
విచ్చి
విచ్చిన్న
విచ్చిన్నం</w>
విజ
విజ</w>
విజన్</w>
విజయ
విజయ</w>
విజయం</w>
విజయంతో</w>
విజయకాంత్</w>
విజయకుమార్</w>
విజయకృష్ణ</w>
విజయనగర</w>
విజయవాడ
విజయవాడలోనూ</w>
విజయానికి</w>
విజయాలను</w>
విజయ్</w>
విజృ
విజృంభ
విజృంభణ
విజృంభణ</w>
విజృంభణకు</w>
విజృంభిస్తున్న</w>
విజృంభిస్తోంది</w>
విజే
విజేత</w>
విజ్
విజ్ఞ
విజ్ఞత</w>
విడ
విడతల</w>
విడతలో</w>
విడదీయ
విడదీయలేని
విడదీయలేనివి</w>
విడా
విడాకులు</w>
విడి
విడిచ
విడిచారు</w>
విడిపోయా
విడిపోయాక</w>
విడిపోయిందని</w>
విడియో
విడియోలు</w>
విడు
విడుద
విడుద</w>
విడుదల</w>
విడుదలవుతున్న
విడుదలవుతున్నాడని</w>
విడుదలై
విడుదలైంది</w>
విడుదలైన</w>
విడ్</w>
విత
వితంత
వితంతువుల</w>
వితే
వితేజ</w>
విదానం</w>
విదేశ
విదేశా
విదేశాంగ</w>
విద్య
విద్యా</w>
విద్యార్థ
విద్యార్థిగా</w>
విద్యార్థిని</w>
విద్యార్థులకు</w>
విద్యార్థులు</w>
విద్యార్ధ
విద్యార్ధులను</w>
విద్యార్ధులు</w>
విద్యుత
విద్యుత్
విద్యుత్</w>
విద్యుత్తు</w>
విధ
విధంగా</w>
విధమైన</w>
విధాన</w>
విధానం</w>
విధించ
విధించారు</w>
విధించుకున్న</w>
విధివిధ
విధివిధాన
విధివిధానాల</w>
విధ్వ
విధ్వం
విధ్వంస
విధ్వంస</w>
విధ్వంసం</w>
విధ్వంసంలో</w>
విధ్వంసానికి</w>
విన
వినటం</w>
వినతి
వినతిపత్రం</w>
వినయంగా</w>
విని
విని</w>
వినిప
వినిపించడంతో</w>
వినిపించాయి</w>
వినిపించింది</w>
వినిపిస్తోంది</w>
వినియోగ
వినియోగం</w>
వినియోగంపై</w>
వినియోగంలో</w>
వినియోగదార
వినియోగదారుల</w>
వినియోగాలు</w>
వినియోగించే</w>
వినో
వినోద
వినోదరంగానికి</w>
విన్న
విన్న</w>
విన్నవ
విన్నవించుకోండి</w>
విన్నాను</w>
విప
విపక్ష
విపక్షనేత</w>
విపక్షాలు</w>
విపత్
విపత్కర</w>
విపరీ
విపరీత
విపరీతమైన</w>
విప్</w>
విప్పింది</w>
విప్ల
విప్లవా
విప్లవాత్మక</w>
విఫ
విఫలం</w>
విభ
విభ</w>
విభజన</w>
విభాగ
విభాగం</w>
విభాగంలో</w>
విభాగాలుగా</w>
విభిన్న</w>
విభేద
విభేదాలు</w>
విమ
విమర్శ
విమర్శల</w>
విమర్శలు</w>
విమర్శించారు</w>
విమాన</w>
విరమ
విరమించ
విరమించుకున్నారు</w>
విరు
విరుచ
విరుచుకు
విరుచుకుపడ
విరుచుకుపడట
విరుచుకుపడటం
విరుచుకుపడటంలాంటి</w>
విరుచుకుపడ్డారు</w>
విలా
విలాస
విలాసవంత
విలాసవంతమైన</w>
విలాసాలకు</w>
విలీ
విలీనం</w>
విలువ
విలువ</w>
విలువను</w>
వివ
వివ</w>
వివక్త</w>
వివర
వివరంగా</w>
వివరణ</w>
వివరాల్లోకి</w>
వివరి
వివరించ
వివరించారు</w>
వివరించేందుకు</w>
వివరించేలా</w>
వివరిస్తుంది</w>
వివా
వివాద
వివాదం</w>
వివాదా
వివాదానికి</w>
వివాదాలెన్నో</w>
వివాదాస్ప
వివాదాస్పద</w>
వివాహం</w>
వివిధ
వివిధ</w>
విశ
విశాఖ
విశాఖ</w>
విశాఖప
విశాఖపట్నం</w>
విశాఖలో</w>
విశాల్</w>
విశి
విశిష్ట
విశిష్ట</w>
విశిష్టతను</w>
విశేష
విశేషం</w>
విశేషాలను</w>
విశ్ల
విశ్లేష
విశ్లేషణ</w>
విశ్లేషణలు</w>
విశ్లేషణా
విశ్లేషణాత్మ
విశ్లేషణాత్మకంగా</w>
విశ్లేషించిన</w>
విశ్వ
విశ్వ</w>
విశ్వవిద్య
విశ్వవిద్యాలయ
విశ్వవిద్యాలయం</w>
విశ్వవిద్యాలయంలో</w>
విశ్వవిద్యాలయానికి</w>
విశ్వవ్యాప్తంగా</w>
విష
విష</w>
విషం</w>
విషయ
విషయం</w>
విషయంపై</w>
విషయంలో</w>
విషయమే</w>
విషయమై</w>
విషయానికి</w>
విషయాన్ని</w>
విషయాలను</w>
విషయాలు</w>
విషయాల్ల
విషయాల్లో
విషయాల్లోఒక</w>
విషె
విషెష్</w>
విష్
విష్ణ
విష్ణున
విష్ణునామ</w>
విష్ణువ
విష్ణువర్
విష్ణువర్దన్</w>
విష్య</w>
విసుర
విసురుతోంది</w>
విస్
విస్త
విస్తరి
విస్తరించి</w>
విస్తరిస్తుంది</w>
విస్తరిస్తున్న</w>
విస్మ
విస్మయ</w>
విస్మర
విస్మరించ
విస్మరించబడిన</w>
విస్మరించి</w>
విహ
విహహం</w>
వీ
వీ</w>
వీటితో</w>
వీటిని</w>
వీట్</w>
వీడియో
వీడియో</w>
వీడియోను</w>
వీడియోపై</w>
వీర
వీరంతా</w>
వీరబ్రహ్
వీరబ్రహ్మ
వీరబ్రహ్మం</w>
వీరా
వీరాభి
వీరాభిమాన
వీరాభిమానుల
వీరాభిమానులున్నారు</w>
వీరి</w>
వీరికి</w>
వీరిని</w>
వీరిలో</w>
వీర్రా
వీర్రాజు</w>
వీల
వీలవ
వీలవుతుంది</w>
వీలుందని</w>
వీలులే
వీలులేకుండా</w>
వీలై
వీలైనంత</w>
వీల్ల
వీల్లేదని</w>
వీవో</w>
వు
వు</w>
వుంటాయి</w>
వుంటారు</w>
వుంటూ</w>
వుండ
వుండదని</w>
వుండును</w>
వుడ్</w>
వుతాయి</w>
వుతు
వుతుంద</w>
వున్న
వున్న</w>
వున్నచో</w>
వున్నది</w>
వున్నాయి</w>
వున్నారు</w>
వుల</w>
వూ
వూహాన్</w>
వృ
వృక్క
వృక్కద్రో
వృక్కద్రోణ
వృక్కద్రోణి</w>
వృత్తి</w>
వృథ
వృథాను</w>
వృద్
వృద్ద
వృద్దులు</w>
వృద్ధ
వృద్ధ</w>
వృద్ధా
వృద్ధాశ్రమ
వృద్ధాశ్రమం</w>
వృద్ధిని</w>
వృద్ధులు</w>
వృధా</w>
వృష
వృషణ</w>
వె
వెంక
వెంక</w>
వెంకట
వెంకటేశ్వ
వెంకటేశ్వర్లు</w>
వెంకటేష్</w>
వెంకట్</w>
వెంకట్ర
వెంకట్రామ
వెంకట్రామారావు</w>
వెంకీ</w>
వెంట
వెంటనే</w>
వెంటాడ
వెంటాడుతోంది</w>
వెంటిల
వెంటిలేట
వెంటిలేటర్ల
వెంటిలేటర్లను</w>
వెండి</w>
వెచ్చ
వెచ్చని</w>
వెతిక
వెతికాను</w>
వెతుక
వెతుకులా
వెతుకులాట</w>
వెద
వెదిక
వెదికి
వెదికిప</w>
వెదు
వెదురు</w>
వెన
వెనక
వెనక</w>
వెనకంజలో</w>
వెనకపడి
వెనకపడిపోయారు</w>
వెనకబ
వెనకబడి
వెనకబడిపోయారు</w>
వెనక్క
వెనక్కి</w>
వెనక్కుత
వెనక్కుతగ్గ
వెనక్కుతగ్గాడు</w>
వెని
వెనిగర్</w>
వెనుక
వెనుక</w>
వెనుకబడిన</w>
వెనే
వెనేలి
వెనేలియస్</w>
వెన్య
వెన్యూ</w>
వెబ్</w>
వెయి
వెయిటింగ్</w>
వెయ్య
వెయ్యి</w>
వెరీ</w>
వెరై
వెరైటీ</w>
వెల
వెలగ
వెలగపూ
వెలగపూడిలో</w>
వెలికి</w>
వెలిగ
వెలిగించారు</w>
వెలిగించి</w>
వెలుగ
వెలుగు</w>
వెలుగులోకి</w>
వెలువ
వెలువడుతుందని</w>
వెలువడే</w>
వెల్ల
వెల్ల</w>
వెల్లడ
వెల్లడయ్యాయి</w>
వెల్లడి</w>
వెల్లడించారు</w>
వెల్లడించింది</w>
వెల్లడించిన
వెల్లడించినట్టు</w>
వెల్లడిస్త
వెల్లడిస్తుండటంతో</w>
వెల్లడై
వెల్లడైంది</w>
వెల్లుల్ల
వెల్లుల్లి</w>
వెళ
వెళితే</w>
వెళ్
వెళ్త
వెళ్తా
వెళ్తాడ
వెళ్తాడట</w>
వెళ్తున్నాడు</w>
వెళ్ల
వెళ్లటం</w>
వెళ్లడం</w>
వెళ్లడంతో</w>
వెళ్లదీయ
వెళ్లదీయాల్సి</w>
వెళ్లి
వెళ్లి</w>
వెళ్లింది</w>
వెళ్లిపోయ
వెళ్లిపోయారు</w>
వెళ్లిపోయిన</w>
వెళ్లిపోవ
వెళ్లిపోవాల్సిన</w>
వెళ్లేందుకు</w>
వెళ్లేట
వెళ్లేటప్పుడు</w>
వెళ్ళ
వెళ్ళడానికి</w>
వెళ్ళమని</w>
వెళ్ళవచ్చు</w>
వెళ్ళి</w>
వెసులు
వెసులుబాట్లు</w>
వై
వైద్య</w>
వైపు</w>
వైఫల
వైఫల్యం</w>
వే
వేంక
వేంకటేశ్వ
వేంకటేశ్వర</w>
వేగ
వేగం</w>
వేగంగా</w>
వేగంతో</w>
వేగవంత
వేగవంతం</w>
వేగవంతమైన</w>
వేట
వేటు</w>
వేటుకు</w>
వేట్</w>
వేడి
వేడి</w>
వేడినీటిలో</w>
వేడుక
వేడుక</w>
వేడుకకు</w>
వేడుకని</w>
వేడుకను</w>
వేడుకలకు</w>
వేడుకలను</w>
వేడుకలో</w>
వేడుకల్ని</w>
వేత</w>
వేతన
వేతనాలు</w>
వేత్త
వేత్తలు</w>
వేద
వేద</w>
వేదనే</w>
వేదిక
వేదిక</w>
వేదికగా</w>
వేదికలకు</w>
వేధ
వేధి
వేధింపులు</w>
వేపంప
వేపంపట్టి</w>
వేయ
వేయడానికి</w>
వేయాలని</w>
వేయించడానికి</w>
వేయించి</w>
వేరు
వేరుప</w>
వేరే</w>
వేరొ
వేరొకర
వేరొకరికి</w>
వేర్లు</w>
వేల</w>
వేలంలో</w>
వేలా
వేలాది</w>
వేలు
వేలు</w>
వేలుసుకుని</w>
వేళ</w>
వేశ
వేశారని</w>
వేశారు</w>
వేస
వేసాయ
వేసాయని</w>
వేసారు</w>
వేసి</w>
వేసింది</w>
వేసిన</w>
వేసుకుని</w>
వేసుకున్న
వేసుకున్న</w>
వేసుకున్నాడ
వేసుకున్నాడనే</w>
వేసుకున్నాడు</w>
వేసుకోవచ్చు</w>
వేసే
వేసేస
వేసేసుకుంటున్న
వేసేసుకుంటున్నాడని</w>
వేస్త
వేస్తామని</w>
వేస్తున్నాడు</w>
వేస్తూ</w>
వేస్తోంది</w>
వై
వై</w>
వైంది</w>
వైఎస్
వైఎస్</w>
వైఎస్ఆర్</w>
వైఎస్సార్</w>
వైకా
వైకాపాల
వైకాపాలోకి</w>
వైఖ
వైఖ</w>
వైఖరి
వైఖరి</w>
వైఖరిపై</w>
వైఖా
వైఖాస
వైఖాసను
వైఖాసనుడనే</w>
వైదొ
వైదొల
వైదొలగ
వైదొలగాలని</w>
వైద్య
వైద్య</w>
వైద్యా
వైద్యాధ
వైద్యాధిక
వైద్యాధికారి</w>
వైద్యులు</w>
వైన</w>
వైప
వైపు</w>
వైపే</w>
వైఫై</w>
వైఫ్</w>
వైబ్ర
వైబ్రంట్</w>
వైభవ
వైభవంగా</w>
వైయస్</w>
వైర
వైర</w>
వైరల్</w>
వైరస్</w>
వైర్</w>
వైవి
వైవిద్య</w>
వైవీ</w>
వైసి
వైసిప
వైసిపికి</w>
వైసీపీ</w>
వైస్
వైస్స
వైస్సార్
వైస్సార్సీ
వైస్సార్సీపీలోకి</w>
వో</w>
వోకి</w>
వ్</w>
వ్య
వ్య</w>
వ్యక్
వ్యక్త
వ్యక్తం</w>
వ్యక్తంచ
వ్యక్తంచేశారు</w>
వ్యక్తమ
వ్యక్తమయ్యాయి</w>
వ్యక్తి
వ్యక్తి</w>
వ్యక్తిగత</w>
వ్యక్తిని</w>
వ్యక్తీ
వ్యక్తీకరణలు</w>
వ్యక్తుల</w>
వ్యతిరే
వ్యతిరేక
వ్యతిరేక</w>
వ్యతిరేకంగా</w>
వ్యతిరేకత</w>
వ్యతిరేకి
వ్యతిరేకిస్త
వ్యతిరేకిస్తాం</w>
వ్యతిరేకిస్తున్నాయి</w>
వ్యవ
వ్యవధ
వ్యవధి</w>
వ్యవధిలో</w>
వ్యవధిలోనే</w>
వ్యవసాయ
వ్యవసాయ</w>
వ్యవసాయం</w>
వ్యవస్థ
వ్యవస్థ</w>
వ్యవస్థకు</w>
వ్యవస్థగా</w>
వ్యవస్థతో</w>
వ్యవస్థలు</w>
వ్యవస్థాప
వ్యవస్థాపకుడు</w>
వ్యవహ
వ్యవహరి
వ్యవహరించ
వ్యవహరించడంతో</w>
వ్యవహరించి</w>
వ్యవహరిస్తే</w>
వ్యవహార
వ్యవహారం</w>
వ్యవహారంలోనూ</w>
వ్యవహారాల</w>
వ్యవహారాలకు</w>
వ్యా
వ్యాక్సి
వ్యాక్సిన్</w>
వ్యాక్సిన్స్</w>
వ్యాఖ్య
వ్యాఖ్యలను</w>
వ్యాఖ్యలపై</w>
వ్యాఖ్యలు</w>
వ్యాఖ్యలే</w>
వ్యాఖ్యల్ని</w>
వ్యాఖ్యా
వ్యాఖ్యానించ
వ్యాఖ్యానించాడు</w>
వ్యాఖ్యానించారు</w>
వ్యాట్</w>
వ్యాధ
వ్యాధి</w>
వ్యాధుల</w>
వ్యాప
వ్యాపార
వ్యాపార</w>
వ్యాపారం</w>
వ్యాపారంలో</w>
వ్యాపారంలోకి</w>
వ్యాపారుల</w>
వ్యాపారులకు</w>
వ్యాపించాయి</w>
వ్యాపించింది</w>
వ్యాపిస్తుండడంతో</w>
వ్యాప్త
వ్యాప్తంగా</w>
వ్యాప్తి</w>
వ్యాప్తించడం</w>
వ్యాసం</w>
వ్యాసర
వ్యాసరాయ
వ్యాసరాయలు</w>
వ్యాసరాయుల</w>
వ్యూ
వ్యూను</w>
వ్యూహ
వ్యూహాల
వ్యూహాలకి</w>
వ్యూహాలతో</w>
వ్ర
వ్రతం</w>
వ్రతాన్ని</w>
వ్రా
వ్రాయ
వ్రాయాలో</w>
వ్రాసె
వ్రాసెనాడు</w>
వ్వ
వ్వ</w>
శ
శ</w>
శంకర్</w>
శకాన
శకానా
శకానాకి</w>
శక్
శక్తి
శక్తి</w>
శక్తిక
శక్తికా
శక్తికాంత</w>
శక్తినంద
శక్తినందు</w>
శక్తిని</w>
శక్తులు</w>
శత
శతకాలు</w>
శత్ర
శత్రుత
శత్రుత్వం</w>
శత్రువులు</w>
శన
శనగ</w>
శని
శని</w>
శనివారం</w>
శబ్ద
శబ్దాలు</w>
శర
శరణం</w>
శరభయ
శరభయ్య</w>
శరవేగంగా</w>
శరీ
శరీర
శరీరంలో</w>
శరీరంలోని</w>
శరీరశాస్త్ర
శరీరశాస్త్రవేత్తలు</w>
శరీరాలని</w>
శర్మ</w>
శవ
శవాల</w>
శస్త్ర
శస్త్రచికిత్
శస్త్రచికిత్స
శస్త్రచికిత్సకు</w>
శా
శాంతి</w>
శాఖ
శాఖ</w>
శాఖలు
శాఖలుంటాయి</w>
శాఖా
శాఖాపర
శాఖాపరంగా</w>
శాఖామ
శాఖామంత
శాఖామంత్రి</w>
శాటిల
శాటిలైట్</w>
శాటిస్</w>
శాడు</w>
శాతం</w>
శానిటైజ
శానిటైజర్లు</w>
శాయి</w>
శారీ
శారీర
శారీరక</w>
శారు</w>
శాల</w>
శాస
శాసన
శాసన</w>
శాసనమండలి</w>
శాసనసభలో</w>
శాస్త
శాస్త్ర
శాస్త్రం</w>
శాస్త్రీయ</w>
శి
శి</w>
శిక్ష
శిక్షణ</w>
శిక్షిస్త
శిక్షిస్తాడని</w>
శిఖ
శిఖర్</w>
శిబి
శిబిర
శిబిరంపై</w>
శిబిరానికి</w>
శిలా
శిలాఫల
శిలాఫలక
శిలాఫలకంపై</w>
శివ
శివ</w>
శివపార
శివపార్వ
శివపార్వతులు</w>
శివసే
శివసేన</w>
శివసేనపై</w>
శివా
శివాజీ
శివాజీని</w>
శివారు</w>
శిశ
శిశువ
శిశువై
శిశువైద్య
శిశువైద్యుడు</w>
శీ
శీత
శీతలీకరణ</w>
శు
శుక
శుక్ర
శుక్రవారం</w>
శుక్రుడు</w>
శుక్ల</w>
శుద్ధ
శుద్ధమైన</w>
శుభ
శుభకార
శుభకార్య
శుభకార్యం</w>
శుభకార్యాలలో</w>
శుభవార్త</w>
శుభా</w>
శుభ్ర
శుభ్రం</w>
శుభ్రపర
శుభ్రపరచ
శుభ్రపరచుకోవడం</w>
శూ
శూన్య
శూన్యం</w>
శూన్యము</w>
శూన్యానికి</w>
శృ
శృతి
శృతిహా
శృతిహాసన్</w>
శె
శెట్టి</w>
శై
శైలి</w>
శే
శేఖ
శేఖర్</w>
శేష
శేషహ
శేషహల్ల
శేషహల్లికి</w>
శేషాచ
శేషాచలం</w>
శేష్</w>
శై
శైల
శైలిలోనే</w>
శో
శోథ
శోథము</w>
శ్
శ్</w>
శ్చ
శ్చి
శ్చిమ</w>
శ్య
శ్ర
శ్రద్ధ
శ్రద్ధ</w>
శ్రమ
శ్రమ</w>
శ్రా
శ్రావ్య
శ్రావ్యమైన</w>
శ్రీ
శ్రీ</w>
శ్రీకాంత్</w>
శ్రీకారం</w>
శ్రీకృష్ణ
శ్రీకృష్ణదే
శ్రీకృష్ణదేవర
శ్రీకృష్ణదేవరాయ
శ్రీకృష్ణదేవరాయలు</w>
శ్రీచక్ర
శ్రీచక్రము</w>
శ్రీచక్రముగా</w>
శ్రీచక్రాన్ని</w>
శ్రీచక్రార
శ్రీచక్రార్చ
శ్రీచక్రార్చన</w>
శ్రీదేవి</w>
శ్రీధ
శ్రీధర్</w>
శ్రీనాథ్</w>
శ్రీనివా
శ్రీనివాసులు</w>
శ్రీనివాస్</w>
శ్రీను
శ్రీను</w>
శ్రీనునే</w>
శ్రీనువై
శ్రీనువైట్ల</w>
శ్రీప్రసాద్</w>
శ్రీమంత
శ్రీమంతుడు</w>
శ్రీరామ
శ్రీరామ</w>
శ్రీరామనవమి</w>
శ్రీరెడ్డి</w>
శ్రీలంక
శ్రీలంకకు</w>
శ్రీలంకలో</w>
శ్రీవారి</w>
శ్లా
శ్లాబ్</w>
శ్వ
శ్వాస
శ్వాసకో
శ్వాసకోశ</w>
ష
ష</w>
షడ్ర
షడ్రుచ
షడ్రుచల</w>
షన
షనల్</w>
షన్</w>
షరీ
షరీఫ్</w>
షల్</w>
షా
షా</w>
షాక్</w>
షాజ
షాజహాన్</w>
షాట్</w>
షాద్</w>
షాపి
షాపింగ్</w>
షాప్</w>
షార
షారు
షారుఖ
షారుఖ్</w>
షార్ట్</w>
షాలిని</w>
షి
షిప్</w>
షిరి
షిరిడీ
షిరిడీబా
షిరిడీబాబా
షిరిడీబాబాగార
షిరిడీబాబాగారే</w>
షీ
షీ</w>
షీట్</w>
షుగ
షుగర్</w>
షూ
షూటింగ
షూటింగులకు</w>
షూటింగ్</w>
షూట్</w>
షూట్స్</w>
షె
షెడ్యూ
షెడ్యూల్డ్</w>
షే
షేడ్</w>
షేర్</w>
ష్
ష్</w>
ష్ట
ష్ట</w>
ష్టంగా</w>
ష్ఠ
ష్ణ
ష్ణ</w>
ష్ప
ష్లాష్</w>
స
స</w>
సం
సం</w>
సంకల్ప
సంకల్పయాత్ర
సంకల్పయాత్ర</w>
సంకల్పాన్ని</w>
సంకల్పించారు</w>
సంకీ
సంకీర్
సంకీర్తన
సంకీర్తనతో</w>
సంకేత
సంకేతాలు</w>
సంక్రా
సంక్రాంత
సంక్రాంతి</w>
సంక్రాంతికి</w>
సంక్ష
సంక్షే
సంక్షేమ</w>
సంఖ
సంఖ్య
సంఖ్య</w>
సంఖ్యను</w>
సంఖ్యలో</w>
సంఖ్యా
సంఖ్యాశాస్త్రం</w>
సంగ
సంగ</w>
సంగతి</w>
సంగతే
సంగతేమై
సంగతేమైందని</w>
సంగతేమో</w>
సంగారె
సంగారెడ్
సంగారెడ్డి
సంగారెడ్డి</w>
సంగారెడ్డిలో</w>
సంగారెడ్డిలోను</w>
సంగీ
సంగీత
సంగీత</w>
సంగీతం</w>
సంగీతంతో</w>
సంగీతా</w>
సంగీతాన్ని</w>
సంఘ
సంఘం</w>
సంఘమిత్ర</w>
సంఘర్ష
సంఘర్షణ
సంఘర్షణల</w>
సంఘాన్ని</w>
సంఘాలు</w>
సంచ
సంచ</w>
సంచర
సంచరించ
సంచరించుచ
సంచరించుచున్నారు</w>
సంచరించే</w>
సంచల
సంచలన
సంచలన</w>
సంచలనమే</w>
సంచులు</w>
సంచుల్లో</w>
సంత
సంత</w>
సంతా
సంతాపం</w>
సంతృ
సంతృప్త
సంతృప్తి</w>
సంతృప్తిక</w>
సంతోష
సంతోషం</w>
సంద
సంద</w>
సందర్భ
సందర్భంగా</w>
సందర్భంలో</w>
సందర్భాలెన్నో</w>
సందర్భాల్లో</w>
సంది
సందిగ్
సందిగ్ద
సందిగ్దంలో</w>
సందీ
సందీప్</w>
సందే
సందేశా
సందేశాత్మక</w>
సందేహం</w>
సందేహాలను</w>
సందేహాలు</w>
సంధర్
సంధర్బ
సంధర్బంగా</w>
సంప
సంపత్తి
సంపత్తిని</w>
సంపా
సంపాద</w>
సంపూర్
సంపూర్ణ</w>
సంప్ర
సంప్రద
సంప్రదాయాన్ని</w>
సంప్రదించ
సంప్రదించవచ్చు</w>
సంబ
సంబంధ
సంబంధం</w>
సంబంధంలో</w>
సంబంధమ
సంబంధమూ</w>
సంబంధాలు</w>
సంబంధించి</w>
సంబంధించిన
సంబంధించిన</w>
సంబంధించినది</w>
సంబర
సంబరాలకు</w>
సంభవ
సంభవించిన</w>
సంయు
సంయుక్త</w>
సంరక్షణ</w>
సంవ
సంవత్సర
సంవత్సరాల
సంవత్సరాల</w>
సంవత్సరాలపైగా</w>
సంవత్సరాలుగా</w>
సంవత్సరాల్లో</w>
సంశ
సంశ్ల
సంశ్లి
సంశ్లిష్ట</w>
సంస్
సంస్క
సంస్కతీ
సంస్కతీసంప్రద
సంస్కతీసంప్రదాయాలను</w>
సంస్కరణలు</w>
సంస్కారం</w>
సంస్కృతి</w>
సంస్థ
సంస్థ</w>
సంస్థకు</w>
సంస్థను</w>
సంస్థల</w>
సంస్థలకు</w>
సంస్థలను</w>
సంస్థలలో</w>
సంస్థలు</w>
సంస్థాప
సంస్థాపన</w>
సకాలంలో</w>
సక్
సక్సె
సక్సెస్</w>
సక్సెస్ఫ
సక్సెస్ఫుల్</w>
సగ
సగం</w>
సగటు</w>
సజీ
సజీవ
సజీవంగ
సజీవంగానే</w>
సజ్
సజ్జన
సజ్జనార్</w>
సడ
సడల
సడలించి</w>
సడలింప
సడలింపుల</w>
సత
సత్
సత్త
సత్తా</w>
సత్ప్ర
సత్ప్రవర్
సత్ప్రవర్తన</w>
సత్య
సత్యం</w>
సత్యరాజ్</w>
సత్యా
సత్యాగ్రహం</w>
సద
సదరు</w>
సదర్</w>
సదాన
సదానంద
సదానందం</w>
సదానందద
సదానందదంకు</w>
సదుప
సదుపాయ
సదుపాయం</w>
సదుపాయాల</w>
సద్
సద్గురు
సద్గురుడు</w>
సన్</w>
సన్న
సన్న</w>
సన్నగ
సన్నగిల్ల
సన్నగిల్లిన</w>
సన్నద్ధ
సన్నద్ధం</w>
సన్నా
సన్నాహాలు</w>
సన్ని
సన్నివే
సన్నివేశ
సన్నివేశం</w>
సన్నివేశా
సన్నివేశాన్ని</w>
సన్నివేశాలలో</w>
సన్నివేశాలు</w>
సన్నిహిత
సన్నిహితుల</w>
సన్నిహితులతో</w>
సన్నిహితులు</w>
సపో
సపోటా</w>
సపోర్ట్</w>
సప్ప
సప్పె
సప్పెండ్</w>
సబ
సబబ
సబబే</w>
సబ్</w>
సబ్బ
సబ్బుల</w>
సబ్బులను</w>
సభ
సభను</w>
సభలో</w>
సభ్య
సభ్యదేశ
సభ్యదేశాల
సభ్యదేశాలైన</w>
సభ్యుల</w>
సభ్యులతో</w>
సభ్యులు</w>
సమ
సమంత</w>
సమకూర్చ
సమకూర్చడానికి</w>
సమక్ష
సమక్షంలో</w>
సమతుల
సమతుల్య
సమతుల్య</w>
సమతుల్యంలో</w>
సమతుల్యతలో</w>
సమతుల్యము
సమతుల్యమునకు</w>
సమతుల్యములో</w>
సమన్
సమన్వ
సమన్వయ</w>
సమన్వయం</w>
సమయ
సమయం</w>
సమయంలో</w>
సమయంలోనూ</w>
సమయంలోనే</w>
సమయమిదని</w>
సమయానికి</w>
సమయాన్ని</w>
సమర
సమరయోధ
సమరయోధురాలు</w>
సమర్
సమర్థ
సమర్థ</w>
సమర్థంగా</w>
సమర్థి
సమర్థించ
సమర్థించలేదని</w>
సమర్థిస
సమర్థిసూ</w>
సమర్ధ
సమర్ధవంత
సమర్ధవంతంగా</w>
సమర్ప
సమర్పించడంతో</w>
సమస్
సమస్య
సమస్య</w>
సమస్యపై</w>
సమస్యలతో</w>
సమస్యలు</w>
సమస్యల్ని</w>
సమస్యా</w>
సమా
సమాచార
సమాచార</w>
సమాచారం</w>
సమాచారంత
సమాచారంతో</w>
సమాచారంతోనే</w>
సమాచారాన్ని</w>
సమాజ
సమాజ</w>
సమాజంలో</w>
సమాజా
సమాజానికి</w>
సమాజాన్ని</w>
సమాధ
సమాధానం</w>
సమాధానాలు</w>
సమాధి</w>
సమాన
సమాన</w>
సమానం</w>
సమానంగా</w>
సమావేశ
సమావేశం</w>
సమావేశంలో</w>
సమావేశాలు</w>
సమీ
సమీకరణ</w>
సమీకృ
సమీకృత</w>
సమీక్షలు</w>
సమీప
సమీప</w>
సమీపంలో</w>
సమీపంలోని</w>
సమీర్</w>
సముద్ర
సముద్రము</w>
సమూ
సమూహం</w>
సమృ
సమృద్ధ
సమృద్ధిగా</w>
సమే
సమేతంగా</w>
సమ్
సమ్మ
సమ్మే
సమ్మేళ
సమ్మేళనాలు</w>
సమ్మోహ
సమ్మోహనం</w>
సర
సరదా</w>
సరఫ
సరఫర
సరఫరా</w>
సరఫరాను</w>
సరఫరాల</w>
సరయు</w>
సరస
సరసన</w>
సరసమైన</w>
సరస్వ
సరస్వతి</w>
సరా
సరాసరి</w>
సరి
సరి</w>
సరిక
సరికా
సరికాదు</w>
సరికొ
సరికొత్త</w>
సరిగా</w>
సరిగ్
సరిగ్గా</w>
సరిపో
సరిపోకుంటే</w>
సరిహద్ద
సరిహద్దుల్లో</w>
సరుకులు</w>
సరె
సరెండ
సరెండర్</w>
సరైన</w>
సరే</w>
సరైన</w>
సర్
సర్</w>
సర్కార్</w>
సర్టిఫిక
సర్టిఫికెట్</w>
సర్ద
సర్దార్</w>
సర్పంచ
సర్పంచ్</w>
సర్వ
సర్వీ
సర్వీసు</w>
సర్వీసును</w>
సర్వే
సర్వేల
సర్వేలన్ని</w>
సర్వేలో</w>
సర్వోన్నత</w>
సల
సలహా
సలహా</w>
సలహాదార
సలహాదారులను</w>
సలహాపై</w>
సలహాలను</w>
సలార్</w>
సల్
సల్మాన్</w>
సవ
సవర
సవరణ</w>
సవరించాలని</w>
సవలు</w>
సవ్య
సవ్యంగా</w>
ససే
ససేమి
ససేమిరా</w>
సస్పె
సస్పెన్స్</w>
సహ
సహక
సహకర
సహకరి
సహకరించ
సహకరించకపోయ
సహకరించకపోయినా</w>
సహకరించారు</w>
సహకరిస్తుందని</w>
సహకార
సహకార</w>
సహకారం</w>
సహకారంతో</w>
సహచ
సహచర</w>
సహజ
సహజంగా</w>
సహజమైన</w>
సహా</w>
సహాయ
సహాయ</w>
సహాయం</w>
సహాయంతో</w>
సహాయక</w>
సహాయపడుతుంది</w>
సహే
సహేతుక
సహేతుకమైన</w>
సా
సా</w>
సాంబ
సాంబ</w>
సాంబయ్య
సాంబయ్యా</w>
సాక్ష
సాక్షంగా</w>
సాక్షా
సాక్షాత్
సాక్షాత్కరించ
సాక్షాత్కరించగానే</w>
సాక్షి</w>
సాక్షిగా</w>
సాగ
సాగర్</w>
సాగారు</w>
సాగించ
సాగించావ
సాగించావే</w>
సాగించిన</w>
సాగింది</w>
సాగిస్తున్న
సాగిస్తున్నాం</w>
సాగుతామని</w>
సాగుతు
సాగుతుంటుంది</w>
సాగుతుందని</w>
సాగుతున్న</w>
సాగుతున్నాయి</w>
సాగే</w>
సాచ
సాచిన</w>
సాటి</w>
సాదర
సాదరంగా</w>
సాద్</w>
సాధ
సాధన</w>
సాధనం</w>
సాధనను</w>
సాధార
సాధారణ
సాధారణ</w>
సాధారణంగా</w>
సాధారణమవ
సాధారణమవుతోందని</w>
సాధారణమై
సాధారణమైపోయాయి</w>
సాధించ
సాధించలేకపోవడం</w>
సాధించాం</w>
సాధించాడు</w>
సాధించాలంటే</w>
సాధించింది</w>
సాధిస్త
సాధిస్తుంద</w>
సాధ్యం</w>
సాన
సానిటైజ
సానిటైజర్స్</w>
సాను
సానుకూ
సానుకూల</w>
సానుభూ
సానుభూతిని</w>
సాబ్</w>
సామ
సామర్
సామర్ధ్యం</w>
సామా
సామాజ
సామాజిక</w>
సామాన్య
సామాన్య</w>
సామాన్యుల</w>
సామాన్యులు</w>
సామ్రా
సామ్రాజ
సామ్రాజ్యాన్ని</w>
సాయ
సాయం</w>
సాయంత
సాయంత్రం</w>
సాయాన్ని</w>
సాయి</w>
సాయిక
సాయికృష్ణ</w>
సాయిని</w>
సార
సారథ
సారథ్యాన్ని</w>
సారి</w>
సారీ</w>
సార్</w>
సార్క్</w>
సార్లు</w>
సార్వ
సార్వత్ర
సార్వత్రిక</w>
సాస్</w>
సాహ
సాహస
సాహసికులు</w>
సాహిత
సాహితీ
సాహితీమూ
సాహితీమూర్
సాహితీమూర్తులను</w>
సాహిత్య</w>
సాహిత్యం</w>
సాహె
సాహెబ్</w>
సాహో</w>
సి
సి</w>
సిం
సింగ
సింగిల్</w>
సింగ్</w>
సింథ
సింథసిస్</w>
సింద
సింది</w>
సిందే</w>
సింపుల్</w>
సింహ
సింహరాశి</w>
సిఎం</w>
సిఐ</w>
సిఒ
సిఒఎ</w>
సిక
సికి</w>
సిక్కి
సిక్కిం</w>
సిక్కింలో</w>
సిట్</w>
సిద్ద
సిద్ద</w>
సిద్దం</w>
సిద్దన
సిద్దనకి
సిద్దనకిచ్చాయ
సిద్దనకిచ్చాయపల్లెలో</w>
సిద్దిరా
సిద్దిరాం</w>
సిద్ధ
సిద్ధం</w>
సిద్ధంగా</w>
సిద్ధమయ
సిద్ధమయ్యాడు</w>
సిద్ధమవ
సిద్ధమవుతుంది</w>
సిద్ధమవుతున్నారు</w>
సిద్ధమవుతోంది</w>
సిద్ధమైంది</w>
సిద్ధరామ
సిద్ధరామయ్య</w>
సిద్ధిల
సిద్ధిలి
సిద్ధిలింగం</w>
సిన</w>
సిని
సిని</w>
సినిమ
సినిమా
సినిమా</w>
సినిమాకి</w>
సినిమాకు</w>
సినిమాతో</w>
సినిమాను</w>
సినిమాపైన</w>
సినిమాల
సినిమాల</w>
సినిమాలకు</w>
సినిమాలతో</w>
సినిమాలలో</w>
సినిమాలు</w>
సినిమాలో</w>
సినిమాలోని</w>
సినిమాలోనే</w>
సినిమాల్లో</w>
సినీ</w>
సిబ్బంద
సిబ్బంది</w>
సిబ్బందికి</w>
సిబ్బందిని</w>
సిమ
సిమాల</w>
సిమెంట్</w>
సిరీ
సిరీస్</w>
సిస్</w>
సిస్టి
సిస్టిటిస్</w>
సీ
సీ</w>
సీఆర్
సీఆర్</w>
సీఆర్డీ
సీఆర్డీయ
సీఆర్డీయే</w>
సీఎం</w>
సీఎస్</w>
సీఏ
సీఏ</w>
సీఏలో</w>
సీఐ
సీఐడీ</w>
సీక్
సీక్వెల
సీక్వెల్</w>
సీజన్</w>
సీజ్</w>
సీటు</w>
సీట్ల
సీట్ల</w>
సీట్లకు</w>
సీట్లను</w>
సీట్లలో</w>
సీతార
సీతారామ
సీతారామచంద్ర</w>
సీని
సీనియ
సీనియ</w>
సీనియర్</w>
సీనియర్లు</w>
సీన్</w>
సీన్స్</w>
సీపీ</w>
సీయం</w>
సీరియ
సీరియల్</w>
సీరియస్</w>
సీసీ</w>
సీస్</w>
సు
సు</w>
సుంద</w>
సుందర్</w>
సుకు
సుకుని</w>
సుకుమార
సుకుమార్</w>
సుఖ
సుఖీ
సుఖీభ
సుఖీభవ</w>
సుచరి
సుచరిత</w>
సుజ
సుజుక
సుజుకి</w>
సుదీర్ఘ
సుదీర్ఘ</w>
సుదీర్ఘంగా</w>
సుదీర్ఘకాలం</w>
సుద్ద
సుద్దాల</w>
సునీ
సునీల్</w>
సును</w>
సున్న
సున్న</w>
సున్నిత
సున్నితంగా</w>
సున్నితమైన
సున్నితమైనదని</w>
సుప్రీ
సుప్రీం
సుప్రీంకోర్టు</w>
సుబే
సుబేదారి</w>
సుబ్
సుబ్స్ట
సుబ్స్టెన్సు
సుబ్స్టెన్సుస్</w>
సుమ
సుమత
సుమతి</w>
సుమతికి</w>
సుమారు</w>
సుమిత్రుడు</w>
సుర
సురక్ష
సురక్షితంగా</w>
సురేష్</w>
సుల
సుల</w>
సులభ
సులభం</w>
సులభమైన</w>
సులు
సులు</w>
సులువు</w>
సులువైన</w>
సులో</w>
సువి
సువిశాల</w>
సుష
సుషు
సుషుమ్
సుషుమ్న</w>
సుష్
సుష్మా</w>
సూ
సూచ
సూచన</w>
సూచించారు</w>
సూచించింది</w>
సూచిక
సూచికన్నారు</w>
సూచీ
సూచీలను</w>
సూచీలు</w>
సూత్ర
సూత్రం</w>
సూత్రాన్ని</w>
సూప
సూపర్</w>
సూపర్బ్</w>
సూయి</w>
సూర
సూర్య</w>
సూర్యా
సూర్యాపే
సూర్యాపేట</w>
సృష్ట
సృష్టించడం</w>
సృష్టించి</w>
సృష్టించిన</w>
సృష్టించే</w>
సృష్టిస్త
సృష్టిస్తాయని</w>
సృష్టే
సృష్టేనని</w>
సె
సెంచ
సెంచరీ
సెంచరీతో</w>
సెంట
సెంటర్</w>
సెంటర్లు</w>
సెంట్ర
సెంట్రల్</w>
సెంబ
సెక
సెకండ్</w>
సెకన్
సెకన్ల
సెకన్ల</w>
సెకన్లలో</w>
సెకన్లలోనే</w>
సెక్ర
సెక్ర</w>
సెక్రట
సెక్రటరీ</w>
సెక్ష
సెక్షన్ల</w>
సెట్</w>
సెట్ట
సెట్టి
సెట్టింగుల</w>
సెట్లకు</w>
సెన్
సెన్సార్</w>
సెప్టె
సెప్టెంబర్</w>
సెల
సెల</w>
సెలక్టివ్</w>
సెలబ్రిటీల</w>
సెలవు</w>
సెలె
సెలెరియో</w>
సెల్వం</w>
సెషన్</w>
సెస్</w>
సై
సైకి
సైకిళ్ళు</w>
సైన్య
సైన్యం
సైన్యంనకు</w>
సే
సేకర
సేకరించాలని</w>
సేకరించి</w>
సేకరించిన</w>
సేద
సేదతీర
సేదతీరుతోంది</w>
సేన</w>
సేప
సేఫ్</w>
సేల్స్</w>
సేవ
సేవ</w>
సేవక
సేవకుల</w>
సేవల</w>
సేవలను</w>
సేవలు</w>
సేవలో</w>
సేవా</w>
సేవించారు</w>
సేవ్</w>
సై
సైడర్</w>
సైతం</w>
సైన
సైనిక
సైనిక</w>
సైనికులకు</w>
సైనికులు</w>
సైన్
సైన్య
సైన్యం</w>
సైన్యంతో</w>
సైన్సెస్</w>
సైన్స్</w>
సైబ
సైబరాబాద్</w>
సొ
సొంత</w>
సొంతం</w>
సొమ్మ
సొమ్మంతా</w>
సొసై
సొసైటీ</w>
సో
సో</w>
సోకే</w>
సోద
సోదరి</w>
సోదరు
సోదరుడు</w>
సోనియా</w>
సోమ
సోమవారం</w>
సోము</w>
సోషల్</w>
సోహై
సోహైల్</w>
సౌ
సౌకర
సౌకర్య
సౌకర్యం</w>
సౌకర్యంగా</w>
సౌకర్యాలు</w>
సౌత్</w>
సౌరాష్ట్ర</w>
సౌల</w>
స్
స్</w>
స్క
స్కా
స్కాంకు</w>
స్కిల్</w>
స్కూ
స్కూలు</w>
స్కో</w>
స్క్
స్క్</w>
స్క్ర
స్క్రా
స్క్రాప్</w>
స్క్రిప
స్క్రిప్ట
స్క్రిప్టు</w>
స్క్రిప్ట్</w>
స్క్రీ
స్క్రీన్</w>
స్క్రీన్ల</w>
స్క్రీప్ల
స్క్రీప్లే</w>
స్క్రై
స్క్రైబ
స్క్రైబర్లు</w>
స్క్వా
స్క్వాడ్</w>
స్ట
స్టన్ని
స్టన్నింగ్</w>
స్టర్</w>
స్టా
స్టా</w>
స్టాంట్</w>
స్టాంపు</w>
స్టాంపులు</w>
స్టాక్</w>
స్టాటి
స్టాటిస్ట
స్టాటిస్టిక
స్టాటిస్టికల్</w>
స్టాటిస్టిక్స్</w>
స్టార
స్టార్
స్టార్</w>
స్టార్ట్</w>
స్టార్లు</w>
స్టార్స్</w>
స్టాలి
స్టాలిన్</w>
స్టి
స్టిక్</w>
స్టిట
స్టిట్యూట్</w>
స్టీ
స్టీ</w>
స్టీరియో</w>
స్టీల్</w>
స్టు</w>
స్టూ
స్టూడియో
స్టూడియోను</w>
స్టూడియోస్</w>
స్టె
స్టెయిన్</w>
స్టెవి
స్టెవియా</w>
స్టే
స్టేట
స్టేటస్</w>
స్టేష
స్టేష</w>
స్టేషన్</w>
స్టై
స్టైలి
స్టైలిష్</w>
స్టైల్</w>
స్టో
స్టోరీ</w>
స్టోర్</w>
స్ట్</w>
స్ట్ర
స్ట్రా
స్ట్రాబె
స్ట్రాబెర
స్ట్రాబెర్రీ
స్ట్రాబెర్రీలను</w>
స్ట్రీ
స్ట్రీ</w>
స్ట్రీట్</w>
స్ట్రె
స్ట్రెయి
స్ట్రెయిట్</w>
స్ట్రై
స్ట్రైకర్</w>
స్ట్రైక్</w>
స్ట్ర్రీట్</w>
స్త
స్తా</w>
స్తారు</w>
స్తుండగా</w>
స్తుందని</w>
స్తుంది</w>
స్తుత
స్తుతం</w>
స్తున్న
స్తున్న</w>
స్తున్నాం</w>
స్తున్నాడు</w>
స్తున్నాయి</w>
స్తున్నార
స్తున్నారని</w>
స్తున్నారు</w>
స్తులు</w>
స్తూ</w>
స్తే</w>
స్తోంది</w>
స్త్ర
స్థ
స్థల
స్థలపురా
స్థలపురాణం</w>
స్థా
స్థాన
స్థానంలో</w>
స్థానములో</w>
స్థానాన్ని</w>
స్థానాల</w>
స్థానాలు</w>
స్థానాల్లో</w>
స్థానిక</w>
స్థానికులు</w>
స్థాన్</w>
స్థాప
స్థాపన</w>
స్థాపించాడు</w>
స్థాయ
స్థాయి</w>
స్థాయికి</w>
స్థాయిని</w>
స్థాయిలో</w>
స్థావర
స్థావరాలతో</w>
స్థి
స్థిత
స్థితి</w>
స్థితికి</w>
స్థితుల</w>
స్థిర</w>
స్థై
స్థైర్యాన్ని</w>
స్ధాన
స్ధానాలను</w>
స్నే
స్నేహం</w>
స్నేహిత
స్నేహితుడు</w>
స్నేహితురాలు</w>
స్నేహితుల</w>
స్నేహితులు</w>
స్ప
స్ప</w>
స్పంద
స్పందన</w>
స్పందనలు</w>
స్పందించడం</w>
స్పందించారు</w>
స్పందిస్తూ</w>
స్పష్ట
స్పష్ట</w>
స్పష్టం</w>
స్పష్టత</w>
స్పష్టమైంది</w>
స్పష్టీ
స్పష్టీకరణ</w>
స్పి
స్పిన్న
స్పిన్నర్</w>
స్పీ
స్పీడు</w>
స్పీడ్</w>
స్పీల్
స్పీల్బర్
స్పీల్బర్గ్</w>
స్పూర్తి</w>
స్పె
స్పెండ్</w>
స్పెక్
స్పెక్టర్</w>
స్పెక్ట్రో
స్పెక్ట్రోస్
స్పెక్ట్రోస్కో
స్పెక్ట్రోస్కోపి</w>
స్పెర్
స్పెర్మ్</w>
స్పెషల్</w>
స్పే
స్పేస్</w>
స్పో
స్పోర్
స్పోర్ట్స్</w>
స్ఫ
స్ఫూర్
స్ఫూర్తి</w>
స్ఫూర్తిగా</w>
స్ఫూర్తితో</w>
స్ఫూర్తిని</w>
స్మగ
స్మగ్ల
స్మగ్లింగ్</w>
స్మార
స్మార్ట్</w>
స్మిత
స్మిత్</w>
స్మూ
స్మూతీ
స్మూతీస్</w>
స్మృ
స్మృతి</w>
స్యం</w>
స్లి
స్లిప్</w>
స్వ
స్వదేశ
స్వదేశీ</w>
స్వప్
స్వప్న</w>
స్వయ
స్వయం
స్వయం</w>
స్వయంగా</w>
స్వయంప్రే
స్వయంప్రేరి
స్వయంప్రేరితంగా</w>
స్వయంశ
స్వయంశక్త
స్వయంశక్తితో</w>
స్వరూప
స్వరూపనంద
స్వరూపనందే
స్వరూపనందేంద్ర</w>
స్వర్
స్వర్ణ
స్వర్ణయ
స్వర్ణయుగ
స్వర్ణయుగం</w>
స్వల
స్వల్ప
స్వల్ప</w>
స్వస్త
స్వస్తి</w>
స్వా
స్వాత
స్వాతంత్ర
స్వాతంత్ర్య</w>
స్వాభావ
స్వాభావిక</w>
స్వామి</w>
స్వామీ</w>
స్వి
స్వింగ్</w>
స్విచ్</w>
స్విచ్ఛ
స్విచ్ఛా
స్విచ్ఛాఫ్</w>
స్విఫ్ట్</w>
స్వీ
స్వీకర
స్వీకరణ</w>
స్వీకరించ
స్వీకరించడం</w>
స్వీకరించవచ్చు</w>
స్వీకరించారా</w>
స్వీకరించిన</w>
స్వీకారానికి</w>
స్వీడ
స్వీడన్</w>
స్వీప్</w>
స్వే
స్వేచ్చాయ
స్వేచ్చాయుత</w>
స్వేఛ
స్వేఛ్చ
స్వేఛ్చను</w>
స్వై
స్వైన్</w>
స్సు</w>
హ
హ</w>
హం</w>
హక్క
హక్కుకు</w>
హత
హతమైన
హతమైనట్లు</w>
హత్య
హత్య</w>
హత్యకేసులో</w>
హత్యచేయ
హత్యచేయించి</w>
హత్యచేసిన</w>
హథ
హథ్
హథ్న
హథ్నూర
హథ్నూర</w>
హథ్నూరలోను</w>
హద్ద
హద్దులు</w>
హనీ
హనీమూ
హనీమూన్</w>
హను
హనుమాన్</w>
హబ్
హబ్సీ
హబ్సీగూడ
హబ్సీగూడ</w>
హయా
హయాంలో</w>
హరి
హరిక
హరికృష్ణ</w>
హరిస్తున్నార
హరిస్తున్నారనేది</w>
హరే</w>
హర్
హర్య
హర్యాన
హర్యానాల్ల
హర్యానాల్లోనే</w>
హర్ష
హర్షం</w>
హర్షా
హర్షాతిరే
హర్షాతిరేకాలు</w>
హల్</w>
హల్చ
హల్చల్</w>
హా
హా</w>
హాంకా
హాంకాంగ్</w>
హాంగ్</w>
హాజ
హాజర
హాజరయ
హాజరయ్యాడు</w>
హాజరైన</w>
హాట్</w>
హాని</w>
హానిక
హానికర
హానికరం</w>
హానికరమైన</w>
హానికి</w>
హాన్</w>
హాప్
హాప్కి
హాప్కిన్స్</w>
హాఫ్</w>
హామ
హామీ
హామీ</w>
హామీని</w>
హామీలను</w>
హామీలు</w>
హాయ
హాయిగా</w>
హాయిస్తే</w>
హార
హారతి</w>
హార్</w>
హాలను</w>
హాలీవుడ్</w>
హాలు</w>
హాస్పి
హాస్పిట
హాస్పిటల్స్</w>
హి
హించారు</w>
హింద
హిందీలో</w>
హిందు
హిందువ
హిందువా</w>
హిందుస్త
హిందుస్తాన్</w>
హిందూ</w>
హిట్</w>
హిట్టు</w>
హిట్ల</w>
హిత
హితబోధ</w>
హిమ
హిమాలయ
హిమాలయాల్లో</w>
హీ
హీరో
హీరో</w>
హీరోగా</w>
హీరోగానే</w>
హీరోయిన్</w>
హీరోల</w>
హు
హుజూ
హుజూరాబాద్</w>
హుటా
హుటాహు
హుటాహుట
హుటాహుటిన</w>
హుమ</w>
హుషార
హుషారుగా</w>
హె
హెక్ట
హెక్టార
హెక్టార్లలో</w>
హెచ్</w>
హెచ్చ
హెచ్చర
హెచ్చరించాడు</w>
హెచ్చరించారు</w>
హెచ్చరిక
హెచ్చరిక</w>
హెచ్చరికను</w>
హెచ్చరికలు</w>
హెడ్</w>
హెయిర్</w>
హే
హేను</w>
హేమంత
హేమంత్</w>
హేశ
హేశ్వ</w>
హేష్</w>
హై
హైంద
హైందవ
హైందవంలో</w>
హైకోర్టు</w>
హైటె
హైటెన్షన్</w>
హైద
హైదరా
హైదరాబా
హైదరాబాదు</w>
హైదరాబాద్</w>
హైల
హైలెట్</w>
హో
హోం
హోం</w>
హోంమంత్రి</w>
హోటల్</w>
హోదా</w>
హౌ
హౌస్</w>
హ్
హ్మా
హ్మాస్త్ర
హ్మాస్త్ర</w>
హ్యా
హ్యాండ
హ్యాండిల్</w>
హ్యాండిల్స్</w>
హ్యాండ్</w>
హ్యాచ్</w>
హ్యాపీ
హ్యాపీగా</w>
ా
ా</w>
ాం</w>
ాకు</w>
ాచ
ాడ
ాడని</w>
ాడు</w>
ాడో</w>
ాత్మ
ాన
ాన</w>
ానం</w>
ానంటూ</w>
ానని</w>
ానాయ
ానిక
ానికి</w>
ాను
ాను</w>
ానే</w>
ాన్</w>
ాన్ని</w>
ాప
ామ
ామ</w>
ామని</w>
ామన్నారు</w>
ాము</w>
ాయ
ాయ</w>
ాయం</w>
ాయని</w>
ాయాన్ని</w>
ాయాలను</w>
ాయి
ాయి</w>
ాయిత
ాయో</w>
ాయ్</w>
ార
ారం</w>
ారంటూ</w>
ారని</w>
ారా
ారా</w>
ారాయ
ారాయణ</w>
ారావు</w>
ారి
ారి</w>
ారిటీ
ారిటీ</w>
ారీ
ారీ</w>
ారు</w>
ారులు</w>
ారె
ారెడ్డి</w>
ార్
ార్</w>
ార్క్</w>
ార్థ
ార్ధ
ాల
ాల</w>
ాలంటే</w>
ాలకు</w>
ాలతో</w>
ాలన
ాలని</w>
ాలను</w>
ాలనే</w>
ాలపై</w>
ాలపై</w>
ాలయ
ాలయ</w>
ాలయం</w>
ాలలో</w>
ాలా</w>
ాలి
ాలి</w>
ాలిని</w>
ాలీవుడ్</w>
ాలు</w>
ాలుగా</w>
ాలూ
ాలె
ాలె</w>
ాలెన్నో</w>
ాలే</w>
ాలో
ాలో</w>
ాలోని</w>
ాల్
ాల్</w>
ాల్ని</w>
ాల్ల
ాల్లో</w>
ాల్లోకి</w>
ాల్లోని</w>
ాల్సి
ాల్సి</w>
ాల్సింద
ాల్సిందే
ాల్సిన</w>
ావ
ావు</w>
ావ్</w>
ి
ి</w>
ింగ్</w>
ించ
ించగా</w>
ించడం</w>
ించడంతో</w>
ించడానికి</w>
ించన
ించని</w>
ించనున్న
ించబడ
ించలేకపోయ
ించాడు</w>
ించాయి</w>
ించారని</w>
ించారు</w>
ించాలని</w>
ించాలి</w>
ించి</w>
ించింద
ించింది</w>
ించిన
ించిన</w>
ించినట్లు</w>
ించినా</w>
ించుకో
ించుకోండి</w>
ించుకోవ
ించుకోవటం</w>
ించుట
ించుటకు</w>
ించే</w>
ించేందుకు</w>
ింద
ిందట</w>
ిందని</w>
ింది</w>
ిక
ిక</w>
ికంగా</w>
ికల్</w>
ికార
ికి</w>
ికీ</w>
ికులు</w>
ిక్
ిక్</w>
ిక్కి
ిక్ష
ిగ
ిగా</w>
ిచ
ిణ
ిత
ిత</w>
ితం</w>
ితంగా</w>
ితే</w>
ితో</w>
ిత్</w>
ిది</w>
ిన
ిన</w>
ినట్టు</w>
ినట్టుగా</w>
ినట్లు</w>
ినప్పుడు</w>
ినా</w>
ిని</w>
ినీ
ినీ</w>
ినే
ిన్న</w>
ిప
ిపై</w>
ిపోత
ిపోయ
ిపోయింది</w>
ిప్</w>
ియ
ియన్</w>
ియా</w>
ిరా
ిల
ిలక
ిలా
ిలో</w>
ిలోనే</w>
ిల్</w>
ిల్ల
ిల్స్</w>
ివిధ
ిస్త
ిస్తాడ
ిస్తార
ిస్తార</w>
ిస్తారు</w>
ిస్తుండ
ిస్తుండడంతో</w>
ిస్తుందని</w>
ిస్తుంది</w>
ిస్తున్న
ిస్తున్న</w>
ిస్తూ</w>
ిస్తే</w>
ిస్తోంది</w>
ీ
ీ</w>
ీగా</w>
ీపై</w>
ీలు</w>
ీలో</w>
ీవుడ్</w>
ు
ు</w>
ుంటే</w>
ుండ
ుండగా</w>
ుండటంతో</w>
ుంద
ుంద</w>
ుందని</w>
ుంది</w>
ుక
ుక</w>
ుకు
ుకు</w>
ుకుంట
ుకుంటారు</w>
ుకుంటుందని</w>
ుకుంటుంది</w>
ుకుంటున్న
ుకుంటూ</w>
ుకుంటే</w>
ుకుంటోంది</w>
ుకుంది</w>
ుకుని</w>
ుకునే
ుకునే</w>
ుకునేందుకు</w>
ుకున్న
ుకున్న</w>
ుకున్నది</w>
ుకున్నాడు</w>
ుకున్నారు</w>
ుకుపోత
ుకులు</w>
ుకూ
ుకె
ుకెళ
ుకెళ్ల
ుకే</w>
ుకొ
ుకొని</w>
ుకో
ుకో</w>
ుకోవ
ుకోవచ్చు</w>
ుకోవడం</w>
ుకోవడంతో</w>
ుకోవడానికి</w>
ుకోవాలని</w>
ుకోవాలి</w>
ుక్</w>
ుగ
ుగా</w>
ుచ
ుజ
ుట
ుడ
ుడు</w>
ుత
ుత</w>
ుతామని</w>
ుతాయి</w>
ుతు
ుతుంటే</w>
ుతుంద
ుతుందని</w>
ుతుందనే</w>
ుతుంది</w>
ుతున్న
ుతున్న</w>
ుతున్నానని</w>
ుతున్నాయ
ుతున్నాయని</w>
ుతున్నాయి</w>
ుతున్నారని</w>
ుతున్నారు</w>
ుతూ</w>
ుతో</w>
ుతోందని</w>
ుతోంది</w>
ుతోన్న</w>
ున
ున</w>
ునకు</w>
ుని</w>
ును</w>
ున్న
ున్న</w>
ున్నాడు</w>
ున్నాయి</w>
ున్నారని</w>
ున్నారు</w>
ుప
ుపై</w>
ురాలు</w>
ుల
ుల</w>
ులంతా</w>
ులంద</w>
ులకు</w>
ులతో</w>
ులను</w>
ులపై</w>
ులలో</w>
ులా
ులు</w>
ులుగా</w>
ులే
ులే</w>
ులైన</w>
ులో</w>
ులోకి</w>
ులోని</w>
ుల్</w>
ుల్ల
ుల్లో</w>
ుల్లోనే</w>
ువ
ువు
ువు</w>
ువుల</w>
ువులు</w>
ూ
ూ</w>
ూడ
ూడి</w>
ూనే</w>
ూప
ూర
ూరి</w>
ూరు</w>
ూర్
ూర్</w>
ృ
ృతి</w>
ృత్వ
ృష్ట
ృష్ణ</w>
ె
ె</w>
ెంట
ెంట్</w>
ెంలో</w>
ెక్క
ెట్</w>
ెట్లు</w>
ెడ్డి</w>
ెన్
ెన్సు
ెల
ెలి
ెల్</w>
ెల్ల
ెస్</w>
ై
ే
ే</w>
ేందుకు</w>
ేక్</w>
ేజ్</w>
ేట
ేద
ేదని</w>
ేదు</w>
ేను</w>
ేనే</w>
ేమి</w>
ేయ
ేలా</w>
ేశ
ేశారు</w>
ేశ్వ
ేష
ేషన్</w>
ేషన్ల</w>
ేష్</w>
ేస
ేసి</w>
ేస్</w>
ై
ై</w>
ైంది</w>
ైజీ
ైట్</w>
ైన</w>
ైనా</w>
ైల్</w>
ొ
ొంద
ొక్క</w>
ొచ్చ
ొచ్చు</w>
ొద్ద
ొద్దని</w>
ో
ో</w>
ోంద
ోందని</w>
ోంది</w>
ోకి</w>
ోగ
ోధ
ోని</w>
ోను</w>
ోనూ</w>
ోనే</w>
ోన్న
ోన్న</w>
ోన్నత</w>
ోర
ోష
ౌ
ౌక</w>
ౌన్స్</w>
ౌర
్
్</w>
్చ
్చిన</w>
్ట
్ట</w>
్ట్</w>
్ని</w>
్ప
్య
్య</w>
్యం</w>
్యంలో</w>
్యత</w>
్యా
్యా</w>
్యాక</w>
్యాడు</w>
్యాణ్</w>
్యాన్ని</w>
్యాల</w>
్యూ
్యూటీ</w>
్యూట్</w>
్ర
్రం</w>
్రా
్రా</w>
్రి</w>
్రీ
్రీట్</w>
్రీయ</w>
్రు</w>
్రుడు</w>
్రె
్రో
్ల
్ల</w>
్లలో</w>
్లా
్లాష్</w>
్లీ</w>
్లు</w>
్లో</w>
్వ
్వ</w>
్వం</w>
్వా
్స్</w>
ౖ
ౖన
ౖన</w>
౦
​
​</w>
‌
‌</w>
–
–</w>
‘
‘</w>
’
’</w>
“
“</w>
”
”</w>
…
…</w>
■
■</w>
�
�</w>
